{"collaborative": 14684, "provinces": 7112, "Aubrey": 20587, "makes": 2228, "Public": 2710, "Dear": 12956, "Diet": 22327, "Full": 8896, "trailing": 13161, "analyzing": 23389, "Southeast": 8348, "Sales": 15689, "##ibes": 20195, "##eae": 19460, "generals": 14729, "Actress": 8151, "##ulously": 23268, "Student": 7646, "1906": 4782, "anonymous": 12631, "Control": 6342, "Missouri": 4499, "##ering": 5938, "steal": 8991, "Nielsen": 13491, "Chung": 17838, "##jana": 21026, "##usage": 27130, "Moreover": 9841, "Anniversary": 12656, "matters": 5218, "##rix": 14799, "thesis": 9593, "swell": 21835, "magazine": 2435, "##reck": 21486, "split": 3325, "lowered": 6069, "Bow": 21107, "juvenile": 15031, "Elton": 20837, "Cabinet": 9049, "short": 1603, "##tech": 22218, "1100": 24450, "West": 1537, "designated": 3574, "##ultural": 25485, "Live": 3374, "blind": 7198, "strikes": 9778, "Hesse": 17416, "Antoine": 12612, "##60": 16480, "Nick": 3350, "##rave": 22116, "increase": 2773, "abuse": 6704, "revenue": 7143, "happened": 2171, "Record": 7992, "exercises": 11536, "flick": 22302, "##bina": 23051, "Nursing": 15192, "stronghold": 19361, "Gupta": 22560, "grassland": 23560, "skater": 21827, "Fin": 19140, "confiscated": 18423, "Napoleonic": 20395, "AD": 5844, "pointed": 3356, "ditch": 15916, "Rama": 15078, "Willy": 17624, "placement": 12693, "devote": 26344, "restructuring": 20841, "Daughter": 16039, "consciously": 27835, "rookie": 11416, "Gujarat": 15019, "cycles": 13874, "\u00d6": 239, "si": 27466, "Academy": 2127, "understanding": 4287, "##green": 24448, "Products": 16818, "##current": 21754, "medical": 2657, "yacht": 16449, "##C": 1658, "pension": 12966, "Morrison": 9742, "Rutherford": 19936, "pitchers": 26970, "vassal": 28080, "mornings": 19622, "before": 1196, "LGBT": 12105, "Companies": 13134, "rink": 23444, "Friedman": 19942, "##quitaine": 28120, "farms": 9464, "##moor": 19216, "\u00c4": 229, "Teaching": 15846, "extensive": 4154, "##\u0936": 28527, "##opping": 20553, "defects": 20705, "spring": 3450, "##\u0baa": 28576, "##le": 1513, "adopt": 11258, "##thest": 22722, "##prise": 16874, "Le": 3180, "##bound": 8346, "part": 1226, "saying": 2157, "##F": 2271, "##ises": 13733, "pageant": 14188, "##lown": 23054, "##cognition": 27176, "matched": 10260, "besides": 8655, "##v": 1964, "cleaning": 9374, "cart": 12411, "communal": 17022, "138": 15731, "Doom": 18309, "silhouette": 27316, "##grim": 21956, "##pas": 22939, "Polytechnic": 16258, "Quite": 22597, "37th": 25659, "playback": 26249, "##ificant": 18772, "standards": 4473, "daughters": 5421, "Tribunal": 17632, "##\u1d49": 28615, "agreement": 3311, "##moration": 24829, "racial": 5209, "ally": 11989, "##wig": 14001, "##tica": 11761, "##igh": 21523, "grey": 5583, "dans": 22463, "awkward": 9540, "##\u1d62": 21041, "laughed": 3348, "dye": 23966, "succeeded": 3760, "##sband": 22309, "Saetan": 26256, "protocol": 11309, "highest": 2439, "decrease": 9711, "\u056b": 517, "\u044e": 505, "hollow": 11134, "##etti": 12266, "pirate": 15266, "##claim": 16659, "21": 1626, "paved": 12609, "##rip": 16669, "considerations": 19069, "recorder": 18898, "forgot": 9424, "##mark": 8519, "portfolio": 12256, "##oda": 16848, "cricket": 5428, "letter": 2998, "idol": 17642, "##eveloped": 19703, "teamed": 12854, "##oxide": 22040, "Kit": 18284, "endowment": 27738, "null": 26280, "##idal": 13293, "Tin": 16452, "graduation": 7477, "shuffled": 20390, "Upper": 5454, "Disney": 5712, "reassure": 27879, "player": 1591, "importantly": 16246, "X": 161, "Garion": 12696, "##ungen": 25821, "Internal": 13545, "##definite": 28090, "Cable": 15038, "Worcester": 12710, "greatly": 5958, "##\u2660": 28770, "##riz": 28021, "##\u0144": 19339, "188": 20783, "precedent": 22275, "##smo": 26358, "ribbon": 14253, "##TF": 22169, "##UC": 21986, "##verted": 17534, "find": 1525, "hearth": 27965, "neighbouring": 9586, "\u0254": 355, "Judges": 21312, "Natalia": 24130, "##bird": 8689, "##lent": 13147, "April": 1364, "Frontier": 13984, "arranger": 16163, "disappears": 18441, "id": 25021, "1830": 9200, "print": 5911, "contents": 8792, "##eek": 20059, "bail": 17076, "Freud": 21058, "##rgo": 17161, "##Leod": 18763, "Free": 4299, "##ow": 4064, "upside": 16888, "Lal": 24298, "##lt": 6066, "Kevin": 4101, "Yang": 8772, "##runner": 14627, "calf": 23256, "preferring": 24075, "\u3051": 901, "Mumbai": 8601, "umpire": 25077, "##FM": 17938, "graveyard": 20701, "Aiden": 15848, "indefinitely": 22887, "##ttering": 20809, "Handball": 25283, "monthly": 7868, "posterior": 16530, "Gunn": 24457, "##hesion": 23746, "stone": 2576, "believe": 2059, "Darren": 12413, "##tric": 11048, "##dicative": 26289, "Rosie": 16853, "persecution": 15873, "##\u03ac": 28335, "absorbing": 23774, "With": 1556, "et": 3084, "choked": 12663, "rocks": 5753, "##43": 25631, "##bu": 7925, "[unused7]": 7, "Vladimir": 8591, "Nordic": 14271, "typhoon": 27350, "bury": 16712, "ownership": 5582, "Democracy": 12470, "##zas": 23538, "posting": 15537, "\u1e24": 727, "restraint": 21769, "occasionally": 5411, "editorial": 9378, "cycle": 5120, "##frey": 24740, "radius": 12717, "little": 1376, "Voice": 7900, "\u0303": 390, "fearing": 19424, "Jax": 13612, "Straits": 24884, "limitation": 26802, "##evo": 23663, "\u2192": 845, "drains": 20681, "scowl": 21840, "Achievement": 10295, "invaders": 22864, "Emery": 28019, "temples": 8433, "Advanced": 8445, "vein": 13585, "##hawks": 18822, "##robe": 25560, "cubic": 12242, "status": 2781, "infectious": 20342, "wherein": 18115, "guests": 6065, "##lamour": 23823, "##folia": 26749, "Bo": 9326, "Astros": 24462, "Internationale": 25807, "doubts": 14351, "##tamine": 27621, "birthday": 5913, "##burg": 3410, "trend": 10209, "##tones": 11488, "Nationals": 16101, "Peyton": 19289, "##uest": 27648, "##sonic": 19500, "nutrition": 20121, "\u30f3": 973, "procedures": 8826, "neighborhoods": 12073, "Broad": 16943, "##\u00e7aise": 20952, "reminiscent": 15341, "phased": 24590, "frequented": 28093, "Starr": 14919, "spectators": 12902, "*": 115, "\u00cd": 235, "Gymnasium": 19431, "fungi": 17005, "Godfrey": 19635, "##weiler": 23768, "hope": 2810, "##emption": 19007, "accusations": 14144, "visitor": 11972, "Izzy": 17779, "II": 1563, "1984": 2219, "contributors": 19492, "##dote": 26595, "im": 13280, "ago": 2403, "whereas": 6142, "##will": 17274, "##rous": 13149, "Asian": 3141, "racing": 3915, "##rella": 23482, "beaten": 7425, "Marta": 22930, "Center": 1945, "Denis": 11068, "update": 11984, "Patty": 20033, "absorption": 18099, "streaks": 24177, "rabbit": 16225, "##\u00e9es": 21272, "##xious": 25459, "##cc": 19515, "##yas": 13358, "Omar": 13569, "\u05e4": 553, "##going": 25251, "lecture": 10309, "##ude": 10308, "perspectives": 22168, "##feng": 27875, "finished": 1845, "maps": 7415, "Deutsche": 12054, "publishes": 12701, "began": 1310, "approaching": 8320, "insists": 17933, "criticizing": 23707, "Maritime": 11081, "comprises": 8302, "##\u00c7": 28185, "Rainbow": 13188, "##lix": 20711, "##house": 3255, "Eclipse": 22301, "##hler": 14460, "battlefield": 13777, "ex": 4252, "act": 2496, "Buddhism": 11411, "##tract": 15017, "##psis": 17990, "\u207f": 810, "artist": 2360, "1950": 3067, "Namibia": 16228, "Meridian": 27654, "races": 3117, "today": 2052, "thump": 24965, "passages": 14888, "##nsley": 20217, "Maltese": 20093, "Vickers": 20067, "hiding": 5797, "##sburg": 9364, "labels": 11080, "hurt": 2644, "archipelago": 21255, "passionate": 14472, "bow": 7125, "Milan": 6390, "##rio": 8558, "##unate": 27858, "references": 7732, "nineteen": 14834, "immigrated": 18598, "Investigation": 15701, "stars": 2940, "duel": 17253, "deeply": 5585, "Cinema": 10371, "Corps": 3158, "ache": 12953, "clashes": 19708, "shrugged": 5701, "nursery": 17840, "Xavier": 9867, "inclusive": 21783, "Christoph": 23607, "##\u03bb": 28348, "grimly": 26008, "\u0110": 287, "rising": 4703, "lashes": 17366, "amended": 13848, "##wang": 15946, "forts": 17725, "Grave": 24018, "texted": 27807, "design": 1902, "Johnson": 2921, "##\u660e": 28927, "miracles": 27658, "holds": 3486, "Sofia": 8713, "##ough": 18626, "switched": 6759, "Lily": 6916, "##ality": 17839, "declares": 20651, "##\u0192": 28263, "##ll": 2339, "locks": 11992, "##nics": 21157, "opens": 7086, "[unused19]": 19, "newscasts": 27718, "Guitar": 7656, "##linger": 18332, "##venge": 25173, "##ione": 23997, "Hazel": 21021, "repealed": 23948, "##kis": 15860, "##\u05e2": 28462, "prison": 3315, "entrepreneurs": 21607, "Manny": 17381, "##ils": 8825, "Tipperary": 18521, "frogs": 22025, "frigate": 17201, "motto": 13658, "##oons": 17658, "\u028a": 369, "Monsieur": 25599, "Specialist": 25607, "confirms": 26064, "415": 27813, "missed": 4007, "winked": 14770, "helm": 22778, "##ores": 12238, "accordion": 22827, "Cunningham": 14055, "prevention": 13347, "Hit": 15375, "Those": 4435, "cocaine": 18316, "sniffed": 19407, "##\u05d8": 28453, "geographically": 26160, "save": 3277, "architect": 4460, "Superior": 10905, "travellers": 25199, "\u03b1": 418, "\u306a": 913, "Rd": 23604, "owe": 12972, "##jit": 23324, "##rissa": 26509, "\u2022": 794, "\u967d": 1082, "##yo": 7490, "Simmons": 14068, "concentrations": 14759, "Abraham": 7752, "celebrations": 12746, "Theme": 14999, "awarding": 25055, "Simple": 16896, "Clan": 14288, "Aleppo": 25629, "small": 1353, "##lina": 10655, "draw": 3282, "Yuan": 13049, "##truction": 17993, "review": 3189, "##\u03b9": 28346, "36": 3164, "summit": 7966, "backbone": 25776, "##etto": 27394, "##tre": 7877, "Ukrainian": 5284, "camps": 7869, "temporary": 5335, "##essed": 24940, "Reeve": 26034, "Grace": 4378, "##pire": 20082, "Clark": 4425, "Height": 21621, "efficiency": 8096, "##mir": 15191, "##rap": 14543, "run": 1576, "Assembly": 2970, "descendant": 12920, "congestion": 22860, "Iron": 5621, "Islamic": 4769, "##MC": 10044, "articles": 4237, "utterly": 13006, "interactive": 12196, "##cross": 17414, "Savings": 25794, "dug": 8423, "Rex": 10896, "MW": 13277, "##\u90ce": 28968, "##meyer": 25177, "roaring": 23041, "Browning": 21197, "##ha": 2328, "Wan": 17878, "employers": 13673, "ethical": 15380, "volume": 3884, "##lift": 12215, "amounted": 20317, "302": 24412, "acknowledge": 13812, "aquarium": 27496, "4": 125, "entertain": 23490, "Archbishop": 6785, "Been": 18511, "Ogden": 25868, "Sutton": 11163, "##tronomy": 25814, "Winfield": 27895, "Palestine": 8619, "##GS": 13472, "we": 1195, "Translation": 19996, "##atory": 13424, "valves": 19056, "bookstore": 27714, "##lda": 23253, "Garden": 5217, "sanitation": 23353, "cartridge": 16542, "comedy": 3789, "\u03ac": 414, "stark": 18237, "##SB": 19117, "fast": 2698, "Boyer": 26170, "grabs": 13707, "extending": 8177, "reduction": 7234, "Romero": 19731, "##udge": 17717, "ton": 11371, "transmitter": 11991, "##\u057d": 28433, "sparkling": 18439, "Cash": 10511, "watershed": 13920, "\u3068": 912, "Henrik": 20297, "Generation": 10617, "Foley": 18412, "\u304d": 899, "southwest": 5090, "##\u00a5": 28160, "Kota": 28056, "voluntary": 12048, "Arkansas": 6147, "hammer": 12582, "flipped": 9082, "Anita": 13173, "Carpenter": 13190, "rip": 13579, "Routledge": 23331, "dared": 15983, "serum": 23651, "landowner": 22370, "Spokane": 24193, "Tracy": 10435, "##pelled": 24015, "select": 8247, "batted": 13033, "120": 5356, "collaborator": 20715, "##cated": 11603, "##20": 10973, "annoyance": 19236, "Bad": 6304, "drawing": 4619, "##iously": 15160, "##\u03c8": 28359, "knocking": 10760, "distinct": 4966, "maternal": 11476, "forbidden": 12031, "Recently": 15088, "intend": 13938, "unique": 3527, "1700": 17647, "squinted": 18654, "##dles": 24859, "Hillary": 20001, "tinged": 25275, "Player": 5348, "watches": 12642, "1903": 5066, "Malayalam": 13307, "failure": 4290, "##@": 28146, "honesty": 19242, "nationwide": 9708, "##uche": 21758, "Oscar": 7248, "thoughts": 3578, "tear": 7591, "##la": 1742, "rumble": 24102, "##yme": 26911, "us": 1366, "Giles": 13627, "compensate": 20766, "doom": 26375, "Allah": 18203, "Anna": 3883, "accord": 22973, "magnet": 24197, "timeline": 21169, "##isan": 21599, "##icides": 25606, "##\u0b95": 28574, "##powerment": 25603, "##combe": 14231, "practical": 6691, "disturbed": 13162, "ward": 7910, "transparent": 14357, "##\uff08": 28990, "safe": 2914, "Rivera": 14556, "diversion": 24183, "##free": 26743, "Consort": 27765, "##\u057f": 28434, "undrafted": 24467, "aren": 4597, "circulation": 9097, "##\u0146": 28234, "ceiling": 5265, "stumble": 24545, "Ch\u00e1vez": 26745, "hoarse": 23523, "Karin": 27720, "levels": 3001, "200": 2363, "\u1eaf": 744, "Fine": 4730, "random": 7091, "##t\u00e9": 14608, "##mo": 3702, "cash": 5948, "motif": 17853, "##3": 1495, "growling": 27684, "##sei": 17191, "##rump": 27321, "mixtape": 23374, "jaws": 19946, "Autumn": 13154, "sprang": 16636, "tent": 9459, "\u0457": 509, "Gould": 15617, "Belmont": 18672, "Hahn": 27298, "Taipei": 14512, "capitals": 24199, "##gger": 9146, "Framework": 24030, "duke": 16093, "decreases": 19377, "Hare": 18146, "reproduce": 23577, "gap": 7275, "linked": 5128, "##iation": 24737, "##\u09df": 28573, "sex": 2673, "ruined": 9832, "Regional": 4723, "constituents": 27808, "breach": 13275, "##raith": 21980, "yanked": 10968, "##ype": 16726, "experience": 2541, "Biological": 20312, "scripted": 26095, "##MP": 12347, "Skinner": 18835, "\u5b80": 1015, "Mohammed": 12811, "##ful": 2365, "Standards": 14365, "smaller": 2964, "glass": 2525, "Aboriginal": 10970, "aching": 15790, "remark": 19422, "HK": 25660, "ashes": 15359, "unless": 4895, "Wilson": 3425, "lodged": 22422, "Conversely": 24433, "Morris": 5744, "accomplishments": 19156, "tail": 5287, "tilt": 20827, "Persia": 17746, "##spect": 20629, "chased": 13781, "adequate": 12373, "Bowling": 19356, "##band": 10198, "Gemma": 20916, "woven": 19187, "wall": 2095, "##kat": 24375, "stairway": 27332, "cafeteria": 18698, "Kingston": 9557, "kiss": 3041, "##AM": 10964, "##horn": 9772, "2000s": 8509, "transforming": 20892, "memories": 5628, "beauty": 5295, "##sy": 5821, "##L": 2162, "beds": 9884, "Appearance": 27717, "##ncing": 16368, "Casino": 14773, "##brand": 25123, "Josephine": 18355, "\u0151": 314, "64": 3324, "weren": 3920, "Cemetery": 5501, "richest": 20513, "evaluate": 17459, "freshwater": 13800, "MB": 19443, "Dmitry": 24513, "##teacher": 27889, "Combined": 16544, "##rate": 5498, "Thin": 27626, "cop": 9947, "Stones": 15165, "spilling": 19626, "##gler": 14849, "lying": 4009, "preparation": 7288, "comedian": 10475, "Some": 1789, "30th": 13631, "basically": 11519, "programs": 2648, "Faces": 25246, "##alog": 20151, "Aurora": 14096, "Beer": 16380, "Eliminated": 20490, "1939": 3061, "##rai": 14089, "computer": 2775, "Watson": 7422, "Tall": 19900, "1871": 6899, "##game": 18350, "Yo": 14941, "sighted": 22124, "customs": 10148, "##cedural": 27433, "##\u0646": 17754, "Audience": 23590, "Newman": 10525, "Co": 3291, "Danish": 4979, "##oese": 25719, "plans": 2714, "##13": 17668, "\u00b7": 218, "##\u09b6": 28562, "Edna": 23273, "\u4e00": 976, "Titanic": 24342, "items": 4454, "impress": 19726, "Yi": 14141, "##rani": 23851, "Sakura": 26364, "##tment": 22668, "1840s": 21000, "energy": 2308, "Cities": 12380, "visibly": 21408, "Austen": 27165, "Blaze": 27740, "Response": 24187, "groups": 2114, "I": 146, "cope": 16743, "exercised": 19065, "Alexandria": 10142, "eaten": 8527, "Armagh": 27816, "##rook": 18562, "Farm": 6865, "##inas": 16924, "group": 1372, "chorus": 8220, "Research": 2713, "Fort": 3144, "Classification": 19295, "Tallinn": 23277, "breathed": 8399, "heirs": 17461, "Prefecture": 8197, "acquitted": 20183, "sensory": 19144, "Triangle": 20742, "Callum": 16052, "Assistant": 5414, "intermediate": 9533, "incentive": 23692, "##41": 25892, "##hetic": 18994, "triangle": 12099, "Viscount": 12897, "##osa": 9275, "##ud": 4867, "\u039c": 404, "foundation": 4686, "##scent": 23193, "investigations": 11041, "rise": 3606, "\u0441": 492, "credentials": 25644, "Certificate": 14972, "Six": 4995, "##nating": 26434, "simulation": 14314, "cellular": 14391, "Owens": 15500, "assume": 7568, "##/": 28139, "\u5341": 994, "sts": 9912, "##reaves": 24439, "##eran": 19776, "##hein": 26710, "seventh": 5001, "flatly": 27337, "Hampshire": 6446, "Classic": 6667, "backgrounds": 16497, "##thi": 14298, "myths": 21557, "##oni": 11153, "Tax": 13429, "##urning": 24049, "squares": 16004, "Renaissance": 8236, "du": 3840, "Dickson": 24440, "Nepali": 26246, "##MS": 7182, "deployed": 6925, "depicting": 10726, "carries": 7450, "Mo": 12556, "Series": 2768, "##\u0639": 28490, "##sso": 20808, "\u677e": 1043, "momentum": 11550, "discoveries": 17707, "##ilities": 27968, "keys": 6631, "dresses": 15402, "shrink": 26406, "##ynn": 20906, "astronomer": 17150, "Capital": 6299, "isn": 2762, "verses": 11808, "Glover": 21895, "crashing": 13423, "Bhutan": 20325, "Solar": 12700, "skeptical": 21333, "##cine": 15459, "abandoning": 22634, "discourse": 18644, "fully": 3106, "AA": 10419, "presumably": 11280, "maintains": 9032, "deepest": 19327, "Connolly": 23110, "reform": 5851, "##polis": 14386, "Shop": 13125, "##aul": 18318, "##witch": 18548, "betrayed": 12546, "##phine": 21587, "backwards": 11316, "Afghan": 13099, "Rashid": 24736, "cherry": 20170, "shiny": 13388, "##maging": 26772, "We": 1284, "Hawthorn": 26493, "independence": 4574, "Bert": 15035, "##edd": 23372, "indicating": 7713, "sketches": 14578, "styles": 6739, "##\uff0f": 28994, "aft": 18616, "internship": 27265, "cartoon": 11540, "priorities": 21249, "genetic": 7434, "cites": 20417, "hauled": 13486, "beads": 20108, "mushroom": 25590, "##nington": 24288, "\u10dd": 703, "CO\u2082": 22140, "ducks": 24488, "living": 1690, "arrest": 6040, "reality": 3958, "1789": 14145, "##iens": 23461, "interrupt": 19717, "##ncia": 22313, "Akron": 25324, "turn": 1885, "sip": 11456, "Oblast": 11705, "Camp": 5503, "##person": 14359, "Partner": 24961, "##oid": 7874, "##tility": 20688, "ridden": 17698, "segment": 6441, "1926": 4082, "Rockies": 24860, "Palatinate": 20824, "##bling": 6647, "Ole": 19272, "aided": 12340, "\u02e2": 387, "\u05d1": 536, "##zad": 24981, "focusing": 7781, "outspoken": 25304, "##xton": 14933, "Loser": 16462, "AJ": 22078, "landed": 4860, "comparative": 18008, "zombies": 17715, "fucking": 8750, "\u0f7a": 696, "electronics": 11216, "##tate": 10237, "humanitarian": 13879, "covered": 2262, "##ided": 10517, "avid": 21976, "Brody": 21525, "crept": 13462, "##45": 21336, "replace": 4971, "lure": 19615, "crystal": 8626, "wool": 13103, "##dication": 13923, "##dir": 15232, "Veterinary": 27495, "##xon": 21501, "401": 25182, "Speaking": 14072, "adjustment": 23427, "cup": 4355, "##\u1d40": 28611, "proper": 4778, "##anche": 23742, "crowd": 3515, "Turin": 14283, "Loch": 18207, "##iae": 21845, "courtroom": 23699, "sprinter": 24360, "Au": 27758, "Nigerian": 11960, "emeritus": 24055, "Wanted": 20601, "darted": 14568, "Michele": 18493, "##oshi": 22437, "1689": 25221, "room": 1395, "rocking": 16964, "teens": 15050, "Gender": 21108, "hospitality": 21604, "##VA": 12152, "replaces": 22974, "repulsed": 27986, "doctrine": 9978, "Single": 8353, "Nike": 20100, "liberated": 22241, "##uard": 21320, "##ned": 3540, "games": 1638, "##tically": 23817, "##wolf": 25380, "Awards": 2763, "Issues": 21213, "loops": 17806, "fascist": 22402, "Elvis": 12452, "instrumentation": 19391, "Sustainable": 21779, "##kumar": 23107, "starring": 3937, "barony": 26488, "Churchill": 10834, "Richter": 21954, "Ives": 26916, "##\u0110": 28217, "visa": 12083, "Reg": 23287, "Ju": 23915, "portable": 15139, "##rgus": 24200, "##OX": 24569, "fled": 6192, "##\u548c": 28895, "T": 157, "##us": 1361, "##\u4f8d": 28882, "Rudolf": 12995, "##lie": 7174, "Boca": 26178, "dinner": 4014, "\u00a2": 201, "##tral": 16010, "suffered": 3421, "Way": 4714, "##rman": 7990, "Holy": 3930, "\u5c71": 1021, "##mine": 9685, "wonder": 4608, "Len": 22824, "Maddie": 19133, "thoroughly": 12678, "Simone": 14591, "tidal": 17958, "Nolan": 13761, "Class": 3699, "##pel": 10522, "##\uc774": 28985, "##jin": 11966, "##sided": 25984, "processors": 20026, "localities": 22028, "lump": 16401, "River": 1595, "Male": 10882, "halls": 10969, "##raphy": 18385, "Khorasan": 25961, "writings": 7961, "assured": 8642, "##\u201e": 28693, "definition": 5754, "known": 1227, "struggle": 5637, "Cavalry": 9312, "Oregon": 4660, "green": 2448, "Memorial": 4136, "Luca": 16730, "disruption": 23730, "inquiry": 12064, "scarcely": 22464, "Milwaukee": 8850, "\u09aa": 653, "##rth": 11687, "Cheung": 26475, "##sar": 9724, "propeller": 17358, "Chelsea": 8979, "plantation": 12739, "Rams": 15183, "wallet": 17364, "competitive": 6591, "Eden": 10253, "scrap": 16720, "##lude": 12906, "##TH": 24162, "wholly": 12907, "##po": 5674, "southernmost": 24608, "##\u2091": 28721, "careful": 5784, "airing": 10477, "\u00c6": 231, "bestowed": 18668, "reared": 26235, "##ske": 17726, "Belize": 20449, "association": 3852, "Given": 10470, "dates": 4595, "##reate": 15998, "\u306e": 915, "fuel": 4251, "implementation": 7249, "##pile": 24898, "Mathematics": 9833, "curled": 7787, "embarrassing": 17810, "##gata": 18708, "Rangers": 6838, "Cannon": 16017, "Tad": 26741, "refusing": 11676, "downward": 14833, "promotions": 18949, "tropical": 5065, "##\u03c5": 28356, "Fortunately": 18101, "famous": 2505, "Patton": 19451, "##ncies": 9885, "Chao": 26168, "##press": 11135, "serviced": 25658, "##orra": 27583, "territorial": 10120, "decade": 4967, "Fitzroy": 27477, "conceded": 16806, "##father": 16064, "##pion": 20585, "\u304b": 898, "tuberculosis": 18436, "##OE": 19825, "announce": 15810, "mentioned": 3025, "Garner": 26971, "Lulu": 24702, "\u2021": 793, "Council": 1761, "Sutherland": 14831, "Power": 3794, "Lawson": 15205, "nurses": 13318, "inviting": 16067, "cruiser": 12680, "substituted": 18667, "shirts": 11710, "medieval": 5908, "ideology": 14270, "ps": 15604, "##ress": 7370, "Brighton": 10162, "Ranger": 13415, "Closing": 23408, "unemployment": 13204, "charge": 2965, "ABS": 20066, "##\u2079": 28709, "tours": 8398, "receivers": 21535, "##bard": 27191, "##\u05b6": 28440, "Senate": 3279, "educational": 4339, "literacy": 8923, "Philippe": 11162, "biographer": 19382, "Nr": 26378, "extinction": 16137, "puzzled": 16199, "superficial": 26558, "baroque": 26194, "\u1e33": 731, "Presidents": 19279, "shale": 25716, "soldier": 5176, "##\u5c1a": 28913, "climbed": 5998, "Club": 1998, "Mistress": 20909, "looked": 1350, "suspicion": 11340, "Schultz": 24867, "certainly": 4664, "protecting": 8547, "Sabha": 11349, "BP": 21062, "Group": 1990, "Atlantis": 17793, "histories": 19160, "Pictures": 7392, "\u30c9": 954, "Mountain": 3757, "\u00aa": 207, "burned": 4562, "Introduction": 13813, "Diploma": 16333, "thorough": 17213, "##ckney": 24614, "1861": 6255, "Spencer": 6511, "##\u0ba4": 28575, "##bow": 14251, "Films": 9141, "outcome": 9386, "waved": 6577, "advise": 19961, "responsible": 2784, "opinion": 4893, "Gulf": 5634, "socialism": 20560, "sediments": 22872, "worker": 7589, "directly": 2626, "##mill": 11734, "Diana": 8506, "Lover": 20501, "##oar": 19243, "broadcaster": 12689, "Masonic": 25080, "Further": 6940, "inning": 13320, "Rodrigo": 20551, "beautiful": 2712, "##sun": 23294, "Carla": 18301, "Kennedy": 5107, "~": 199, "##nged": 18288, "1835": 9955, "chick": 22282, "##\u043d": 17127, "Calder": 21056, "Mongols": 24640, "struggled": 6325, "reminded": 6393, "Pierre": 4855, "bound": 4930, "##ere": 9014, "turtle": 19570, "Dare": 22471, "massive": 4672, "organist": 19209, "contrasted": 24681, "glance": 5410, "yearly": 13502, "1896": 5645, "baron": 26347, "##gratory": 24521, "var": 15661, "Infantry": 4155, "turtles": 24913, "Linux": 11735, "exposing": 15952, "##\u092d": 28521, "Angry": 24991, "Yokohama": 22479, "##oz": 17395, "NFL": 4279, "factor": 5318, "\u2194": 846, "weaving": 17603, "pawn": 23903, "dental": 15360, "shootout": 22567, "mollusk": 13641, "91": 5539, "Olivier": 15061, "##\u0144ski": 15713, "implies": 12942, "shiver": 14004, "Liberals": 16951, "Solutions": 20470, "##zione": 23316, "13th": 5435, "Stevens": 8437, "swept": 6769, "Noble": 13396, "gliding": 25545, "##yang": 13490, "Keeping": 22049, "request": 4566, "chasing": 13333, "##!": 28125, "candles": 15560, "activities": 2619, "steady": 6386, "integration": 9111, "swelled": 24201, "tensor": 27023, "\u5b89": 1016, "introduces": 14681, "didn": 1238, "##iff": 11093, "dose": 13753, "thriller": 11826, "Mohammad": 12460, "peripheral": 17963, "Phillies": 16620, "##cademia": 18161, "June": 1340, "guy": 2564, "\u02b0": 376, "##son": 2142, "poets": 11587, "##\u00fb": 28209, "##orm": 24211, "##\u03a8": 28333, "##mmal": 27568, "##\u00c1": 28180, "##SN": 24597, "##ller": 9860, "originating": 16394, "Million": 16660, "\u0623": 562, "application": 4048, "lesson": 11788, "Bones": 13716, "Alexia": 24080, "##\u09bc": 28565, "##ee": 3051, "clip": 13500, "Nairobi": 23248, "Bloc": 24675, "##hore": 18443, "##VP": 22819, "##\u30d5": 28853, "##sul": 24661, "expenditure": 24106, "au": 12686, "Greenwich": 14323, "Cheryl": 21173, "##zing": 6185, "Jill": 10370, "neighbors": 11209, "L\u00e9on": 28046, "##try": 6013, "author": 2351, "##jet": 18836, "McGregor": 25812, "##grating": 21889, "exited": 16095, "speak": 2936, "Approximately": 16349, "##phe": 27801, "##inian": 17054, "##lattered": 26355, "basketball": 3163, "permit": 9154, "Text": 18430, "avoid": 3644, "policeman": 17559, "##fires": 20259, "##uld": 24870, "`": 169, "\u2605": 873, "1977": 2449, "charged": 4601, "##fts": 22863, "embroidered": 26807, "affair": 7033, "##com": 8178, "Sparks": 20759, "climbs": 20782, "deadly": 10310, "Females": 27464, "Wild": 5469, "pace": 6418, "Silva": 11211, "##tage": 11535, "##\u017d": 28260, "##cilla": 23694, "Ignoring": 27853, "comic": 4824, "\u00e2": 248, "hosts": 5654, "genuine": 10416, "Shock": 18000, "sued": 13187, "greet": 18884, "Kelley": 21282, "##comb": 17701, "Leafs": 23932, "##\u0437": 28398, "1660": 19306, "Goose": 23914, "alto": 17138, "Pick": 20984, "sewage": 23198, "Art": 2051, "evolutionary": 14745, "##coming": 9331, "satin": 24229, "insertion": 27914, "growing": 2898, "##ivating": 19012, "##castle": 26487, "trailed": 11133, "##FS": 17691, "##iara": 25816, "keyboard": 9303, "##ssion": 16656, "intake": 14741, "institution": 5375, "hail": 26943, "goddess": 9659, "statute": 14610, "##mona": 24507, "\u0565": 516, "Friday": 5286, "Zealand": 2512, "anxiety": 10507, "Brand": 12381, "##\u00b3": 19763, "Sergey": 25252, "loomed": 27401, "undertook": 12722, "Storm": 7007, "grin": 5207, "Evil": 11299, "Rowing": 21480, "Brunei": 20249, "cruel": 11224, "Sheikh": 13609, "crazy": 4523, "##ods": 16476, "strengthening": 18185, "Herzegovina": 11464, "choices": 9940, "Marvel": 8370, "Hassan": 13583, "Resort": 15579, "strip": 6322, "Kong": 3462, "Princeton": 8845, "Drawing": 20753, "banana": 21806, "vamp": 24414, "Thomson": 11141, "##eau": 8221, "ratings": 8532, "Allan": 8577, "##shaw": 17630, "oriented": 7779, "##ymphonic": 20565, "Israeli": 4878, "peeked": 20221, "Poll": 24619, "stain": 24754, "##\u2086": 28713, "Reggie": 19343, "catcher": 18722, "Carol": 8430, "##usive": 17849, "three": 1210, "stepping": 9863, "Communists": 22004, "##mass": 23749, "Calais": 25804, "Sword": 14059, "creator": 9264, "Hanna": 10502, "##yed": 23080, "##iche": 26312, "Author": 14593, "TO": 16972, "circular": 8287, "##\u0457": 28419, "wander": 20004, "##\u05ea": 28468, "elephants": 20724, "Young": 2701, "suggesting": 8783, "lasts": 17503, "##guous": 22928, "##read": 11613, "chestnut": 23337, ">": 135, "Key": 7443, "meters": 4865, "violations": 13957, "Media": 3957, "recycling": 21804, "malaria": 23645, "##rque": 23121, "sudden": 4962, "##post": 21341, "Fourteen": 27711, "##gues": 17423, "##spersed": 28107, "560": 23386, "##lay": 6622, "gaze": 2806, "Attack": 13704, "Kumar": 9392, "Billy": 4224, "terminus": 7132, "##tional": 15937, "chewed": 19886, "Wait": 7911, "gave": 1522, "cage": 10096, "Paris": 2123, "##ante": 14626, "Warwickshire": 19876, "deemed": 8012, "Architecture": 9021, "arched": 8893, "Edmond": 24061, "Trading": 22263, "SmackDown": 26050, "Pretty": 12004, "##fia": 18771, "theological": 14757, "terminal": 6020, "seasonal": 13286, "send": 3952, "Speak": 24976, "prescribed": 17421, "Case": 9060, "##kie": 11334, "Endowment": 25045, "##uter": 18614, "\u0635": 579, "Wildcats": 21992, "Coupe": 26590, "cum": 16040, "wake": 5314, "Iroquois": 25678, "continually": 15395, "##orse": 18649, "Graf": 25125, "Gilbert": 7175, "pupils": 7035, "rubbing": 10365, "Dhaka": 17558, "prostitutes": 23779, "hand": 1289, "\u1d58": 719, "##di": 3309, "Connection": 21983, "\u4e95": 983, "assuming": 11577, "taken": 1678, "Version": 8812, "Security": 4354, "1812": 9601, "Sterling": 12319, "##made": 12540, "##ubi": 25422, "##\u0644": 28495, "ranges": 9123, "kingdoms": 16685, "laughs": 12375, "everyday": 11236, "protected": 4921, "^": 167, "enlisted": 9358, "##phones": 16215, "Viktor": 13845, "Sid": 17916, "##bide": 22742, "\u0420": 463, "gazed": 11107, "nationalists": 25170, "leopard": 27865, "1824": 11638, "see": 1267, "Third": 4180, "Warm": 26252, "Ng": 26057, "buyer": 20315, "Hearts": 12290, "fifth": 3049, "agreements": 11069, "109": 11523, "racer": 20274, "verbs": 17992, "##ders": 10097, "ZIP": 26248, "interpretations": 17555, "lace": 15170, "Clarkson": 20177, "136": 16222, "exhibition": 4627, "whole": 2006, "drop": 3968, "loser": 19398, "severe": 5199, "##bent": 19145, "1975": 2429, "##\u02bf": 28304, "##\u00fcnster": 27077, "consequences": 8421, "reside": 14487, "##ru": 5082, "##rass": 19326, "derivatives": 18952, "Death": 4735, "chicken": 9323, "##crat": 23383, "plants": 3546, "operates": 5049, "delicious": 13108, "Weiss": 19375, "1300": 21251, "##irk": 15725, "##aya": 12057, "contestants": 11061, "##side": 5570, "Museum": 2143, "straining": 24089, "ethnicity": 21052, "cuffs": 27917, "justification": 22647, "Parts": 16633, "naming": 10505, "##nd": 3276, "Cale": 24404, "##erve": 22552, "campaign": 2322, "OBE": 16611, "##\u00f3n": 4722, "Central": 1970, "##\u03cc": 28361, "##\u1d63": 28623, "Pioneer": 14589, "Warning": 19680, "companions": 12994, "computational": 19903, "##dling": 21869, "##\u2208": 28745, "Mortimer": 18627, "##quished": 24552, "##pect": 26426, "##antly": 12481, "##oth": 12858, "Nightingale": 26007, "##ffle": 13327, "neglected": 16778, "from": 1121, "spy": 10669, "Outer": 18539, "##mott": 27374, "1": 122, "prehistoric": 16969, "Tolkien": 26396, "giggle": 19186, "lizard": 20730, "##look": 21163, "##numbered": 25681, "##zac": 25616, "interference": 11364, "Hey": 4403, "suppose": 6699, "leaping": 25037, "##rmed": 25853, "##\u09b2": 28561, "##phic": 21990, "leap": 13660, "threaten": 16757, "melt": 16399, "cafe": 17287, "opera": 4677, "wearing": 3351, "\u0f74": 695, "Simpsons": 20726, "protests": 7853, "CE": 9855, "sixty": 9229, "Sometimes": 5875, "scarf": 21413, "Lyons": 17728, "Cove": 13765, "prohibited": 11018, "##oi": 8136, "Melville": 21969, "tape": 6649, "feeding": 8453, "##dgson": 26229, "Everett": 15896, "transit": 9575, "Stanley": 5481, "Weston": 12946, "dominate": 17207, "Located": 9716, "Producers": 24189, "businessmen": 19150, "Rockefeller": 17768, "notebook": 17189, "##aba": 19252, "kids": 4067, "Silence": 12939, "disagreements": 26805, "Chattanooga": 26020, "underneath": 7547, "overseen": 25197, "candy": 13962, "Maine": 6514, "seat": 1946, "hungry": 7555, "implications": 14755, "pneumonia": 20673, "siblings": 9302, "Goldman": 19085, "D\u00fcsseldorf": 19822, "265": 22486, "disconnected": 27425, "ballads": 25303, "##tase": 25347, "atrocities": 27232, "##\u1ed1": 28654, "Kill": 11404, "Java": 9155, "unity": 11721, "##\u0580": 28435, "fashioned": 14281, "##lten": 26929, "##\u0f0b": 28587, "\u0f53": 688, "distress": 13632, "govern": 23633, "timetable": 27646, "reprinted": 15528, "Kurdish": 16441, "surely": 9929, "##ising": 7131, "##ahn": 25963, "1938": 3412, "swing": 8046, "\u1d40": 708, "##sted": 8546, "410": 20818, "##wson": 27294, "\u01b0": 343, "Gandhi": 12508, "with": 1114, "victory": 2681, "Brain": 15240, "particle": 11287, "Bayern": 23517, "Douglas": 4402, "##cott": 11627, "moon": 5907, "minded": 13767, "explicit": 14077, "roses": 16760, "college": 2134, "Canon": 14718, "aristocratic": 21809, "##pute": 22662, "27": 1765, "##\u00bc": 28176, "Scouts": 13349, "cookie": 25413, "opinions": 11089, "dominance": 14678, "transfer": 4036, "\u09a6": 650, "##wo": 12821, "##berger": 13184, "Halifax": 10355, "Neumann": 25450, "Melbourne": 4141, "ceremonies": 11605, "accommodation": 11822, "##GC": 13478, "Formula": 8266, "efforts": 3268, "sort": 3271, "tones": 13647, "##\u0440": 20442, "Healthcare": 22993, "Gretchen": 23886, "Turnpike": 23303, "boundary": 5904, "##dge": 8484, "##rary": 23728, "modular": 24407, "Herman": 11495, "1801": 12561, "##\u0e23": 28586, "Castro": 11919, "snap": 11152, "1998": 1772, "inserted": 13137, "plug": 15244, "funds": 4381, "Wigan": 16471, "SV": 21479, "registration": 9630, "##twined": 23141, "##vations": 22553, "imminent": 19080, "22": 1659, "13": 1492, "housing": 3328, "1858": 8109, "##cision": 16073, "imposing": 17884, "martial": 8317, "##cked": 13303, "sauce": 14313, "##life": 14430, "routing": 19044, "1853": 8562, "##prints": 12668, "##lsson": 22481, "assistant": 3109, "\u0442": 493, "Ireland": 2270, "Apparently": 10115, "wife": 1676, "Ice": 6172, "1825": 11377, "##metric": 13689, "herb": 22245, "Comics": 7452, "\u5cf6": 1022, "Carole": 27422, "distinguished": 6019, "Alan": 4258, "##\u5cf6": 28915, "Annie": 7765, "Clerk": 16483, "orthodox": 23808, "mit": 26410, "\u03ae": 416, "Win": 16387, "##bt": 21238, "Ian": 3978, "harbor": 12397, "diabetes": 17972, "often": 1510, "topography": 27341, "##vention": 21987, "federation": 18159, "Motion": 12153, "beating": 5405, "heroic": 17047, "Valencia": 13697, "Wren": 19088, "stamped": 23245, "bike": 8295, "##uck": 8474, "repression": 26275, "Parliamentary": 10628, "##ast": 12788, "Deborah": 16507, "definitive": 18379, "##cans": 21242, "##tron": 19138, "singular": 13794, "surrounding": 3376, "##hesive": 23838, "High": 1693, "##rum": 5697, "bringing": 4362, "instant": 6879, "Technology": 3529, "##ota": 16339, "##ili": 18575, "AM": 6586, "world": 1362, "##lved": 25043, "academic": 3397, "Gypsy": 22153, "genes": 9077, "sturdy": 26887, "saxophonist": 22324, "##ural": 12602, "##\u305b": 28799, "suites": 26683, "players": 2139, "Sikh": 18541, "peaceful": 9441, "##rga": 18971, "lover": 7559, "##CT": 16647, "stiff": 11111, "genera": 11974, "Salle": 20005, "Clubs": 18812, "Arroyo": 28061, "breakfast": 6462, "Chennai": 12451, "expectation": 19351, "fifteen": 5147, "##watch": 21200, "Peninsula": 7339, "posted": 6310, "surgical": 13467, "against": 1222, "Something": 4262, "Very": 6424, "##osy": 28114, "Vampire": 13453, "##lvin": 25416, "propelled": 17314, "emphasizes": 22663, "Emilia": 22836, "Provost": 27920, "aggressively": 27933, "\u2033": 798, "Cape": 4343, "mastered": 20881, "##irt": 25074, "Appeals": 12566, "##mined": 15842, "expression": 2838, "typical": 4701, "rod": 14628, "canal": 7684, "Olive": 17971, "\u307e": 918, "kitchen": 3119, "##har": 7111, "foothills": 21864, "[unused13]": 13, "aux": 24544, "Blu": 15223, "\u016f": 330, "##\u016d": 28251, "para": 18311, "##\u1ee9": 28663, "WTA": 24253, "Blue": 2770, "Clock": 20957, "freeze": 16020, "2": 123, "Fun": 16068, "##aret": 22914, "Roman": 2264, "##rieve": 27055, "Treasurer": 15099, "##\u5149": 28883, "##late": 8052, "##uda": 15798, "impatient": 19331, "##iture": 23861, "letting": 5074, "\u03c1": 434, "orientation": 10592, "Mohan": 20165, "reasonable": 9483, "Chevrolet": 15348, "308": 27201, "doubt": 4095, "factory": 4790, "trim": 13373, "draws": 9804, "##found": 27794, "Stern": 15010, "Equal": 26933, "skilled": 10715, "board": 2313, "endorsement": 22843, "jerking": 26525, "vibration": 20401, "Grady": 20747, "portion": 3849, "##tina": 11681, "eyebrows": 8039, "evenly": 19474, "Curran": 21428, "##\u0105": 28213, "Wrath": 27561, "Tiny": 15518, "Invisible": 24823, "Cecil": 12091, "##zam": 20123, "Pre": 11689, "##ems": 14587, "Journalists": 26646, "larvae": 9923, "Sioux": 17680, "##enstein": 26998, "1829": 11527, "transferred": 3175, "leaked": 16795, "recommendations": 11859, "##hoff": 18681, "comparatively": 22673, "206": 20278, "clans": 18807, "Scandinavian": 18936, "Yun": 27413, "Ginger": 20326, "Aunt": 8416, "proposes": 18381, "relied": 13892, "Matter": 21773, "teachings": 12815, "roommate": 20116, "sunrise": 23859, "cord": 13408, "##logue": 12733, "##rchen": 26242, "endure": 19646, "rejecting": 25537, "Said": 11455, "lean": 8290, "##cote": 21596, "struck": 4168, "45": 2532, "evolved": 7601, "comprise": 16722, "181": 20083, "##leo": 26918, "##ograph": 17965, "##ridge": 8044, "20": 1406, "##p": 1643, "Net": 20820, "enterprises": 14839, "Projects": 21454, "eat": 3940, "\u3089": 926, "##era": 5970, "##ght": 10245, "##lank": 27339, "##\u30c0": 28842, "##\u00e8": 27113, "##mett": 23355, "primarily": 3120, "Senior": 4308, "##\u00b9": 28173, "##von": 19988, "buyers": 19682, "##geny": 21004, "drifted": 9876, "##fant": 26636, "Shakespeare": 7647, "hardest": 20773, "Bruins": 19552, "remembers": 19858, "featuring": 3022, "Newspaper": 21158, "##arded": 26541, "##nado": 27493, "organizing": 11640, "slope": 9877, "Cass": 17500, "VFL": 15124, "Message": 24931, "interactions": 10393, "Cara": 16185, "Sonic": 16202, "Runners": 15076, "Cumberland": 12454, "refuses": 10078, "##fy": 13268, "##anne": 15733, "believes": 6616, "##rned": 23537, "US": 1646, "bars": 6668, "Baja": 21519, "awoke": 21167, "circulated": 18921, "Samuel": 4424, "Scientist": 22985, "swayed": 22016, "Mets": 16299, "phrases": 16954, "consumed": 10133, "ankle": 10845, "##urier": 16706, "Nuclear": 11560, "##lphin": 19030, "Board": 2464, "wrist": 6703, "poker": 15772, "Daisy": 11291, "inappropriate": 17073, "hundreds": 5229, "##ption": 18225, "\u0415": 453, "logistics": 18398, "Policy": 7037, "##aka": 11747, "Airways": 14099, "floor": 1837, "##bbled": 14437, "Temple": 4407, "god": 5540, "##OC": 9244, "Johannesburg": 16919, "paragraph": 24950, "##dius": 18889, "regulation": 8585, "syndrome": 9318, "##core": 9475, "Barbie": 25374, "##tata": 18244, "##eye": 23183, "##fter": 20962, "sequences": 10028, "Gus": 13067, "Confederation": 13052, "enforce": 17542, "tap": 12999, "script": 5444, "##iferous": 25093, "##vez": 21755, "Marcia": 25663, "elves": 25743, "quantities": 12709, "disclosed": 23617, "depressed": 15941, "##sfield": 17386, "Advancement": 23827, "Soo": 27972, "pleaded": 12404, "Trinity": 6626, "interests": 4740, "grim": 14816, "turnout": 17293, "organisation": 5632, "CB": 18893, "##lihood": 26596, "##eria": 16386, "dependent": 7449, "##uddin": 22717, "\u0444": 495, "replacing": 5861, "assemble": 24945, "\u012b": 299, "\u1d47": 710, "broadcast": 3012, "Might": 19314, "UK": 1993, "227": 23689, "##shot": 21879, "##`": 28152, "##mins": 19296, "pronounced": 8481, "aiming": 14485, "Bomb": 19312, "Elena": 8712, "Dover": 14493, "redesignated": 16210, "Facility": 19341, "\u03cc": 443, "##PS": 10197, "raises": 13686, "folklore": 16106, "##\u58eb": 28901, "transitions": 26829, "##\u09bf": 28567, "highways": 12402, "Hess": 26349, "##ogel": 27732, "seeded": 14937, "1912": 4080, "Academic": 10076, "Bone": 17722, "Hindu": 7083, "U2": 26148, "\u201a": 788, "Chase": 5870, "##cherous": 26330, "northwest": 4794, "##hed": 8961, "##orms": 25972, "950": 22173, "Spanish": 2124, "ice": 2854, "taxa": 27522, "Raw": 14108, "spontaneous": 20061, "Claudio": 22363, "target": 4010, "##hesia": 27300, "masterpiece": 22055, "Hill": 2404, "state": 1352, "violin": 7106, "disease": 3653, "heavy": 2302, "losses": 6053, "detailed": 6448, "##mate": 7213, "revision": 16547, "detailing": 18954, "##\u7687": 28952, "obstacles": 16503, "Wilhelm": 8725, "##pert": 17786, "##\u6b63": 28938, "Parents": 24261, "##ford": 2821, "##EC": 8231, "cheer": 18456, "##gade": 24003, "##finder": 27038, "##LC": 12674, "about": 1164, "##gens": 21144, "stint": 12249, "Munich": 6947, "Soundtrack": 22349, "##RB": 22672, "Original": 7267, "lent": 20283, "Wii": 17716, "Diaz": 21246, "glider": 23090, "Grande": 9109, "Victoria": 3006, "##rrible": 27788, "##aded": 17535, "slash": 26632, "##erry": 16463, "Animal": 10854, "Holt": 12857, "Summer": 2659, "forget": 5042, "react": 10573, "Cooperation": 17612, "grief": 10283, "easy": 3123, "Cottage": 20948, "maintained": 4441, "offenders": 23267, "knowing": 3650, "failing": 7793, "gold": 2284, "##eological": 24135, "Blade": 17360, "Five": 4222, "does": 1674, "##aling": 13248, "superintendent": 15778, "liar": 22569, "individual": 2510, "millions": 9215, "initiate": 19687, "##ltz": 23501, "qualification": 8969, "replaced": 2125, "intense": 5827, "Lawn": 26189, "##ido": 12894, "R": 155, "conversion": 7497, "wondering": 6123, "Roger": 4271, "Plymouth": 10033, "Average": 18098, "Pop": 7312, "secrecy": 23541, "41st": 27203, "Cut": 15411, "decree": 11903, "calculus": 27323, "floated": 14146, "narrow": 4142, "Race": 6398, "inmates": 13944, "Langley": 20794, "Marquis": 16318, "Lang": 12431, "1745": 24088, "pearl": 24837, "allegedly": 9273, "mental": 4910, "Massey": 23583, "##enbach": 23091, "##\u00e1il": 20938, "girls": 2636, "Rachel": 4858, "Cobra": 21841, "##iidae": 19793, "Pink": 10763, "##gado": 23224, "information": 1869, "##tag": 21365, "##hak": 21893, "Train": 9791, "Waltz": 25943, "Fame": 4710, "##:": 28140, "##lmer": 23370, "307": 27663, "Memphis": 9519, "\u305f": 908, "Alternatively": 23104, "##wami": 27687, "insufficient": 14733, "undertaking": 20686, "##sley": 8980, "Leicester": 11248, "capitalism": 20582, "bitch": 7979, "In": 1130, "\u03a8": 412, "Beth": 6452, "Championships": 2708, "\u30a8": 935, "\u05e1": 551, "##ore": 4474, "listed": 2345, "##linity": 25230, "##ones": 18764, "noun": 16432, "Observer": 16460, "produced": 1666, "Somalia": 15350, "1782": 17995, "##aries": 5927, "Bella": 12787, "##ully": 16125, "prolific": 13127, "characterized": 6858, "##lums": 27195, "Stamford": 24944, "clothes": 3459, "demo": 11238, "balance": 5233, "tearing": 14156, "##GE": 16523, "##has": 16481, "severed": 18177, "##ei": 6851, "seals": 19551, "manage": 5494, "counting": 11128, "wealth": 6968, "Salmon": 22144, "1882": 6543, "frames": 11382, "##sler": 21318, "1872": 7052, "randomly": 19729, "overseeing": 21661, "rational": 12478, "Forty": 15487, "##runch": 22715, "Porter": 8885, "Variations": 26257, "Lebanese": 12772, "cells": 3652, "##cede": 19482, "gifts": 9794, "McKinley": 24610, "Between": 3847, "guardian": 14436, "torso": 16374, "Grange": 20281, "predecessor": 8283, "thy": 21153, "translucent": 26043, "##\u2090": 28720, "Shiva": 12945, "electric": 3651, "rear": 3876, "relation": 6796, "examining": 13766, "overs": 17074, "##nah": 17080, "ignorant": 24636, "##raw": 28115, "##\u1ec7": 28651, "##nu": 14787, "\u0432": 477, "Palm": 10739, "##apa": 26519, "##rice": 10835, "##til": 19621, "Ellington": 23884, "##ulum": 19463, "nausea": 22882, "harm": 7031, "EU": 7270, "##pling": 11624, "##itated": 13512, "result": 1871, "Compton": 20110, "bowl": 7329, "execute": 16621, "interacting": 24775, "Guo": 26527, "Dimitri": 16887, "radiation": 8432, "personalities": 13497, "##sko": 20428, "video": 1888, "society": 2808, "committee": 3914, "slaves": 6864, "vent": 21828, "Violet": 10826, "taut": 24609, "what": 1184, "warning": 5183, "Lost": 6249, "Award": 1698, "##hers": 20765, "##etics": 22259, "##\u0926": 28516, "Junior": 3800, "Michelle": 9075, "##lossom": 21853, "curtain": 12354, "##rion": 12395, "respectable": 21742, "disappointed": 9333, "Z\u00fcrich": 16592, "##eti": 26883, "Bryant": 12637, "employing": 16846, "removed": 2856, "warrior": 8229, "##ours": 24453, "liquid": 6161, "teased": 13383, "##oran": 15186, "Vampires": 23233, "##hey": 24679, "Pomeranian": 19006, "##icz": 23586, "cent": 9848, "feared": 8253, "\u092c": 617, "stood": 1866, "Hollow": 19098, "Archives": 12422, "1766": 23576, "consoles": 25612, "explained": 3716, "##af": 9823, "triumph": 14558, "interiors": 25556, "hopes": 7816, "respect": 4161, "Perfect": 12174, "Progress": 12798, "Graves": 16494, "##drick": 21847, "##ulo": 22806, "expands": 27903, "improved": 4725, "regained": 11979, "Dawn": 9194, "consort": 19518, "dignity": 14931, "##raz": 15265, "nun": 22108, "benefits": 6245, "AG": 14731, "discarded": 16041, "seminar": 28067, "1841": 9599, "spill": 16412, "##edar": 23785, "Cuban": 9383, "##boro": 10090, "stakes": 17930, "##cup": 18637, "123": 13414, "things": 1614, "Nehru": 26373, "considerably": 9627, "vocal": 5563, "##\u30bf": 28841, "Aidan": 12834, "Drop": 19909, "promptly": 13796, "Santos": 11064, "Republicans": 11115, "stalls": 21923, "plan": 2197, "Nevertheless": 8094, "blues": 9274, "##lon": 4934, "##kner": 25300, "phosphate": 19273, "##cal": 7867, "cheek": 4310, "snaps": 22675, "brake": 15042, "H\u2082O": 27995, "th": 24438, "enzyme": 8744, "www": 7001, "impressions": 25263, "extent": 6102, "\u2282": 865, "execution": 7581, "Maynard": 24518, "questioning": 11402, "Has": 10736, "##\u1d4d": 28616, "##city": 9041, "\u30fc": 975, "molecule": 14730, "debated": 16087, "waterfront": 22975, "Emirates": 14832, "##oaming": 27303, "Virgil": 18449, "##fueling": 25661, "##ancipation": 25305, "identify": 6183, "Bee": 16385, "recalled": 6901, "##position": 14572, "Arizona": 4565, "superb": 25876, "Joel": 8773, "patted": 12009, "van": 3498, "RAM": 20898, "##\u1d52": 28619, "##rad": 9871, "landscape": 5882, "Camille": 17756, "cavity": 19421, "##\u308b": 28821, "productivity": 18222, "Damascus": 17065, "ashore": 17487, "Southwestern": 22557, "triple": 9225, "237": 25950, "northwestern": 10727, "##ldon": 20822, "Crash": 21229, "abandon": 11092, "##sight": 18883, "whore": 20239, "hint": 9124, "wide": 2043, "recruiting": 16226, "amendment": 12669, "##gli": 23655, "Damon": 11337, "\u05d5": 540, "Caroline": 7515, "##note": 17113, "orbital": 16488, "##\u6587": 28923, "##rals": 16179, "##tries": 22734, "\u0f72": 694, "demeanor": 24160, "Egg": 25861, "creditors": 26814, "saxophone": 8479, "defined": 3393, "abused": 18400, "shifted": 4707, "Harrison": 6067, "Band": 4230, "##6th": 25104, "locked": 4594, "milling": 27814, "health": 2332, "adopted": 3399, "Harbour": 10770, "pay": 2653, "brains": 16570, "highlands": 27929, "##\u2500": 28763, "Eric": 3601, "##roma": 18885, "receives": 7881, "industry": 2380, "##sson": 6598, "Discovery": 11250, "Daphne": 18175, "heel": 12781, "organise": 25906, "\u00c0": 226, "offs": 12822, "scare": 13671, "##ava": 15677, "Juventus": 25334, "possessed": 8471, "bureau": 18561, "vow": 22417, "##nti": 14964, "##lge": 21463, "##imus": 26552, "pitched": 7813, "Herald": 9707, "flare": 20646, "Punch": 25487, "migrate": 25572, "\u05e7": 555, "husband": 2252, "screamed": 6673, "Dickens": 21677, "##formation": 24152, "hands": 1493, "ponds": 20054, "##lus": 5954, "##izer": 17260, "Mission": 5852, "Less": 13568, "however": 1649, "solar": 6644, "relevant": 7503, "volumes": 6357, "##nel": 8967, "once": 1517, "Sophie": 7800, "prose": 14221, "client": 7230, "Hale": 13684, "commenced": 8042, "villains": 20246, "psychiatrist": 20926, "downstairs": 10304, "insignia": 19063, "They": 1220, "basic": 3501, "Shaw": 7802, "Smithsonian": 16637, "##ws": 10732, "##ended": 15399, "story": 1642, "86": 5942, "employs": 13856, "155": 14691, "sheltered": 20052, "Oilers": 22243, "scraping": 27088, "na": 9468, "Video": 6301, "fiber": 12753, "Financial": 7748, "shoe": 12228, "prince": 6927, "abbey": 14049, "##gio": 10712, "accurately": 14702, "coined": 13674, "##nor": 13523, "##nded": 21160, "wrote": 1724, "off": 1228, "18": 1407, "Car": 8185, "defines": 12028, "Commodore": 14053, "imagine": 5403, "\u0141": 305, "##hand": 9332, "##ycle": 21172, "Trees": 20857, "shoreline": 20953, "##had": 9574, "sold": 1962, "Fry": 20685, "undoubtedly": 19832, "compulsory": 16472, "WCW": 27189, "grasped": 16375, "##\u30cb": 28849, "Belle": 10199, "former": 1393, "ruling": 6550, "cool": 4348, "##cule": 21025, "pardon": 19015, "Bristol": 6490, "Pok\u00e9mon": 22926, "\u0650": 596, "recent": 2793, "horizontal": 10012, "reissued": 16129, "Yamaha": 27275, "##elo": 19773, "fixture": 15927, "finally": 1921, "actress": 3647, "laying": 10377, "Winter": 4591, "07": 5004, "Bottom": 19984, "photography": 6427, "##\ufb01": 28987, "chiefly": 17118, "Dundee": 14796, "Soviet": 2461, "\u0408": 447, "Hague": 15201, "##rville": 19745, "\u00da": 242, "Devlin": 27449, "fare": 14550, "\u0646": 590, "transitioned": 26974, "##ab": 6639, "dealing": 6705, "##\u0939": 28530, "doing": 1833, "resorts": 23574, "tens": 17265, "smack": 25767, "1905": 4761, "Chow": 24349, "constraints": 15651, "Edo": 20520, "occurrence": 15299, "economist": 14893, "Arts": 2334, "exemption": 22346, "pillow": 10352, "##EG": 17020, "needle": 13864, "Ball": 7708, "##DM": 20002, "##genic": 19438, "livery": 21193, "##\u09ac": 28557, "##iger": 22896, "disagreed": 19786, "##oney": 18066, "Tide": 27604, "Lu": 14557, "Wireless": 21697, "brigadier": 23965, "intro": 27553, "##fied": 8971, "MI": 26574, "swift": 15085, "##[": 28147, "exhaustion": 17049, "##hurst": 10623, "Abbott": 15176, "##\u9577": 28973, "##55": 25491, "DB": 24044, "##stillery": 28042, "positions": 3638, "repairs": 10528, "bisexual": 28121, "harassment": 17514, "##eric": 26237, "attendance": 7794, "##ree": 8871, "hastily": 17132, "Brandt": 21140, "Adam": 3379, "eki": 26540, "colored": 6805, "requests": 11458, "economical": 24977, "##\u22c5": 28762, "Talon": 22879, "Hadley": 23953, "##omer": 23806, "powers": 3758, "aid": 4256, "Corporal": 21221, "posthumously": 13165, "Mallory": 22378, "Tabitha": 23856, "Lehigh": 25912, "pinned": 11973, "##guard": 12188, "piss": 20693, "electrons": 16159, "##connected": 24323, "trends": 14652, "Jess": 12419, "##ots": 12129, "##rich": 10886, "League": 1453, "arose": 10246, "lodge": 14433, "##\u308a": 28820, "##abad": 9671, "##che": 4386, "beliefs": 8810, "Uganda": 9831, "claws": 11222, "tertiary": 16371, "Route": 3320, "##PP": 20923, "volleyball": 9576, "employee": 7775, "##cess": 22371, "Anton": 9809, "farmhouse": 20077, "##\u3055": 28796, "Alright": 18009, "##ey": 2254, "Johns": 11673, "gown": 12042, "Lok": 14444, "Scream": 26942, "consider": 4615, "quit": 8204, "disabled": 10302, "##\u0578": 28432, "##brecht": 22716, "##nks": 18683, "Mabel": 21264, "Juliette": 27890, "strain": 10512, "moves": 5279, "Madison": 6501, "##latz": 26250, "electro": 24266, "##bracing": 26348, "Lieutenant": 3897, "impulse": 18623, "##\u02bb": 28301, "Anastasia": 21201, "Apocalypse": 22949, "Loyola": 23828, "senators": 21770, "stations": 2930, "##horse": 16336, "[unused14]": 14, "##\u017c": 28259, "elastic": 25460, "##ficiency": 23622, "\u0632": 576, "Vikings": 13854, "\u043c": 487, "##onda": 25323, "chemicals": 13558, "exist": 4056, "##entation": 20936, "turning": 3219, "##oto": 12355, "invites": 20384, "mattress": 14090, "##itting": 26927, "Ecuador": 10244, "##ndi": 12090, "directions": 7768, "intact": 9964, "34th": 22361, "##<": 28142, "conventions": 14483, "##lding": 12918, "locomotives": 7499, "##sberg": 19945, "cane": 14671, "collision": 13213, "restrained": 21775, "Lounge": 26135, "supplement": 15491, "awakened": 23182, "##fields": 14922, "##\u0414": 28370, "governed": 9789, "notes": 3697, "cigarette": 9983, "actually": 2140, "##shin": 18968, "Alistair": 26618, "nature": 2731, "assaulted": 18877, "ridges": 18431, "marketplace": 24210, "Baptist": 7047, "lasting": 9810, "Thailand": 5872, "warn": 11857, "##tat": 19756, "acres": 3913, "battled": 21600, "Philosophical": 24515, "consult": 27231, "cape": 23546, "armies": 9099, "##r": 1197, "additional": 2509, "[unused29]": 29, "##meister": 27582, "##ip": 9717, "clouds": 8435, "arcade": 14751, "##eu": 14272, "pinched": 20078, "thieves": 22092, "##sure": 14847, "Dutch": 2954, "Super": 3198, "tendency": 12034, "##ntly": 15275, "1786": 18642, "\u05d4": 539, "##ative": 5838, "rhythm": 6795, "appealing": 17117, "circling": 20774, "\u0177": 334, "##in": 1394, "Aye": 16837, "Arcade": 22697, "##net": 6097, "side": 1334, "incorrectly": 21605, "person": 1825, "criticized": 5711, "##ull": 11781, "temper": 12653, "justified": 16489, "trader": 22574, "backstage": 25679, "Americans": 4038, "dragons": 14744, "##\u2071": 28703, "alright": 15354, "##shes": 26816, "##70": 20829, "bending": 16571, "##oma": 7903, "Tier": 24391, "Entertainment": 4549, "\u6238": 1029, "substitution": 24393, "wild": 4098, "Horse": 7429, "need": 1444, "Secret": 7013, "##ave": 8308, "##yres": 19168, "Darrell": 25815, "##fari": 21975, "Brigade": 4292, "hug": 8363, "##ows": 11997, "Russo": 18182, "master": 3283, "instability": 20482, "Easy": 12167, "##sive": 8788, "hind": 24856, "##tura": 21280, "Maya": 9738, "##resh": 21298, "spared": 18173, "obituary": 25917, "commissioners": 22207, "1954": 3183, "##fender": 27896, "##cline": 24230, "##nery": 16227, "preaching": 20850, "##enko": 19177, "Rescue": 13152, "cops": 11396, "peers": 14097, "##ruff": 17669, "discovery": 6004, "happiness": 9266, "##sco": 11428, "piston": 18796, "Raymond": 7139, "covering": 4576, "Source": 5313, "highlights": 12976, "Beirut": 16136, "Other": 2189, "##\u0629": 23525, "Horton": 19923, "Tobago": 18411, "1982": 2294, "Ram\u00edrez": 27953, "##>": 28144, "duo": 6862, "Declan": 17552, "videos": 6581, "##ril": 13217, "Kenneth": 8488, "##\u00f0": 28204, "Hilda": 23927, "##ium": 3656, "##zophrenia": 26474, "orchid": 20468, "indictment": 27926, "Kick": 27596, "Ritchie": 22299, "\u0391": 394, "##tism": 15813, "Cover": 17087, "##lich": 16879, "difference": 3719, "##\u03a6": 28331, "\u0647": 591, "trout": 17639, "##rets": 24067, "pleased": 7229, "Shield": 11452, "##orted": 17425, "##wl": 10481, "batteries": 10702, "\u0144": 307, "Ezra": 17275, "Hodge": 26201, "##lover": 22894, "Basic": 11568, "websites": 12045, "##nac": 22636, "##gn": 17653, "Designer": 25174, "silly": 10729, "headquarters": 3834, "pharmacy": 22759, "1996": 1820, "Universal": 6896, "Blind": 13955, "##aa": 22118, "128": 11965, "Secrets": 19958, "masonry": 20860, "hairy": 18419, "##\u2026": 28697, "##lification": 17489, "##lamp": 26345, "emotions": 6288, "conditioned": 25592, "right": 1268, "CS": 24821, "##pheric": 24551, "temperate": 18606, "starred": 4950, "Rhineland": 23910, "judgement": 21261, "##dridge": 23760, "conventional": 7228, "purpose": 3007, "1856": 8309, "Rock": 2977, "Down": 5245, "Switzerland": 4507, "acronym": 22478, "Susan": 5640, "poorly": 9874, "##power": 9447, "donation": 14324, "Interior": 10000, "##lizzard": 24002, "##llah": 17734, "Humphrey": 16295, "##\u05b9": 28443, "##uay": 19925, "##g": 1403, "hood": 11542, "remember": 2676, "campaigns": 7827, "combines": 14215, "lenses": 16938, "##evity": 25769, "Sites": 27010, "##raphic": 27229, "Dominique": 19553, "Houses": 16862, "stirring": 20329, "##cin": 16430, "capsule": 21749, "aimed": 5850, "\u2c7c": 884, "wounds": 8503, "Clay": 7592, "frontier": 13638, "Britain": 2855, "Gabriel": 5487, "technologies": 7951, "Complex": 9974, "opted": 12243, "\u10e0": 704, "1993": 1949, "##DR": 17308, "Brave": 20853, "heightened": 23442, "laborers": 27245, "pressures": 16390, "##\u5927": 28902, "snow": 4883, "probe": 17357, "Wikipedia": 18920, "inspired": 3768, "transmissions": 25436, "Ninja": 19488, "tears": 3632, "##thal": 17939, "##emia": 20504, "Chesterfield": 25381, "Astronomical": 26545, "comics": 9767, "sticks": 13963, "##pper": 11292, "ended": 2207, "Welch": 19370, "##vitation": 24892, "pertaining": 22383, "law": 1644, "##aman": 19853, "##gion": 16680, "Blanc": 24687, "##\u2286": 28760, "subspecies": 11332, "flight": 3043, "##pation": 22578, "modern": 2030, "##gnition": 25763, "##bled": 11813, "audio": 6056, "Pam": 15259, "deserve": 10026, "MVP": 12162, "magazines": 6959, "launches": 21285, "enjoyable": 24815, "behavioral": 18560, "FCC": 15121, "Monica": 8958, "napkin": 22783, "##ster": 4648, "draped": 16006, "sofa": 10907, "Bentley": 16933, "Ira": 21109, "smug": 23106, "declining": 14828, "receiving": 4172, "##RC": 10036, "village": 1491, "describing": 7645, "\ud55c": 1093, "crime": 3755, "upbringing": 27981, "Sarah": 3696, "Funding": 24811, "##ression": 26779, "worried": 4472, "Fan": 16061, "Ptolemy": 26262, "\u30c8": 953, "joins": 9649, "Louis": 2535, "##roke": 20265, "##\u1e33": 28633, "[unused60]": 60, "confident": 9588, "populous": 22608, "Algeria": 11347, "Enterprise": 9892, "termed": 12201, "Alain": 16552, "penis": 21504, "musician": 4933, "##lino": 26340, "##ologist": 8072, "trials": 7356, "Ross": 5104, "\u03a3": 408, "Jays": 21592, "Hoffman": 15876, "Luton": 19136, "Cody": 13667, "Marvin": 14165, "Shoot": 26912, "\u00ae": 210, "##ons": 4199, "civic": 12296, "stunt": 18151, "##ample": 26671, "##nbridge": 24416, "huh": 11159, "Boogie": 27593, "Pembroke": 23647, "positioning": 23208, "fantasies": 25147, "Organic": 27977, "Marquess": 19624, "judge": 3942, "gasp": 12271, "scooped": 22890, "[unused54]": 54, "archaeologists": 24104, "Ulster": 11034, "Right": 4114, "Limerick": 16729, "##\u0f42": 28588, "pinning": 25970, "journals": 9442, "Subsequent": 20499, "twenties": 21708, "Literary": 11136, "abundance": 15569, "amino": 13736, "gathering": 7410, "Sienna": 22624, "hard": 1662, "Legend": 9687, "welfare": 9319, "Plantation": 22849, "Engineers": 8665, "Ashley": 9017, "##bal": 7767, "legislation": 5626, "Benny": 12036, "Parish": 6648, "Chiang": 19110, "maple": 24328, "fly": 4689, "OK": 10899, "steam": 5543, "hunted": 15991, "##ouse": 17237, "objections": 19072, "##ustic": 20596, "##mote": 21294, "faded": 7771, "contract": 2329, "ACC": 18396, "##rrows": 24847, "##tracts": 26193, "Shall": 17604, "1827": 12445, "\u03b6": 423, "##ynasties": 25643, "conferences": 9759, "##sio": 23652, "##falls": 26907, "prevailed": 21691, "Reports": 16098, "Cats": 17408, "Skin": 20616, "Ambrose": 16579, "Agents": 28052, "\u00f4": 266, "bullets": 11959, "##graph": 15241, "calendar": 8729, "jar": 19609, "standing": 2288, "\u30c7": 952, "talking": 2520, "sarcastically": 26708, "try": 2222, "Prairie": 13891, "##\u0127": 28226, "indigenous": 6854, "geared": 26870, "unopposed": 18508, "##titled": 14657, "USA": 3066, "galaxy": 15593, "circa": 14121, "agriculture": 6487, "##ue": 4175, "Based": 7457, "could": 1180, "alpine": 16780, "ring": 3170, "lawn": 12313, "##\u10e1": 28608, "locality": 10157, "Eug\u00e8ne": 26689, "got": 1400, "Brown": 2671, "##oes": 19270, "##\u00ebl": 17259, "Colorado": 4369, "benches": 21726, "stumbling": 22932, "wipe": 14182, "staff": 2546, "##mage": 27525, "1836": 9875, "Hebrew": 6235, "640": 21451, "##wire": 24952, "streams": 9136, "rushes": 20577, "virgin": 16946, "fought": 3214, "Keyboards": 23446, "Geometridae": 27817, "##iled": 11908, "revival": 9408, "marrying": 14244, "Uruguayan": 26191, "arranging": 21203, "[unused11]": 11, "cradle": 26822, "##kes": 9029, "c": 172, "numbered": 8324, "sunk": 10406, "sidewalk": 12447, "bothering": 18230, "oversized": 24223, "Happiness": 25410, "activate": 23162, "##shima": 21957, "##nja": 19926, "McBride": 20738, "unto": 23165, "grandson": 7254, "nobility": 12276, "Rosenberg": 23171, "Groove": 26291, "McDonald": 9092, "Softball": 26719, "Barton": 13235, "Hancock": 14305, "locate": 12726, "##\u067e": 28501, "insist": 19831, "##\u1e5b": 28637, "Giving": 22700, "##cton": 26176, "reproduced": 25017, "scores": 7432, "initially": 2786, "cans": 20668, "Missionary": 21343, "October": 1357, "GM": 14748, "##\u4e8c": 28875, "Come": 3435, "Pasadena": 20458, "Jung": 13279, "tugging": 19029, "pianist": 9003, "reggae": 21402, "Excuse": 20676, "\u56fd": 1004, "inherit": 26047, "##zi": 5303, "Jacob": 5549, "cottages": 22264, "Amendment": 10060, "shells": 11251, "Rubin": 22686, "AP": 10997, "Verdi": 22703, "x": 193, "charted": 12883, "Palazzo": 22033, "##aq": 22540, "slumped": 14956, "diminished": 17017, "##gro": 21932, "Why": 2009, "percentage": 6556, "tumbled": 19749, "Rusty": 19449, "fabricated": 27615, "yellow": 3431, "legitimacy": 25844, "owns": 8300, "\u548c": 1002, "##mum": 16268, "Wendell": 27628, "##chaft": 19309, "periods": 6461, "Chorus": 16415, "##orio": 20571, "apology": 13382, "Oral": 26925, "imports": 20171, "##bek": 17327, "needy": 27819, "independently": 8942, "sworn": 10849, "##bble": 15114, "Toronto": 3506, "Navarre": 23411, "Lambert": 13056, "mascot": 14623, "submarines": 13191, "lobby": 9722, "##romatic": 16341, "respiratory": 19192, "##hul": 24287, "wingspan": 11564, "magnificent": 14524, "##\u2075": 28705, "frightened": 10551, "removes": 22391, "reporter": 6672, "stress": 6600, "Abe": 15849, "economically": 16682, "structure": 2401, "McGraw": 27315, "slot": 10641, "\u03c5": 438, "contracting": 26706, "leased": 12222, "remastered": 23109, "Schubert": 27823, "##ME": 14424, "##iv": 11083, "##\u0435\u0432\u0438\u0447": 25525, "hopeless": 24858, "root": 7261, "##dices": 28092, "metaphor": 21927, "physician": 7454, "ripping": 18841, "celebrates": 24408, "##nae": 16379, "mystery": 8069, "##lop": 13200, "Together": 6333, "236": 26361, "real": 1842, "##pressed": 15716, "##rsch": 20627, "censorship": 18125, "##ulata": 23811, "Lacrosse": 25742, "Quarterfinals": 13582, "remained": 1915, "page": 3674, "organizational": 15610, "##ela": 9945, "Turks": 13126, "510": 26177, "##leading": 28007, "fastest": 7901, "Know": 9224, "belonged": 5609, "Edmonton": 10397, "neo": 15242, "##vior": 17564, "shrieked": 24863, "postseason": 19337, "Valerie": 15788, "Counsel": 18645, "Al": 2586, "dubious": 26287, "##rolls": 26521, "##dt": 12518, "stacked": 18452, "enforced": 17538, "definitely": 5397, "Actors": 23351, "diversity": 9531, "Boston": 2859, "ventures": 20135, "Pozna\u0144": 21475, "##angelo": 27638, "dazed": 24528, "syrup": 27662, "[unused61]": 61, "Painting": 18189, "December": 1382, "portraits": 10285, "liability": 15509, "Ang": 26285, "\u1da0": 725, "consumption": 8160, "princess": 9309, "incidents": 10563, "costa": 20658, "Romney": 21350, "cinema": 7678, "dear": 7059, "To": 1706, "223": 22803, "differentiate": 23159, "Belarus": 12715, "acquisition": 7626, "##36": 22997, "agony": 13965, "drowning": 16953, "consul": 17004, "Eisenhower": 17616, "##\u211d": 28736, "Dolphins": 19112, "Nights": 16303, "preserving": 16593, "deed": 17194, "earned": 2829, "Internet": 4639, "##gating": 18401, "##chayat": 21753, "##ish": 2944, "genres": 11688, "aggressive": 9233, "##spective": 16776, "Hermann": 12360, "1890": 5522, "Norfolk": 7240, "plaintiff": 23940, "250": 4805, "lifetime": 7218, "credited": 5175, "\u09ac": 654, "Conan": 17727, "##nounce": 25196, "##\u05e0": 28460, "\u03a0": 407, "VIII": 9935, "Cave": 11900, "##lew": 23513, "hotter": 26105, "##rem": 16996, "cinemas": 27081, "Ferguson": 11254, "Getting": 14709, "rankings": 13514, "commotion": 27846, "nuclei": 27349, "awhile": 21985, "##vocation": 17105, "tumors": 24309, "cement": 12527, "ready": 2407, "Sultanate": 26607, "networks": 6379, "Hello": 8667, "##gra": 14867, "pig": 13407, "workers": 3239, "Fen": 27868, "identity": 4193, "prolonged": 16639, "largely": 3494, "46": 3993, "brightness": 20828, "1900s": 17446, "clash": 18751, "dressed": 4462, "Mart": 24341, "pinyin": 10307, "Weekly": 8922, "ugly": 10126, "Siberia": 17991, "Bertrand": 22554, "asserts": 21306, "investigated": 10788, "Gate": 8375, "passion": 7615, "Punk": 19491, "duet": 13401, "cross": 2771, "Selected": 17018, "fungus": 18142, "conference": 3511, "vacated": 16216, "Spirits": 27761, "penalties": 13095, "improve": 4607, "42nd": 23532, "\u062c": 570, "helicopters": 13614, "bays": 15520, "sticky": 18674, "1815": 10569, "Fighter": 7388, "##VS": 27127, "amenities": 23134, "lady": 5141, "am": 1821, "albums": 3770, "crooked": 19785, "humble": 20086, "[unused3]": 3, "hotel": 3415, "festival": 3782, "##gon": 7528, "assert": 23163, "##enne": 26042, "Call": 7268, "##location": 27141, "batter": 27584, "\u039b": 403, "atoms": 14296, "Elections": 15875, "accept": 4392, "Armenia": 9917, "Ada": 19222, "##ganj": 25060, "galaxies": 26341, "##llister": 22790, "budget": 4788, "##ikos": 25529, "##rca": 23433, "##sable": 17272, "230": 11866, "Wouldn": 20487, "##itrus": 22220, "##sused": 26097, "Dolly": 23549, "##eve": 19907, "Convention": 5818, "Monastery": 14098, "Ordnance": 19369, "evacuated": 13776, "##sbury": 14959, "outpost": 26411, "Wrestling": 5995, "\u02b2": 377, "Woodrow": 26861, "dinosaurs": 23570, "##TE": 12880, "surprises": 22810, "explored": 10581, "emerged": 5338, "spends": 16994, "Volunteers": 19340, "exhaust": 16287, "exclude": 26132, "reception": 7602, "##ssie": 16869, "Robson": 26548, "beaches": 13343, "##amon": 25902, "##uffed": 22236, "palace": 5717, "##the": 10681, "Levin": 22104, "African": 2170, "butterfly": 11057, "##ruit": 27975, "restored": 5219, "You": 1192, "##ville": 2138, "considers": 10500, "jersey": 14953, "##vani": 25373, "rugby": 4896, "##nological": 22176, "mutation": 17895, "##tec": 19000, "Physics": 8937, "really": 1541, "sub": 4841, "Limited": 5975, "Molecular": 22175, "heavyweight": 18116, "observatory": 23014, "##IO": 19368, "debts": 14689, "##mper": 20900, "\u3066": 911, "##bay": 22771, "Venice": 7433, "stirred": 14030, "insides": 20751, "[unused36]": 36, "Jaya": 27368, "YOU": 19141, "molecular": 9546, "##jure": 28014, "skeletal": 23400, "moaned": 12732, "##zo": 6112, "##sik": 24577, "donors": 20023, "210": 13075, "mining": 5463, "##ary": 3113, "plain": 6188, "##vie": 9756, "##riated": 22356, "NC": 14056, "##Net": 25264, "stands": 4061, "applicant": 27414, "men": 1441, "##\u0449": 28411, "allies": 8224, "Suffolk": 12436, "wolves": 11260, "Osborne": 17802, "recognise": 18986, "relations": 4125, "assurance": 23296, "personal": 2357, "fans": 3899, "alternate": 7551, "Wyatt": 13250, "entering": 5273, "refer": 5991, "##umi": 14088, "Queens": 9347, "Jaime": 15162, "Nicola": 18634, "Natural": 6240, "columnist": 14219, "Going": 11099, "Ring": 8467, "remarkably": 19957, "engineering": 3752, "##y\u014d": 22561, "##teca": 27560, "Edition": 7075, "economic": 2670, "Devon": 7122, "immense": 14934, "Paraguay": 14345, "reputed": 25153, "O": 152, "salmon": 17646, "operas": 15441, "inscriptions": 14212, "want": 1328, "Tavern": 25829, "stew": 26036, "Illustrated": 16424, "Amateur": 11126, "Sixth": 12979, "\u09cd": 669, "Brenda": 16400, "bulk": 9634, "##\u0148": 28235, "starvation": 26389, "Slovenian": 17636, "executed": 5858, "##\u304f": 28793, "Sleeping": 21751, "Alzheimer": 24278, "tighten": 23847, "##\u0412": 28368, "historically": 8528, "winds": 7390, "clause": 13620, "204": 21355, "Tucker": 9594, "thrust": 7113, "gaining": 8289, "evident": 10238, "##vasive": 25007, "shy": 12076, "danger": 5170, "s": 188, "throat": 2922, "##dak": 24122, "consistent": 8080, "Lange": 24192, "##dence": 23496, "##sper": 20623, "Duchess": 12856, "springs": 12517, "##TS": 11365, "hating": 26766, "cyclists": 25999, "Track": 6563, "##eton": 22273, "##tory": 6207, "jolt": 26078, "relies": 17918, "reproductive": 17505, "Several": 3728, "##\u06d2": 28507, "retained": 5366, "probable": 16950, "##ffy": 12383, "harmonic": 23650, "interface": 8551, "Directorate": 15237, "unusual": 5283, "cases": 2740, "##hage": 19911, "##ares": 18828, "glacier": 19121, "correction": 22590, "Trick": 27069, "HQ": 17426, "deer": 10064, "spur": 16650, "##des": 4704, "##rban": 23092, "accumulation": 23168, "alpha": 11164, "lightly": 7863, "##uary": 18487, "experimentation": 24768, "Architect": 20986, "365": 21033, "illusion": 14488, "##\u0679": 28500, "##lav": 9516, "Emilio": 20555, "Carmen": 11481, "pronunciation": 17238, "Philips": 20810, "Ku": 23209, "##omo": 18445, "those": 1343, "##ayne": 24562, "tavern": 19444, "adolescent": 25506, "donations": 11725, "adapt": 16677, "tradition": 3904, "##pliant": 27898, "##rlin": 20754, "operated": 2622, "suggests": 5401, "##pice": 15633, "##lore": 21425, "Wedding": 18622, "##\u00edas": 22418, "emperor": 6821, "##\u2021": 28695, "echo": 16278, "routinely": 21871, "or": 1137, "##\u017e": 28261, "450": 10181, "bombardment": 17347, "##ttes": 20161, "##lani": 21690, "italics": 24042, "##00": 7629, "##place": 11256, "Sa": 17784, "moth": 5330, "##girl": 17001, "Liam": 7797, "Performing": 14005, "Alive": 15907, "painters": 15233, "K": 148, "Celtics": 25931, "Handicap": 25597, "##10": 10424, "communism": 23154, "##ana": 3906, "S\u00e1nchez": 16549, "##raiser": 27014, "Armed": 8776, "Duchy": 13019, "##dha": 14016, "Communities": 21474, "Libya": 13135, "Minnesota": 4332, "respected": 9581, "combinations": 16058, "##hard": 9421, "##nted": 16736, "systemic": 27410, "##\u3044": 28787, "##kman": 27776, "purchases": 18908, "##vout": 27729, "##MR": 21148, "corporations": 12584, "\u99ac": 1085, "ragged": 15588, "dotted": 22641, "##ou": 6094, "Reformation": 16746, "##grad": 20561, "acquired": 2888, "conflict": 4139, "Georgian": 8832, "scholarships": 18085, "inclined": 13427, "correlation": 18741, "##ario": 20438, "looming": 27003, "1640": 23753, "##graduate": 26430, "splits": 22141, "Rouge": 13993, "Squadron": 3837, "blazing": 20013, "\u1ea7": 741, "aluminum": 14349, "eclipse": 22623, "##corn": 13433, "##dua": 25823, "##ick": 5345, "Greeks": 13466, "confession": 15349, "raided": 20574, "##ID": 9949, "Cullen": 21696, "125": 8347, "Chocolate": 22011, "mixture": 7759, "turns": 3587, "Joshua": 8777, "Caucasian": 26561, "classic": 5263, "##\u041c": 28377, "trenches": 22547, "but": 1133, "cylinder": 7613, "ul": 23449, "Tokyo": 4839, "digitally": 20328, "##oux": 24060, "##q": 4426, "Nancy": 7444, "annexation": 21352, "Lindsey": 18781, "Oaks": 16518, "glaciers": 25625, "Industries": 10699, "forearm": 17284, "presently": 16269, "99": 4850, "reducing": 7914, "strains": 21116, "##qualified": 25005, "Roberta": 26212, "frog": 13670, "residues": 25513, "##ggio": 21541, "##\u05e6": 28464, "1934": 3729, "\u5dde": 1024, "affairs": 5707, "##sique": 24808, "viewpoint": 25216, "decreased": 10558, "##cliff": 25927, "key": 2501, "Gideon": 12310, "##forth": 15396, "Axel": 20575, "##iga": 13499, "Standing": 9996, "radial": 17172, "Granada": 17644, "west": 1745, "Ramsay": 21178, "McCormick": 25900, "Daly": 20058, "Stuart": 6395, "[unused79]": 79, "foundations": 11217, "Deal": 15361, "##\u039f": 28327, "Roy": 5396, "elongated": 19564, "Biblical": 16492, "occupying": 14854, "Mussolini": 25086, "Forbes": 10754, "clearly": 3817, "persisted": 20702, "##tler": 17966, "Soviets": 16359, "##cted": 8436, "diplomatic": 8311, "pending": 15498, "\u03c0": 433, "invented": 8620, "Travel": 7938, "##\u044c": 28414, "##hino": 21918, "Production": 6401, "perform": 3870, "abdominal": 24716, "sufficient": 6664, "##ucks": 21515, "##outs": 10469, "redundant": 24520, "capacity": 3211, "##,": 28136, "##ayman": 25939, "rebranded": 19735, "dining": 7659, "ponytail": 21101, "Bali": 22403, "##ific": 19814, "outer": 6144, "washed": 8589, "##olate": 14995, "##DA": 11392, "Chartered": 27344, "\u0101": 279, "Territories": 18057, "Miracle": 16904, "##yssa": 18467, "Tribe": 15987, "##nza": 12541, "nominees": 21512, "seriously": 5536, "##one": 4798, "teenagers": 13663, "drain": 13734, "##liff": 18820, "Creation": 19470, "withdrawing": 24749, "reforms": 8931, "1898": 5381, "##ruk": 25192, "most": 1211, "hour": 2396, "steel": 3649, "##fs": 22816, "fixing": 17509, "\u1ea3": 739, "##Script": 27780, "summoned": 12114, "trail": 5126, "dots": 16672, "acquaintance": 20125, "pu": 23609, "administration": 3469, "heaven": 9775, "##urly": 25859, "despair": 15546, "Giant": 12510, "##dai": 14117, "catastrophic": 27198, "plural": 14920, "certification": 12146, "depictions": 23507, "reassuring": 23310, "authored": 8466, "clubhouse": 27973, "pyramid": 15931, "1997": 1816, "\u1f50": 771, "took": 1261, "unused": 16217, "benefited": 21495, "##alia": 19457, "Jacques": 6909, "component": 6552, "\u02be": 382, "Instrumental": 17809, "Doctors": 21232, "Jack": 2132, "Whitman": 23459, "##ld": 5253, "##aines": 25180, "Follow": 19253, "cigar": 23261, "##kushima": 27974, "baseman": 19670, "quantum": 9539, "write": 3593, "##yer": 7904, "##gical": 20851, "Early": 4503, "margin": 7464, "disbanded": 8285, "sessions": 6887, "televised": 14463, "Forgotten": 26286, "Daniel": 2979, "elderly": 9808, "sustained": 8505, "translation": 5179, "grenades": 24872, "er": 14044, "environments": 10152, "cats": 11771, "aftermath": 11026, "Holocaust": 12066, "Josh": 5868, "wanted": 1458, "posing": 23614, "##\u1f78": 28676, "inexpensive": 27215, "##ritic": 23862, "##\u00fe": 28210, "##\u00e8ne": 18265, "\u03c2": 435, "positive": 3112, "Nadu": 10657, "economics": 8142, "##bei": 16791, "##verty": 26462, "##ph": 7880, "functional": 8458, "##hwa": 24156, "##tical": 10165, "shortly": 3992, "paperback": 16885, "##loc": 27089, "problem": 2463, "##icorn": 23941, "Sage": 15204, "answering": 10937, "##ule": 8722, "fate": 7012, "Fest": 22305, "poking": 24337, "ambiguous": 22405, "considering": 6103, "caller": 25780, "fewer": 8307, "activism": 18945, "\u02e3": 388, "\u300c": 889, "residential": 5198, "passes": 4488, "prizes": 12843, "##rust": 19604, "July": 1351, "score": 2794, "##gong": 19387, "Hu": 20164, "simple": 3014, "Want": 8631, "minorities": 16130, "dancer": 9227, "##nts": 5240, "Agent": 9341, "DS": 18448, "peaked": 6009, "Dinamo": 24780, "maturity": 18462, "opening": 2280, "Dewey": 22213, "discrimination": 9480, "##bloid": 27109, "Leader": 7308, "pausing": 25494, "##gnesium": 27844, "##ffling": 20709, "Fishing": 23738, "tune": 9253, "4000": 21955, "##oy": 7341, "##die": 7782, "LED": 23112, "kilometres": 2850, "\u0146": 308, "journalist": 4391, "Naval": 4715, "Devin": 26935, "irrational": 27447, "Hume": 22427, "startling": 22425, "SE": 12342, "\u1ef1": 765, "130": 7029, "Leicestershire": 21854, "tower": 3590, "Magdalena": 27971, "interview": 3669, "premiere": 6965, "Rochester": 10425, "Novak": 22788, "Carey": 11833, "customers": 5793, "Audio": 14065, "Organ": 20383, "##anu": 19762, "straps": 21702, "older": 2214, "Against": 8801, "tempting": 27386, "Mystery": 12011, "investor": 16321, "Earlier": 15993, "premium": 16865, "es": 13936, "Denmark": 5140, "##mer": 4027, "##lumber": 26993, "##rva": 13461, "Davies": 8746, "\u7f8e": 1066, "Sharma": 15324, "\u0997": 643, "##sal": 11794, "laced": 19498, "latter": 2985, "##tra": 4487, "proposition": 21133, "summer": 2247, "##\u0993": 28543, "[unused90]": 90, "ignored": 5794, "\u00ee": 260, "graduating": 6282, "##pus": 10306, "rider": 10604, "settler": 21345, "inverted": 22996, "chunk": 24384, "restaurant": 4382, "harsh": 8213, "Sector": 17063, "Booth": 15551, "##\u1e6d": 28639, "Flynn": 13580, "software": 3594, "welcoming": 20028, "depot": 11475, "ongoing": 7173, "Construction": 6568, "##arma": 24275, "robotic": 24628, "slides": 15766, "footing": 25559, "strides": 24901, "1749": 27828, "musicians": 4992, "standings": 12813, "technically": 12444, "guerrilla": 18850, "reopened": 11996, "##\u91ce": 28971, "Venezuela": 7917, "education": 1972, "Saturn": 15476, "Oracle": 19265, "##ogist": 25976, "DOS": 19132, "journalists": 9891, "Land": 4026, "cleaned": 12370, "##pt": 6451, "another": 1330, "diploma": 14985, "\u00b9\u2044\u2082": 20262, "eligibility": 11768, "Romeo": 12992, "substrate": 17498, "flickering": 22387, "moderate": 8828, "premise": 20197, "awards": 3745, "likewise": 15869, "Pact": 27175, "ya": 11078, "Falcon": 13893, "Penguin": 16563, "##wi": 10073, "08": 4775, "grinding": 17959, "Louisa": 16649, "bolts": 23642, "##hya": 20622, "##\u0902": 28508, "Permanent": 16363, "##elly": 23083, "Honour": 16451, "fridge": 18243, "regulatory": 12638, "##hou": 14640, "substance": 9556, "##ryl": 19944, "##manned": 25820, "##cini": 27909, "\u1f10": 769, "Czechoslovakia": 13028, "Form": 15075, "Dixon": 11372, "\u02d0": 385, "imperial": 7749, "councillor": 16517, "squash": 25714, "Universit\u00e9": 25955, "hurting": 12199, "pumps": 17309, "incidence": 21014, "crater": 12742, "##bles": 8350, "##key": 9144, "Sumatra": 19679, "Scientific": 8787, "Countess": 13106, "##lusion": 17855, "weekday": 18730, "pledge": 20335, "prosecuted": 24004, "engineered": 16419, "##mbe": 17329, "translating": 26894, "narrated": 19537, "tease": 20826, "PD": 27802, "serves": 3411, "Bernstein": 20436, "opener": 17622, "sedan": 19170, "##lyn": 8068, "Cassie": 8512, "Lay": 22002, "Pike": 14997, "##irs": 11836, "wedding": 4655, "disciples": 21429, "93": 5429, "sighs": 22447, "##35": 19297, "##secutor": 27727, "ages": 6776, "##verse": 10840, "##writing": 17729, "adopting": 17827, "##aca": 16604, "presidents": 17702, "##SL": 13726, "S\u00e3o": 7447, "Rogers": 6836, "correctly": 11214, "##film": 25340, "unable": 3372, "##kon": 19890, "environmental": 4801, "lifting": 9219, "dipped": 13916, "NH": 20576, "##berley": 23086, "embedded": 11783, "Alejandro": 17904, "Willis": 12886, "##imating": 27182, "Normandy": 13652, "##outh": 16397, "Dynamo": 19725, "Brock": 14389, "caretaker": 20893, "mostly": 2426, "eldest": 6921, "Ricardo": 13921, "sanity": 24188, "pushed": 2873, "artillery": 6201, "endurance": 20655, "confirmation": 15468, "gleaming": 20353, "##cake": 19453, "purposes": 4998, "lunged": 19070, "investigative": 19043, "Reaper": 23696, "twisted": 6061, "Basel": 14562, "\u6c5f": 1050, "Joseph": 2419, "Conor": 22524, "Netflix": 22989, "sipped": 19055, "rhythms": 21890, "\u306f": 916, "##haman": 24045, "digital": 3539, "Camden": 13613, "Shore": 11301, "density": 3476, "sandwich": 14327, "ensure": 4989, "Alumni": 17934, "transcription": 15416, "Reyes": 12823, "##vue": 19038, "##hisky": 23395, "##stick": 23743, "M\u00fcller": 16761, "Wagner": 10171, "hesitated": 9051, "convey": 17863, "Barron": 26901, "citizen": 7888, "colleagues": 8304, "\u208e": 823, "exposure": 7401, "half": 1544, "dishes": 10514, "Lowell": 16367, "Doo": 27588, "Four": 3396, "slower": 12741, "vicinity": 9748, "##\u221a": 28748, "discs": 17973, "##ig": 6512, "##\u00f9": 22702, "manually": 23465, "Bury": 19390, "104": 9377, "##entry": 26666, "hardware": 8172, "emblem": 19423, "##nail": 26060, "Luigi": 15904, "Iberian": 24381, "glad": 5171, "Malta": 9723, "laboratory": 8087, "Pirates": 11286, "souls": 11191, "So": 1573, "##loading": 19910, "Survey": 8157, "##eed": 11394, "Previously": 11642, "##gee": 15762, "asleep": 6153, "##\u65b9": 28925, "Stephen": 3620, "Luftwaffe": 19027, "distinction": 7762, "Union": 1913, "##ater": 19987, "Jewish": 2778, "Alps": 14316, "##ortex": 26211, "slogan": 15367, "Cyrillic": 16466, "coldly": 28048, "##kle": 12767, "arrow": 11473, "Ever": 10006, "Simon": 3274, "laundry": 16524, "fame": 8408, "kissing": 7567, "Acts": 13720, "pamphlet": 22461, "toll": 10484, "changing": 4787, "Dancing": 13234, "transmitting": 27536, "But": 1252, "rumours": 23620, "Livingston": 14648, "26th": 15638, "404": 27993, "##riad": 20144, "17": 1542, "\u3082": 922, "##opped": 23807, "Rain": 10463, "##uster": 25446, "##nes": 3965, "fish": 3489, "Guillermo": 23167, "berries": 26571, "laughing": 5574, "radiating": 26120, "Bremen": 17339, "grants": 9295, "closest": 7064, "practiced": 8720, "[unused43]": 43, "disabilities": 16292, "Across": 14754, "joining": 4577, "arid": 19580, "commentators": 18209, "##uh": 23698, "Ivy": 7717, "Whoever": 20834, "infection": 8974, "venture": 7006, "Stefan": 8882, "##ept": 15384, "terrifying": 18625, "Considering": 23243, "##LS": 15928, "##reet": 17399, "Han": 7699, "devotion": 14740, "##span": 27894, "[unused95]": 95, "Judith": 13131, "##LE": 17516, "\u6751": 1041, "screaming": 7406, "Truman": 16057, "##lf": 9654, "convent": 13727, "opposition": 4078, "wit": 20787, "##ate": 2193, "strengthened": 14544, "##sville": 8030, "##tto": 8849, "Nurse": 17418, "Peoples": 19448, "modernist": 26068, "East": 1689, "closely": 4099, "##tures": 12463, "likely": 2620, "Kendra": 14328, "Maintenance": 21112, "OCLC": 12417, "Communication": 10385, "ignition": 20447, "XIII": 16214, "robe": 11580, "ratios": 24576, "Fresh": 15756, "Excellent": 25764, "\u1d64": 722, "Clement": 13875, "steered": 26386, "blasted": 20527, "Elisabeth": 13844, "doses": 24429, "Fargo": 25727, "Ye": 15821, "reports": 3756, "thousand": 4032, "Redskins": 18811, "##lution": 18404, "Florida": 2631, "##ET": 11943, "spending": 5369, "wrecked": 20580, "##astic": 25066, "\u3053": 902, "Belt": 15834, "Gaming": 21161, "vol": 10857, "L": 149, "slopes": 10336, "bath": 10919, "fat": 7930, "horns": 13011, "ringing": 13787, "announces": 19028, "##aby": 19127, "Pen": 23544, "##tinent": 24123, "##pton": 11927, "##gis": 25019, "##\u85e4": 28962, "brown": 3058, "##lland": 24397, "eighth": 6075, "Bharatiya": 27326, "\u0301": 389, "relationships": 6085, "##\u2033": 28700, "##bria": 24911, "sheets": 8675, "##ibe": 13374, "atmosphere": 6814, "socket": 27532, "usual": 4400, "##GP": 17095, "creep": 24090, "##arate": 18759, "hardwood": 27059, "1862": 6283, "##versity": 17671, "requires": 5315, "##\u015a": 28243, "Strait": 12925, "##block": 27467, "Dexter": 15815, "intricate": 19360, "##cam": 24282, "centred": 17720, "montane": 24831, "##tensive": 27291, "stare": 5698, "\u0580": 525, "par": 14247, "Keith": 6162, "island": 2248, "\u05b7": 531, "departments": 7844, "trading": 6157, "robust": 17351, "sovereign": 14611, "readings": 17813, "Honors": 25796, "guess": 3319, "\u00d3": 238, "##idian": 27967, "Sovereign": 24600, "collective": 7764, "cater": 27766, "swimmer": 14412, "negotiated": 14071, "is": 1110, "Meadow": 24707, "\u1d48": 711, "\u025b": 358, "drawers": 25604, "staged": 9645, "Mike": 2639, "architects": 10939, "sailing": 9145, "Mozart": 13496, "perished": 25996, "Indo": 11501, "\u300d": 890, "##\u53f8": 28892, "##nto": 10153, "drill": 15227, "slalom": 28095, "##ync": 27250, "Monitor": 24803, "##uka": 12658, "##\u5341": 28887, "Things": 7149, "list": 2190, "UCI": 15166, "imagined": 7683, "surprising": 11567, "parasite": 25706, "##vian": 10644, "only": 1178, "wine": 4077, "fiercely": 17494, "municipalities": 7473, "\u3046": 895, "surname": 12239, "View": 10344, "slowing": 20098, "166": 20104, "\u062e": 572, "##force": 15910, "shudder": 19986, "Zeppelin": 25281, "Hungarian": 4852, "behaviors": 16711, "shouts": 17371, "feeder": 27026, "207": 21606, "licence": 12155, "pounds": 6549, "1800": 9558, "promoter": 17110, "experiments": 7857, "folks": 13918, "Australia": 1754, "##runcated": 28098, "appreciation": 13542, "Encyclopedia": 15047, "persons": 4983, "touching": 6893, "##rne": 12275, "Whenever": 20589, "relegation": 9647, "Restoration": 15988, "nearly": 2212, "always": 1579, "Programme": 11512, "Summit": 11843, "##osterone": 26622, "##bis": 14866, "nests": 19759, "behind": 1481, "grimaced": 20663, "JP": 18283, "If": 1409, "##croft": 12012, "##icker": 23666, "##cock": 11157, "##furbishment": 27538, "Lauderdale": 26278, "seminal": 23046, "sickness": 17663, "pioneers": 17735, "Jain": 18489, "##craft": 8444, "\u90ce": 1075, "merits": 26207, "[unused81]": 81, "Head": 3763, "integrated": 6576, "constructing": 17217, "##46": 23435, "##\u2248": 28754, "interested": 3888, "escaping": 13755, "Carleton": 24676, "Sabrina": 24250, "Elgin": 26665, "sphere": 11036, "tops": 15553, "Barracks": 20526, "huts": 26931, "railing": 16690, "narrowing": 25277, "Phelps": 22385, "\u6771": 1042, "##\u02e1": 28307, "freedom": 4438, "excellent": 6548, "potentially": 9046, "processor": 14538, "lungs": 8682, "Fuel": 18935, "tensed": 16027, "##tur": 20362, "\u010f": 286, "##\u7f8e": 28959, "##g\u00e9": 21645, "spider": 12545, "Hope": 5977, "neck": 2455, "Fang": 18602, "NDP": 24245, "cyclone": 15202, "Updated": 17451, "\u2095": 828, "abruptly": 9354, "##vous": 11944, "divisional": 22724, "Fielding": 28030, "##ency": 9517, "261": 27480, "mass": 3367, "##rber": 19644, "Secondary": 7934, "Interest": 17067, "Wilderness": 16436, "\u03a9": 413, "\u2660": 876, "Isabella": 10206, "##ilis": 22279, "Dex": 23058, "Qualifying": 19720, "##eep": 17059, "shops": 7116, "137": 15679, "Rapid": 16356, "inconsistent": 22410, "banned": 7548, "##ult": 7067, "ambushed": 24722, "Penguins": 24801, "[unused38]": 38, "Drive": 6877, "second": 1248, "##mal": 7435, "##ges": 7562, "revealed": 3090, "motel": 18976, "ranking": 5662, "Wisconsin": 4486, "arrived": 2474, "##VN": 18198, "unwanted": 20194, "agrees": 10052, "piles": 20849, "##mist": 18972, "capability": 11137, "inevitably": 25315, "chaired": 12624, "Historically": 14630, "nak": 20084, "canonical": 21768, "\u03a4": 409, "Warsaw": 7760, "1873": 7110, "narrative": 8195, "robots": 16013, "##leaf": 21407, "facts": 9193, "\u2012": 781, "cap": 6707, "Yunnan": 23967, "##\u1da0": 28627, "Bring": 15646, "##inia": 25397, "injunction": 25905, "##fference": 20954, "promise": 4437, "woken": 25580, "Marius": 21915, "it": 1122, "bankrupt": 19004, "waves": 5685, "spears": 27490, "##ceived": 21437, "Gaston": 21668, "Japanese": 1983, "garage": 7419, "foliage": 21731, "Looking": 8540, "\u2502": 870, "installed": 4631, "daytime": 14907, "Phase": 12278, "twitched": 17848, "periodically": 20352, "vacation": 12020, "##\u6238": 28922, "Middleton": 19059, "##byss": 24598, "blocking": 11016, "MGM": 16241, "Bowie": 15413, "religion": 4483, "##sat": 28027, "constituency": 5269, "praise": 9010, "Bonaparte": 22851, "##den": 2883, "threatens": 18241, "transports": 21951, "gentleman": 12400, "whispering": 15181, "##cious": 9589, "infant": 11551, "regards": 12747, "spirit": 4840, "Corner": 14018, "somewhat": 4742, "Allmusic": 16446, "guards": 5292, "850": 16577, "psychic": 14181, "guessing": 18453, "##racker": 27733, "junction": 6698, "##\u209b": 28728, "sees": 5302, "##phony": 27716, "latest": 6270, "temporarily": 7818, "##\u30ec": 28864, "recaptured": 26819, "creeping": 20949, "Household": 25705, "1895": 5639, "Lexington": 15134, "throne": 5774, "1710": 26699, "energetic": 20069, "Woman": 5651, "remarkable": 9495, "remotely": 21699, "##thical": 26610, "fastened": 27052, "weakened": 12041, "Clyde": 12190, "skull": 7753, "ticket": 7260, "Dale": 8238, "Rotten": 15135, "advertised": 18428, "crimes": 6969, "lights": 4204, "Belgium": 4990, "packaging": 17019, "Nora": 12579, "outbreak": 8010, "toast": 17458, "whipped": 12740, "Nah": 24883, "##ient": 9080, "Russ": 19809, "fighters": 7705, "expressway": 26185, "##about": 20230, "##\u00a1": 28157, "##ive": 2109, "[unused75]": 75, "gut": 9691, "alloy": 20107, "Marie": 4238, "wire": 7700, "Stanford": 8036, "Glen": 8820, "ropes": 16024, "\u0902": 605, "\u027e": 364, "detained": 15474, "Justice": 3302, "flooded": 10276, "seeming": 17511, "north": 1564, "therapeutic": 20340, "debuted": 5362, "##trom": 24655, "##ych": 21155, "\u0643": 587, "Chancellor": 8861, "McKay": 17453, "##rocodile": 24198, "Midnight": 12407, "audible": 22395, "lit": 4941, "Muir": 25952, "Annabelle": 28016, "Woodward": 20825, "topic": 8366, "hide": 4750, "convention": 6765, "viewers": 6827, "disability": 13996, "Satan": 18166, "bi": 16516, "Berger": 17911, "Xiao": 22238, "Serena": 15138, "regard": 7328, "loans": 11453, "autobiographical": 20638, "adaptive": 25031, "revolt": 11733, "##gall": 22629, "editing": 10620, "evidently": 20178, "Paige": 18179, "60s": 22891, "aroused": 20014, "researched": 20429, "##art": 9349, "chaotic": 22911, "##patient": 27420, "Cure": 27121, "debut": 1963, "##med": 4611, "##ienced": 28118, "PR": 11629, "answers": 6615, "push": 4684, "kindly": 21559, "repeats": 19811, "##chers": 18346, "noisy": 24678, "none": 3839, "Saints": 7099, "mumbled": 11599, "wilderness": 15211, "forming": 5071, "Industry": 7358, "##pathian": 24555, "embarked": 11322, "Veronica": 14070, "manages": 8701, "##lists": 18286, "Callie": 21894, "human": 1769, "##reta": 22714, "Siemens": 24824, "cluster": 10005, "316": 26896, "correspondence": 12052, "traditions": 7181, "evergreen": 27818, "...": 1232, "String": 13604, "##\u05d0": 28445, "Davy": 25915, "Main": 4304, "Jeffrey": 10708, "kit": 11622, "##anus": 20387, "##rams": 24818, "postal": 14889, "Arena": 6492, "Territorial": 14984, "##lected": 19037, "Picasso": 24979, "Indians": 5888, "##\u0458": 28420, "technical": 4301, "pumping": 15486, "UN": 7414, "Citadel": 23989, "Achilles": 26919, "crown": 6371, "philosophical": 11388, "Distribution": 19806, "sliding": 7989, "transmit": 21994, "Sarawak": 23794, "##tin": 6105, "Events": 17437, "masters": 11573, "precipitation": 14886, "##list": 7276, "enrolled": 7945, "clone": 22121, "Hmm": 23031, "Lantern": 23999, "comprehend": 24822, "greater": 3407, "organic": 7878, "tag": 9235, "flung": 14574, "##tling": 13756, "##rod": 13225, "##hes": 16090, "Resistance": 15598, "##ibly": 15298, "each": 1296, "alive": 3534, "purely": 12098, "September": 1347, "Baku": 17987, "globally": 18526, "##yon": 15136, "##hum": 21631, "beloved": 12915, "##wise": 15868, "1870": 6339, "namely": 8199, "Quickly": 26705, "temptation": 23483, "Arab": 4699, "Britannia": 27907, "dancing": 5923, "films": 2441, "Reich": 14994, "reduce": 4851, "operational": 6519, "resemble": 13262, "marched": 9639, "whispered": 3125, "soccer": 5862, "Luc": 13174, "affiliates": 20795, "ministers": 9813, "Hampton": 11648, "wiped": 7960, "pastor": 11616, "kHz": 19125, "Lovers": 23260, "Us": 11155, "##trar": 26852, "Normally": 17623, "weed": 24195, "inflammatory": 22653, "##gh": 5084, "songwriting": 15744, "Most": 2082, "marine": 5243, "Claus": 20804, "increasingly": 5672, "offerings": 16102, "CFL": 20457, "##have": 22145, "##\u05b5": 28439, "##urion": 27178, "##right": 12601, "metric": 12676, "yells": 25044, "Grammy": 8645, "overly": 16201, "##odles": 27267, "presenter": 10483, "##stein": 7879, "leave": 1817, "cabinet": 6109, "Testament": 9873, "1816": 12497, "##TY": 16880, "corps": 9389, "creepy": 19857, "met": 1899, "shaken": 18673, "incoming": 16248, "Laos": 16765, "##utnant": 27739, "\u013e": 304, "comeback": 14019, "\u03c4": 437, "abbot": 19966, "AT": 13020, "##rner": 18056, "[unused51]": 51, "Games": 2957, "species": 1530, "exhibited": 7799, "seminars": 19898, "Paz": 20136, "Airlines": 8570, "Reformed": 15212, "smiled": 2387, "trees": 2863, "unlock": 22436, "##dley": 11814, "\u3048": 896, "Midway": 20389, "retorted": 27022, "understand": 2437, "pleasure": 4687, "Rand": 16731, "Agency": 5571, "candle": 15488, "Two": 1960, "binding": 7861, "antiquity": 21780, "nouns": 22270, "cadet": 22602, "dated": 5422, "Surface": 22017, "event": 1856, "displacement": 15167, "pregnancy": 10203, "\u03ba": 427, "##ec": 10294, "Kern": 25682, "Goa": 16235, "##aux": 10172, "collaborators": 24146, "Brewer": 24720, "fool": 8906, "Depot": 15525, "##mart": 22736, "##quisition": 18540, "supplies": 5508, "##putation": 19675, "Dynamics": 25082, "##\u032f": 28313, "Pirate": 24291, "barrage": 24125, "##chia": 27018, "##lein": 18929, "##ki": 2293, "\u02b3": 378, "Boeing": 10178, "comfortable": 6062, "Would": 5718, "##linary": 25471, "##rge": 12272, "Medina": 17250, "##qui": 18276, "monitors": 16884, "##ckman": 22372, "##tsu": 9552, "##BA": 8215, "bra": 12418, "clenched": 8173, "retaliation": 20921, "##FP": 20912, "##nine": 20677, "Alaska": 6883, "##rill": 11071, "permits": 15267, "##dden": 19221, "Captain": 2791, "gathered": 5260, "##diation": 25971, "1768": 21560, "##rky": 15538, "acquisitions": 23345, "\u2019": 787, "neutrality": 25449, "1902": 5061, "##ope": 15622, "Beaumont": 17227, "##ctors": 22711, "##nges": 20364, "Remember": 9498, "combining": 12459, "##lton": 13464, "Taft": 21707, "Bethany": 17621, "loosened": 24973, "islands": 5011, "##ocytes": 26431, "snatched": 14779, "attacks": 3690, "BCE": 10596, "Albums": 9106, "\u0bb5": 678, "schemes": 12006, "function": 3053, "eruption": 19049, "\u8fb6": 1073, "Gail": 20374, "Italian": 2169, "##NC": 15517, "##cie": 25982, "moved": 1427, "##ci\u00f3n": 11541, "##gelist": 26959, "Eye": 9329, "fort": 6503, "debating": 27066, "Radcliffe": 25130, "##roup": 24220, "Merchant": 17225, "somebody": 9994, "##aga": 15446, "transportation": 6312, "boulder": 23751, "Jocelyn": 26653, "##ci": 6617, "stretches": 14664, "##zon": 9515, "##eri": 9866, "informal": 12492, "##uchi": 16643, "Texas": 2245, "glittering": 22837, "tour": 2465, "stubborn": 15437, "attain": 20386, "Noel": 12309, "statements": 8477, "##rama": 21571, "loneliness": 24921, "272": 27200, "concussion": 27233, "##\u5b80": 28908, "generators": 18572, "Drugs": 26500, "barrels": 14619, "principle": 6708, "Freddy": 21051, "areas": 1877, "##tick": 27252, "pulmonary": 26600, "##MT": 13910, "ushered": 26751, "##isse": 19202, "fifteenth": 19868, "enhanced": 9927, "##otics": 24262, "security": 2699, "625": 25376, "Ventures": 25386, "weeks": 2277, "controlled": 4013, "##amed": 25282, "included": 1529, "blonde": 9853, "pavement": 15823, "##grapher": 14334, "passenger": 4059, "##lough": 14704, "giggling": 25108, "##alan": 24240, "##yya": 22549, "finite": 10996, "initial": 3288, "1850s": 17513, "Hybrid": 27602, "Bernhard": 23627, "Abdullah": 14677, "su": 28117, "##f": 2087, "wood": 3591, "VI": 7118, "Willie": 9676, "##mie": 9745, "Metacritic": 15168, "##urg": 15243, "begun": 4972, "mortal": 11647, "##nob": 22360, "scent": 5974, "view": 2458, "breaths": 13278, "von": 3262, "Caleb": 9997, "turbines": 18979, "##R": 2069, "##\u0406": 28364, "personnel": 4675, "Shawn": 13547, "##rite": 10587, "##frame": 16548, "San": 1727, "\u00c1ngel": 25257, "35": 2588, "##laced": 25094, "##\u05b7": 28441, "Theological": 14029, "crafted": 21165, "##poli": 23311, "birth": 3485, "[unused82]": 82, "joking": 18114, "approximate": 17325, "##lide": 18498, "f": 175, "votes": 3667, "Burn": 16915, "Madhya": 22959, "mile": 2837, "predatory": 24519, "chemistry": 8117, "these": 1292, "Outdoor": 21511, "Housing": 11662, "Underworld": 22614, "##rvette": 25054, "Rudolph": 19922, "##pectator": 23098, "strategies": 10700, "##sham": 20241, "source": 2674, "height": 3976, "simultaneously": 7344, "##hs": 9524, "##ishes": 19033, "k": 180, "respective": 7514, "Damn": 8441, "assassins": 27459, "tomato": 26422, "##azed": 27625, "piled": 19300, "comune": 24382, "Ski": 16851, "pointless": 27092, "##igan": 10888, "\u00a8": 205, "\u1e43": 732, "stability": 9397, "Iceland": 10271, "Freedom": 6483, "semifinals": 11499, "lately": 10634, "melted": 12755, "allocation": 18205, "Alessandro": 19334, "revived": 10553, "##\u1ed9": 28657, "Marian": 14789, "managed": 2374, "member": 1420, "Corporate": 15978, "Point": 4221, "implementing": 16381, "Keynes": 24543, "runners": 8541, "fashion": 4633, "##nk": 6773, "Somehow": 13039, "##fining": 24110, "Cream": 24511, "enthusiastic": 15496, "Saskatchewan": 9861, "statesman": 25248, "withdraw": 10570, "invention": 11918, "##type": 15177, "Burkina": 25739, "Atlantic": 3608, "paramilitary": 25349, "groin": 22106, "Thorn": 22428, "martyr": 26899, "Controller": 28104, "Su": 15463, "##\u1ef3": 28668, "towers": 8873, "shocked": 6764, "granite": 10769, "primitive": 12130, "explosives": 16454, "trustees": 14052, "signals": 7981, "crawling": 17872, "projection": 15178, "softer": 21002, "\u00e9": 255, "denominations": 18857, "messing": 26746, "freeway": 14373, "Dub": 20691, "Acheron": 23636, "apartment": 3787, "pauses": 21438, "extremely": 4450, "pills": 17029, "Machine": 7792, "risky": 22185, "tied": 4353, "since": 1290, "Flame": 20940, "traded": 6537, "##\u0100": 28212, "warships": 18359, "reaching": 3634, "Navajo": 24954, "tattoos": 20867, "Denton": 26763, "Sloan": 20675, "obtaining": 11621, "##lining": 13260, "blur": 17283, "##berman": 24419, "archaic": 26152, "Lydia": 14639, "hindwings": 17383, "coarse": 23137, "Court": 2031, "watched": 2542, "Goddess": 15728, "Flow": 25549, "##N": 2249, "##mbre": 20347, "##pher": 15940, "jurist": 26908, "onstage": 27249, "##\u30a8": 28828, "Motors": 13931, "Pulling": 22706, "Chester": 8459, "##zier": 22815, "until": 1235, "tide": 12600, "[unused99]": 99, "miracle": 14173, "Mills": 7784, "tie": 5069, "due": 1496, "##nap": 27864, "corn": 11184, "Kali": 22576, "harmonica": 19502, "\u00ab": 208, "Cohen": 9735, "oval": 13102, "subway": 14790, "##EM": 15577, "coffin": 16638, "Shrewsbury": 19561, "play": 1505, "Father": 4505, "\u099f": 647, "##xley": 18485, "auxiliary": 13817, "directed": 2002, "##ement": 14529, "Individuals": 26381, "courtesy": 15897, "blog": 10679, "distances": 12424, "Steven": 6536, "lipstick": 28005, "shaped": 4283, "\u00c2": 228, "substantially": 12613, "context": 5618, "guarantees": 24512, "blinked": 7478, "humanity": 9011, "rumor": 24206, "Haynes": 24098, "kills": 8567, "wrapping": 13261, "##formatics": 27960, "boycott": 21423, "##ranged": 19587, "##ide": 3269, "\u0bae": 674, "percent": 3029, "returning": 3610, "##tled": 16271, "Harlow": 25069, "Galaxy": 13021, "caress": 24765, "Pastor": 19744, "##\u3061": 28802, "prints": 11875, "concessions": 23308, "troubled": 12322, "##BS": 9782, "##\u00bd": 14135, "nudged": 20225, "classical": 4521, "How": 1731, "disaster": 7286, "Violin": 19042, "condition": 3879, "Yankees": 11063, "whiskey": 17714, "##olly": 21383, "Lee": 2499, "receive": 3531, "feast": 11995, "genome": 15519, "playing": 1773, "##BB": 20056, "##mitage": 27811, "carpet": 10797, "##ector": 20302, "Heritage": 5560, "##llars": 27299, "\u4e2d": 980, "tribal": 10059, "stalled": 22789, "##dy": 3810, "deficit": 16312, "unfinished": 16623, "##hor": 13252, "specify": 22829, "##\u0561": 28425, "Rapids": 15303, "its": 1157, "fresh": 4489, "cakes": 27748, "uses": 2745, "know": 1221, "##nea": 25362, "hairs": 14087, "addresses": 11869, "nervous": 5604, "reinstated": 20298, "exit": 6300, "times": 1551, "fueled": 20573, "Norris": 16309, "RT\u00c9": 23890, "Athena": 24481, "Kat": 10785, "Pleasant": 16836, "miniature": 14547, "##fting": 16364, "##ski": 5437, "##lou": 24491, "Sleep": 15153, "Lac": 23929, "Lev": 27257, "##sed": 5591, "raising": 5920, "Colt": 10717, "clutch": 17456, "##hoe": 10061, "##\u045a": 28421, "remote": 6456, "Stade": 16634, "Monroe": 9487, "##\u0163": 28248, "##voc": 24553, "Hold": 10860, "##cloth": 25940, "adjustments": 27939, "gossip": 16378, "fist": 7374, "explosion": 7552, "Writing": 8687, "Bombay": 11888, "manipulated": 22061, "1949": 3224, "##\u0631": 19775, "[unused55]": 55, "Monster": 11701, "jumper": 25563, "attendant": 19389, "profiles": 21138, "closed": 1804, "arrive": 6657, "accessed": 12269, "wise": 10228, "Marcel": 13737, "##ood": 13465, "Mall": 11123, "Circle": 7933, "phenomena": 14343, "Hilary": 25296, "Jupiter": 13377, "\u0baa": 673, "##truct": 23055, "Hastings": 12446, "Rover": 16823, "##lam": 7609, "vine": 23230, "\u2015": 784, "Budget": 19179, "##eting": 21299, "BWF": 23342, "butt": 11259, "Braves": 14864, "Steam": 15144, "dot": 15645, "mast": 18871, "segregation": 21079, "Erwin": 24652, "##cture": 22355, "colonization": 23204, "parliamentary": 6774, "Adventure": 10903, "operative": 13035, "manners": 18944, "##\u6c0f": 28940, "1941": 3018, "##\u30b3": 28835, "dances": 12761, "##\u1ef9": 28669, "##mile": 17893, "pierced": 17547, "downed": 22189, "canton": 13535, "objected": 16894, "practices": 5660, "Gift": 22889, "terrain": 9260, "attackers": 19450, "woods": 6269, "book": 1520, "professionals": 8799, "610": 21591, "Literature": 7594, "##AF": 12303, "34": 3236, "bargaining": 25656, "within": 1439, "posts": 8345, "\u00cele": 27756, "excavated": 16120, "Wes": 14784, "\u0292": 374, "##\u0621": 28470, "##chy": 8992, "hanged": 19583, "Blood": 5657, "circus": 16134, "##abby": 27403, "organism": 17102, "veto": 27484, "virtue": 13456, "##sen": 3792, "dumb": 14908, "walked": 2045, "places": 2844, "Inn": 9859, "##gration": 18353, "analytical": 22828, "immensely": 27590, "Falling": 21151, "03": 5347, "##\u5e73": 28918, "constant": 4836, "Allies": 14254, "Conservatory": 14074, "specified": 9467, "Ping": 27163, "captained": 17251, "basins": 26404, "presentations": 20531, "outfits": 24526, "##nny": 15863, "Transylvania": 22833, "liturgical": 22628, "contest": 5235, "apex": 15764, "aerospace": 27689, "##vern": 24472, "trucks": 9677, "educators": 24937, "##ri": 2047, "Monsters": 20971, "##\u0261": 28280, "disturbance": 19019, "consumer": 8440, "worship": 7697, "dashed": 19647, "pregnant": 6391, "##hine": 17108, "##\u00da": 28195, "stalk": 27438, "Oliver": 5638, "alien": 8143, "merger": 7256, "Bates": 11197, "blunt": 20294, "\u0641": 585, "Corp": 13619, "##edestal": 27571, "sewer": 27635, "mock": 14660, "mortar": 16597, "##ka": 1968, "##media": 16418, "branch": 3392, "partnered": 12690, "Indigenous": 14685, "Historical": 6794, "hobby": 22510, "Talk": 8768, "portraying": 18712, "kindergarten": 15001, "##ane": 6354, "Baxter": 15291, "casting": 9616, "Panic": 18896, "Suns": 25412, "PGA": 14743, "Islam": 6489, "cliffs": 16043, "tracts": 26945, "shotgun": 15210, "worrying": 16569, "Lana": 17723, "Hailey": 23923, "##sts": 10047, "span": 8492, "##zong": 13485, "generated": 6455, "bowls": 20400, "##\u00f4me": 23059, "bore": 8475, "##marked": 19384, "##chemistry": 18533, "McIntyre": 27873, "##vity": 14499, "##jong": 25507, "flying": 3754, "##ssent": 26614, "##tien": 20760, "influences": 7751, "CDs": 16881, "gates": 8257, "##race": 27510, "doi": 9465, "departure": 6267, "##var": 8997, "Strategic": 12367, "##any": 18266, "colloquially": 27963, "temperature": 4143, "strings": 8409, "lottery": 23366, "##\u018f": 28262, "relocated": 6942, "feature": 2672, "K\u00f6ppen": 22414, "##ritable": 27770, "cue": 18780, "axle": 19100, "coordinator": 13443, "\u0250": 353, "Ljubljana": 23835, "\u094b": 633, "\u0434": 479, "##uns": 17096, "Nanjing": 23761, "infinite": 13157, "impressive": 7757, "proceed": 10980, "perennial": 15894, "Crusade": 23983, "##rst": 9731, "Defensive": 21368, "locomotive": 8502, "applied": 3666, "crucial": 10268, "Hat": 19454, "Cy": 27688, "duties": 5078, "\u03c9": 442, "hints": 23531, "dam": 6961, "##hita": 24648, "110": 6745, "Connell": 18354, "shallow": 8327, "zoo": 15003, "gifted": 14160, "explosive": 12154, "##action": 15022, "Madeleine": 21096, "##rase": 24839, "##pool": 13764, "Amanda": 7872, "##rter": 27618, "##\u00e4t": 27888, "##\u208a": 28717, "leading": 2020, "179": 22166, "aggression": 16843, "northernmost": 24873, "out": 1149, "decisive": 13630, "handed": 3541, "Marilyn": 15407, "protested": 11472, "estate": 3327, "##\u00ba": 28174, "Jing": 25837, "delays": 15308, "Wakefield": 17039, "commit": 10836, "assault": 5937, "reverse": 7936, "Religion": 11893, "comes": 2502, "Stone": 4118, "##\u02e2": 28308, "##oos": 26459, "Opened": 23648, "inspiration": 7670, "then": 1173, "Perhaps": 5203, "bumps": 21090, "opposite": 3714, "750": 9416, "rainforest": 24369, "Article": 8554, "Skye": 17685, "fractured": 25555, "dei": 21357, "towering": 23441, "unknown": 3655, "smallest": 10471, "##loop": 22344, "Horses": 24989, "forest": 3304, "frankly": 27642, "Spartan": 24338, "cheaper": 17780, "drilled": 27504, "Kai": 13354, "##morphic": 24285, "##owing": 13621, "deep": 1996, "seeing": 3195, "catering": 22709, "myth": 12849, "railroads": 18558, "bracelet": 21982, "dramatically": 12235, "##lation": 6840, "veins": 9485, "##NS": 12412, "stimulate": 26225, "##\u3053": 28795, "Brothers": 5216, "entity": 9127, "##ails": 25428, "##hos": 15342, "Shah": 7686, "enormous": 7883, "strips": 13507, "inputs": 22743, "exports": 15765, "aired": 4086, "\u057f": 524, "Dove": 20169, "Warfare": 22394, "sometimes": 2121, "Their": 2397, "Abdul": 10179, "limiting": 15816, "##ronic": 26003, "\u2212": 851, "\u0428": 471, "pine": 10194, "Compared": 22439, "##pella": 22517, "##date": 9216, "fencing": 20716, "Peterson": 12092, "captains": 20672, "collaborated": 8303, "spouse": 20846, "Detroit": 4908, "Settlement": 19097, "fatty": 24862, "\u0940": 630, "just": 1198, "exchanges": 17755, "Minneapolis": 11338, "circumstances": 5607, "##isco": 21097, "orchestrated": 26383, "interviews": 7397, "Eagle": 8122, "two": 1160, "thighs": 8932, "goes": 2947, "worm": 19686, "sensitive": 7246, "jaw": 5139, "##pulsion": 20057, "##bel": 8511, "##nation": 9199, "intimidating": 27678, "##rove": 24157, "Mile": 13138, "banks": 5482, "1927": 3951, "motor": 5968, "##court": 13683, "##unting": 14597, "##ash": 10733, "##chet": 17374, "##sch": 9022, "guitar": 2092, "##mian": 19111, "Promoted": 15431, "##ews": 17540, "##raction": 27612, "\u3064": 910, "Wonder": 10991, "Mustang": 21064, "pounding": 9683, "##rgon": 22487, "understands": 21744, "cards": 4802, "USD": 14180, "Mar": 9751, "burning": 4968, "enemies": 6380, "##ting": 1916, "mean": 1928, "jail": 7237, "##stituting": 23346, "##ired": 24599, "Edgar": 9407, "Look": 4785, "navy": 9466, "##\u4eac": 28877, "restricted": 7458, "moonlight": 15743, "##holding": 20139, "##\u00fa": 12643, "##ases": 23105, "##rns": 20163, "Canary": 20462, "Tonga": 22114, "picturesque": 27667, "##ntation": 24832, "Platform": 17742, "tensions": 14696, "demolition": 14295, "Factor": 15926, "music": 1390, "Jasmine": 15912, "default": 12973, "denies": 26360, "functioning": 12641, "##ility": 13378, "##charged": 23131, "##mio": 18248, "Labs": 24621, "lanes": 11348, "TNA": 21940, "\u062f": 573, "##ender": 15981, "##ures": 10374, "Claremont": 26537, "rug": 23458, "rotten": 23076, "Reef": 24302, "defining": 13682, "##lter": 18041, "Skating": 23094, "##\u1ea5": 28642, "Torah": 17407, "Min": 14321, "Operations": 7273, "##iar": 26230, "celebrities": 13073, "tools": 5537, "Lyndon": 25700, "Municipality": 7427, "Herbert": 6717, "eleventh": 14079, "##atch": 25095, "##cher": 6072, "##destine": 27543, "\u01d2": 346, "Haven": 7755, "Petra": 23424, "##AR": 12426, "##beth": 16100, "##zal": 25049, "Mackay": 21741, "##\u1e45": 28635, "\u05d0": 535, "Nuremberg": 21072, "\u00ac": 209, "makers": 12525, "Present": 13653, "Bosnia": 9276, "throughout": 2032, "prime": 5748, "##\u09a6": 28553, "Papa": 14885, "Disco": 22314, "caliber": 17836, "wars": 8755, "Meat": 25224, "repeal": 26228, "respond": 6297, "##uss": 13356, "til": 27216, "Insurance": 11037, "Schwartz": 17834, "Camera": 20615, "puzzles": 22747, "division": 2417, "couples": 5509, "lucky": 6918, "lonely": 12494, "involves": 6808, "Shooting": 19439, "##sie": 9819, "cartoonist": 23095, "Dayton": 15321, "##rench": 18129, "[unused22]": 22, "seventeenth": 18032, "63": 5519, "novelty": 25310, "It": 1135, "privacy": 9909, "boxer": 12156, "misery": 17490, "compose": 18742, "Print": 27833, "##\u056f": 28428, "Lights": 13951, "federal": 2877, "##\u00a2": 28158, "lo": 25338, "promotes": 14710, "##\u677e": 28936, "mouthed": 22546, "isolation": 13345, "fourteen": 7840, "interpreted": 9829, "Colts": 16186, "Swami": 22762, "thousands": 4674, "##\u0433": 28395, "##\u00e6": 28200, "##rose": 10127, "##\u05d4": 28449, "##yra": 20153, "Heath": 10640, "##rash": 16543, "limits": 6263, "Otto": 7639, "##rgen": 16648, "##As": 23390, "angel": 8805, "slate": 15989, "deeper": 6353, "##mee": 21563, "##ital": 19058, "Shin": 14522, "Marines": 10603, "Marcus": 6042, "vest": 21531, "Active": 17244, "bad": 2213, "flavor": 16852, "##cki": 17372, "towns": 4281, "##rina": 9324, "Decree": 27235, "###": 28127, "##citation": 24214, "Season": 5623, "mediated": 22060, "propped": 18141, "muddy": 20670, "implied": 13806, "Advisor": 20567, "Cardinals": 9951, "\u2084": 815, "24": 1572, "woke": 7994, "##aan": 13986, "\u0113": 289, "##roving": 20620, "outside": 1796, "based": 1359, "1823": 12683, "##mpo": 24729, "Hughes": 7638, "Vinnie": 27213, "Barnard": 24669, "##cend": 25981, "Gang": 12469, "balcony": 12025, "##church": 26037, "spacecraft": 12568, "firing": 7142, "poison": 11539, "Conner": 18938, "convict": 24770, "casual": 10243, "skinny": 19244, "manner": 4758, "spare": 8608, "##\u30e9": 28861, "##mered": 18583, "burying": 25317, "Frederick": 4682, "Mad": 10779, "Franks": 23653, "##bah": 25547, "developed": 1872, "API": 20480, "affordable": 19017, "Ali": 4149, "##genesis": 27364, "across": 1506, "methods": 4069, "##tone": 4793, "donated": 6384, "Story": 5145, "consensus": 10923, "##icles": 26407, "paying": 6573, "Wanda": 23008, "##ying": 9257, "##llin": 23824, "Alba": 24005, "Certified": 25777, "Worth": 12554, "##otype": 27172, "##roc\u0142aw": 26524, "significant": 2418, "##master": 6532, "frequency": 5625, "##cho": 8401, "fulfilled": 18210, "Mateo": 21131, "##spense": 21643, "reactors": 25521, "##icted": 27825, "east": 1746, "sour": 17948, "##lak": 28001, "bandwidth": 22965, "left": 1286, "##PD": 15481, "sorting": 26258, "Manual": 9128, "Bedford": 12094, "Darling": 12777, "mountains": 5000, "Rare": 25574, "Ricky": 11173, "werewolves": 22730, "Department": 1951, "Wu": 8769, "##hare": 22705, "##\u0938": 28529, "[unused37]": 37, "gone": 2065, "Antioch": 20755, "Material": 26877, "lair": 27359, "Hoover": 18779, "Christina": 12870, "influx": 19540, "##\u30d0": 28851, "my": 1139, "congressional": 10974, "crimson": 18798, "Brother": 8388, "convection": 27803, "Coca": 19906, "Latter": 20509, "Ponce": 23349, "##\u2014": 28685, "Sol": 17135, "mapping": 13970, "convert": 10454, "immigrants": 7162, "horse": 3241, "Sex": 9850, "roared": 14877, "Azerbaijan": 7955, "##awed": 21449, "voice": 1490, "1855": 8082, "employed": 4071, "##edia": 18246, "dripping": 15224, "shorts": 9330, "divide": 13330, "\u0290": 372, "##vary": 24022, "services": 1826, "##rack": 21580, "Duval": 27281, "##ogen": 19790, "Transformers": 25267, "jobs": 5448, "##nacle": 21946, "Sub": 12859, "imagination": 10405, "tenants": 16086, "Strip": 18534, "##icular": 20899, "swelling": 20085, "radiated": 25822, "comparing": 15089, "Magnum": 27385, "preliminary": 9889, "oversees": 25312, "invasions": 27550, "vanished": 9898, "##vering": 15878, "\u5b50": 1014, "Rae": 16345, "Yours": 25901, "amongst": 5690, "maid": 13487, "Yiddish": 21965, "portal": 10823, "##dong": 17091, "intermittent": 27946, "pattern": 4844, "97": 5311, "wheel": 4829, "raiding": 27166, "ACT": 21111, "##worth": 4189, "Strong": 11661, "##etic": 9265, "missionaries": 12799, "##uf": 16205, "tempted": 17749, "tunic": 25852, "Training": 5513, "Boise": 25941, "Despite": 2711, "fox": 17594, "Venus": 11968, "Primera": 15814, "##ropic": 27098, "##ugen": 26623, "some": 1199, "##cale": 20532, "destinations": 15309, "papers": 4580, "Whatever": 6853, "Dorothy": 9771, "erotic": 16263, "##bbling": 20830, "outlet": 14688, "internal": 4422, "Vice": 4070, "brother": 1711, "sailed": 6930, "arena": 8176, "Money": 8948, "Broadway": 5259, "Leipzig": 11212, "##pathic": 21745, "##fulness": 21047, "campaigned": 17200, "##vre": 9699, "longed": 26127, "clung": 15409, "##ascism": 26492, "bends": 27107, "scarred": 25201, "imprisoned": 8269, "Rica": 11585, "SD": 19416, "##ifer": 25052, "polymer": 21176, "antibodies": 26491, "\u0161": 323, "##\u306e": 28808, "##utz": 27578, "Fisher": 8476, "manipulate": 19109, "generally": 2412, "graphic": 9429, "tubes": 11182, "##aled": 18121, "##mobile": 24052, "Coast": 3331, "magical": 9214, "overrun": 28025, "Sega": 17979, "\u0bc1": 681, "##icit": 22308, "collector": 12116, "##kor": 26989, "forecast": 24647, "##heses": 18769, "Wilkes": 22603, "##\u0f72": 28597, "differing": 18470, "Russian": 1938, "turbine": 16181, "links": 6743, "##res": 4894, "news": 2371, "batsman": 14526, "checked": 6488, "##lterweight": 22901, "##lu": 7535, "fulfilling": 24560, "carnival": 21446, "stunned": 10119, "calcium": 15355, "text": 3087, "RFC": 15274, "\u65b0": 1031, "killings": 18259, "##\u039c": 28325, "neither": 4534, "both": 1241, "Rookie": 14461, "##eli": 21091, "##opus": 17298, "##eking": 25819, "fortification": 26863, "##angay": 23001, "worked": 1589, "specification": 14911, "116": 13096, "fee": 7216, "pipes": 13655, "##quent": 14855, "Sometime": 25205, "exported": 16578, "Matches": 20380, "me": 1143, "##\u0935": 28526, "Qualified": 10862, "lyrics": 4017, "cardboard": 22823, "sinks": 27004, "trademark": 12557, "Waiting": 16602, "overnight": 12292, "Surgery": 17910, "Sessions": 18003, "needing": 12038, "willing": 4988, "##uing": 21490, "Fellowship": 9508, "##rank": 14687, "predominantly": 8941, "BYU": 26319, "competitors": 10388, "cut": 2195, "##acy": 15347, "1885": 5951, "Luck": 22311, "Customs": 17050, "Monk": 13222, "tumor": 14601, "midfielder": 8852, "219": 22588, "##ette": 6347, "frescoes": 26990, "VII": 8748, "##lm": 13505, "##AD": 14569, "##\u00eds": 16928, "##MA": 8271, "##SO": 23161, "##ug": 9610, "Gene": 9066, "##vent": 14850, "pathetic": 18970, "##viour": 27630, "Cup": 1635, "transition": 6468, "\u0421": 464, "69": 5691, "commemorative": 22180, "##\u208e": 28719, "\u304f": 900, "divided": 3233, "##mont": 7578, "Singers": 24047, "\u0935": 623, "##k": 1377, "tricks": 13270, "fake": 8406, "##\u0161": 10222, "ceremony": 4502, "##town": 3305, "Crown": 5373, "selling": 4147, "##took": 24144, "##\u00b1": 28168, "knock": 7466, "Morrow": 23611, "Georgie": 22186, "bacterium": 27136, "placing": 6544, "##ettes": 18289, "Ascension": 28073, "##duction": 11243, "##ssi": 19828, "Shreveport": 26565, "discovered": 2751, "Airborne": 16607, "\u9580": 1081, "barriers": 14317, "hey": 23998, "polished": 13247, "emission": 17744, "##DI": 17243, "##\u2016": 28687, "One": 1448, "Cambodia": 13101, "Into": 14000, "Wide": 15268, "robin": 16763, "UAE": 18925, "\u21cc": 847, "##ch": 1732, "goodness": 18023, "functioned": 22937, "##bol": 15792, "verge": 18691, "Gotta": 26505, "villagers": 12453, "sympathetic": 13493, "catchment": 27011, "foreign": 2880, "operators": 9298, "OS": 11570, "blaze": 26124, "Cubs": 14273, "textiles": 23469, "peacefully": 23954, "trunks": 23752, "##bson": 18824, "##vas": 11509, "tend": 6613, "cc": 14402, "Hitler": 7579, "grocery": 14206, "Escape": 17822, "##dford": 24020, "Incident": 26061, "cents": 18748, "showcased": 24980, "##uate": 20043, "anniversary": 5453, "Secretary": 2909, "dogs": 6363, "Instituto": 25218, "anxiously": 26433, "Pace": 24622, "lose": 3857, "##hound": 16930, "nightclub": 17313, "Tong": 19354, "honors": 8357, "[unused96]": 96, "Isle": 8843, "Drums": 11714, "Joy": 10768, "Revelation": 26374, "##\u1e63": 28638, "Action": 6605, "bend": 12078, "corridor": 7512, "##tal": 6163, "Campbell": 5379, "Anders": 16357, "optimal": 17307, "Chip": 20379, "vendor": 26111, "covert": 25015, "\u211d": 841, "##gar": 5526, "believing": 9313, "dull": 10884, "\u2260": 861, "joked": 21455, "##phi": 27008, "Weapons": 20263, "Latvian": 15332, "froze": 10539, "enjoyment": 22345, "##as": 2225, "attempting": 6713, "Questions": 24994, "Semitic": 24447, "at": 1120, "##them": 25962, "##physical": 18547, "102": 9081, "Dash": 23460, "NFC": 24743, "legacy": 10261, "##\u09be": 28566, "prevent": 3843, "Malik": 15147, "be": 1129, "silently": 8490, "Athletics": 8058, "##voking": 20202, "coached": 8692, "Bridget": 20907, "\u00e9tat": 24948, "pair": 3111, "shareholder": 20769, "Giro": 21332, "Jameson": 24791, "predominant": 23375, "##nous": 23901, "chin": 5144, "dong": 26182, "##nc": 26405, "1909": 4818, "endemic": 6850, "##oned": 23138, "episode": 2004, "deploy": 23660, "robbed": 22330, "slip": 7324, "Offensive": 17354, "discharged": 15207, "EMI": 13435, "nicknamed": 10446, "##\u025b": 28279, "elevations": 20341, "flats": 18181, "attend": 4739, "Darwin": 11555, "awkwardly": 20714, "produces": 6570, "plaza": 19075, "##\u27e8": 28775, "sponsored": 5988, "minimum": 5867, "\u062d": 571, "##former": 23763, "something": 1380, "courage": 9163, "strangers": 15712, "alleging": 26099, "ensures": 23613, "favorites": 25735, "##BL": 13360, "Reuben": 18522, "Laura": 6273, "Montana": 7976, "Picture": 10041, "unmistakable": 27360, "expulsion": 20854, "Banner": 18985, "Sharif": 22645, "Incorporated": 25800, "Gettysburg": 25117, "##ches": 7486, "wings": 4743, "Muslim": 4360, "Climate": 13540, "hi": 20844, "##cian": 13017, "federally": 26129, "destroyed": 3072, "##haling": 16036, "##boy": 9858, "diverted": 19901, "Cups": 21671, "Mechanics": 25858, "sustaining": 26081, "##nology": 16658, "##ac": 7409, "Mercury": 10080, "commended": 27083, "composition": 5239, "births": 20665, "Isaac": 7026, "##riya": 16383, "Neo": 14521, "scaled": 21297, "\u2081": 812, "villa": 15282, "wound": 5785, "Miranda": 9120, "physiological": 23292, "Gold": 3487, "Hi": 8790, "\u05d3": 538, "rose": 3152, "##ife": 24603, "cloud": 7180, "Showtime": 27640, "proliferation": 23766, "##making": 10448, "clarified": 22484, "##\u304d": 28792, "navigation": 11167, "##\u221e": 28749, "cringed": 26881, "Atl\u00e9tico": 18034, "resting": 8137, "qualifications": 18113, "web": 5127, "mice": 14105, "gentle": 6892, "##vana": 25860, "Asylum": 24492, "Silk": 14580, "differently": 11677, "Regarding": 23840, "surveyed": 13186, "Citizen": 15783, "safety": 3429, "arrange": 14211, "vicar": 19228, "285": 24053, "en": 4035, "Atlanta": 5161, "##\u0421": 28382, "Milton": 9398, "##riel": 16753, "handful": 8973, "accelerated": 16112, "490": 24680, "nearer": 23205, "crowned": 10290, "fight": 2147, "##cius": 24869, "Dramatic": 20779, "mood": 6601, "TV": 1794, "persistent": 15970, "planet": 5015, "reserves": 9114, "talents": 12236, "volcano": 15406, "##\u57ce": 28900, "286": 28112, "Colombia": 6855, "Messenger": 22658, "dismantled": 18640, "When": 1332, "Thirteen": 20404, "weighs": 23363, "installation": 8205, "Anglican": 9137, "Andersen": 19761, "rotated": 23050, "marketing": 6213, "fearful": 22984, "boards": 8190, "success": 2244, "##ugs": 22188, "distributing": 23099, "##ordination": 24546, "comet": 27492, "weather": 4250, "Mask": 23938, "homicide": 27029, "halftime": 26077, "Rutgers": 20244, "##pole": 16293, "crust": 21508, "t": 189, "block": 3510, "founding": 4263, "glowing": 10140, "Ko": 19892, "##tated": 20213, "assist": 6043, "seeds": 8365, "##ace": 7954, "discipline": 9360, "##ddle": 13002, "Rocket": 17100, "Emeritus": 18212, "##jord": 17335, "carving": 20505, "\u01d4": 347, "Jang": 27435, "Harriet": 14766, "##\u266d": 27096, "\u0644": 588, "Published": 15807, "presenting": 11124, "silky": 21453, "forth": 5275, "astronaut": 27149, "##lo": 2858, "flat": 3596, "covers": 3662, "1916": 4145, "sake": 8590, "\u300e": 891, "don": 1274, "sculptor": 10324, "Dangerous": 20924, "Margaret": 4811, "##ened": 4772, "allowed": 2148, "##=": 28143, "lectures": 9548, "Liv": 26997, "Burr": 27473, "nice": 3505, "Parker": 5597, "pill": 21822, "##quisite": 26089, "##\u65b0": 28924, "##\u30b0": 28834, "citing": 9036, "252": 25479, "##\u00f6": 19593, "cursed": 11118, "thud": 23456, "Sun": 3477, "Sons": 9946, "novel": 2281, "scouts": 21417, "\u010d": 285, "##\u0430": 10286, "258": 27434, "##due": 21405, "Tour": 3124, "Goddard": 25064, "Marissa": 25367, "##nast": 27897, "buses": 8049, "disorder": 8936, "fifty": 5547, "resist": 9345, "Either": 11940, "Clinical": 15961, "Every": 4081, "Fleming": 14217, "beginnings": 19304, "##hole": 11245, "organizer": 22007, "[unused57]": 57, "applying": 11892, "Pleasure": 23786, "\u201e": 791, "policy": 2818, "Must": 14303, "footage": 8145, "intentional": 24629, "Lia": 25760, "##ooby": 27404, "##ets": 6248, "decides": 6771, "USL": 24927, "promote": 4609, "precursor": 15985, "Holly": 9030, "Rebellion": 16066, "alleviate": 27295, "populations": 6623, "told": 1500, "nitrogen": 15385, "amount": 2971, "Sunrise": 23900, "\u30d7": 962, "##dad": 14810, "Norway": 4323, "humorous": 15705, "humidity": 20641, "straightforward": 21546, "##gren": 13421, "##bos": 18071, "##sma": 24557, "##hards": 25099, "Angie": 15612, "zipper": 26074, "Chevalier": 26353, "##\u05d1": 28446, "photograph": 10110, "stallion": 24434, "##thus": 23556, "Pine": 11465, "commerce": 10678, "##up": 4455, "Armoured": 20568, "cancellation": 18360, "Morales": 18528, "##\u0574": 28429, "chaos": 10676, "##hibit": 23034, "Epic": 17375, "wears": 12063, "smells": 16533, "Renee": 24463, "Strike": 15425, "gray": 5021, "##oil": 20708, "Strasbourg": 19467, "113": 12206, "fellowship": 16901, "Damien": 12757, "##kick": 27982, "geologist": 25166, "coordinate": 14137, "spat": 15732, "interchange": 9629, "121": 12794, "Writer": 12515, "Pope": 4409, "##biotics": 25523, "landmark": 10755, "intelligent": 9998, "Wood": 5296, "Role": 17094, "feathers": 13311, "Green": 2565, "Abbey": 6674, "frequent": 6539, "presidency": 11223, "##AT": 13821, "##tera": 17528, "##aster": 20517, "Circuit": 7887, "hourly": 24308, "##eus": 12963, "Biennale": 23754, "##31": 22639, "1948": 3027, "wildly": 13999, "##rading": 23857, "Duncan": 6809, "button": 6324, "Mexican": 4112, "Forest": 4089, "themselves": 2310, "available": 1907, "##ilize": 21225, "founder": 3249, "Merry": 15871, "wage": 12634, "borough": 7833, "Granny": 23957, "grossed": 18758, "external": 6298, "indicates": 6653, "##urai": 17319, "Founding": 27880, "among": 1621, "controllers": 25747, "media": 2394, "UFC": 12047, "ancestral": 17040, "Salvatore": 18746, "##wave": 17159, "scanned": 11812, "clear": 2330, "recruited": 8443, "die": 2939, "Penny": 13651, "dislike": 20662, "##ruly": 23377, "parachute": 22021, "Celeste": 24966, "Virginia": 2550, "favourite": 9122, "harvesting": 25039, "Marathon": 12719, "##-": 28137, "##dered": 26788, "insurance": 5986, "stranger": 9280, "permitting": 28049, "robot": 10975, "eager": 9582, "Christy": 23788, "ostensibly": 28029, "gram": 25968, "Triumph": 23568, "UV": 26331, "##ille": 8683, "##ists": 3681, "star": 2851, "\u4e8c": 982, "privately": 9045, "pretending": 12714, "disasters": 21887, "courtyard": 10629, "pasture": 24495, "Lucien": 11809, "##iba": 26648, "\u1f76": 773, "##ser": 6906, "doesn": 2144, "note": 3805, "number": 1295, "sacrifice": 9050, "Di": 12120, "##\uff0d": 28993, "Khmer": 21259, "entertaining": 15021, "##valent": 24709, "Heat": 9653, "1953": 3185, "wines": 16728, "Gonz\u00e1lez": 13375, "exploitation": 15880, "##sca": 26996, "match": 1801, "##dates": 20388, "##ggs": 15493, "Steelers": 16060, "landfall": 23729, "contacted": 12017, "cattle": 6937, "##weed": 14315, "lesser": 9774, "##\u0915": 28510, "fishermen": 18993, "##ari": 7710, "\u0268": 361, "\u043d": 488, "Radical": 20411, "Claudia": 14035, "##zed": 5305, "Day": 2295, "fragment": 17906, "Roberto": 10599, "warm": 3258, "Private": 7219, "garment": 22424, "burden": 11904, "Soldier": 14595, "contacts": 10492, "##ict": 17882, "##imes": 15370, "director": 1900, "##rit": 7729, "##mba": 10806, "Hands": 13719, "Also": 2907, "Wills": 23480, "Francisco": 2948, "dizzy": 21441, "##\u03b6": 28343, "fantastic": 14820, "tactics": 10524, "progressed": 12687, "Palmer": 8450, "##\u064a": 16070, "Subway": 21925, "WA": 22751, "\u0993": 640, "For": 1370, "\u4e8b": 981, "##arel": 24971, "Amnesty": 25072, "olds": 25343, "dense": 9613, "sacks": 17177, "Tours": 20529, "##hetto": 17643, "Christophe": 26921, "patents": 15674, "##bull": 17719, "Town": 2779, "##rer": 14906, "##stered": 25924, "cushion": 26701, "fruits": 11669, "let": 1519, "bombing": 8602, "connectivity": 24466, "inland": 11054, "sheet": 6837, "double": 2702, "weight": 2841, "rides": 13863, "Wet": 27855, "Appeal": 13969, "AN": 23096, "##\u03c9": 28360, "##aud": 16631, "##ven": 7912, "raise": 4693, "uncle": 4906, "labor": 5530, "bias": 15069, "Malaya": 21839, "##\u0f7a": 28599, "credibility": 24315, "##tom": 18778, "participate": 4868, "chanting": 25526, "Letter": 14549, "##ram": 4515, "unfortunately": 16679, "Roma": 13120, "Deputies": 21588, "Dad": 4708, "warehouse": 11130, "Copenhagen": 9409, "MG": 22459, "Will": 3100, "dictionary": 17085, "##roner": 21947, "##uo": 11848, "Zurich": 16142, "Appointed": 23598, "refusal": 14686, "Trophy": 5891, "humiliation": 24093, "Sandy": 9908, "Gloucester": 13695, "duty": 4019, "Elle": 17915, "##\u30c7": 28845, "Julio": 16786, "botanical": 20764, "beasts": 18914, "situation": 2820, "Pont": 24070, "Pakistan": 3658, "contaminated": 21636, "manual": 9506, "charts": 5896, "##eld": 22654, "differentiated": 27840, "##\u03b2": 28339, "##\u2093": 28723, "Broken": 12703, "discussion": 6145, "##\u03ce": 28363, "Fed": 26356, "##i\u00f3n": 11376, "\u041d": 460, "Interstate": 8314, "##rises": 18565, "scenes": 4429, "intercourse": 26864, "receiver": 8352, "helpful": 14739, "##rote": 21020, "Knoxville": 21837, "pump": 11188, "135": 11498, "Grades": 26439, "hybrid": 9890, "truth": 3062, "Kathleen": 15182, "damage": 3290, "\u3086": 924, "vows": 18095, "partly": 6146, "[unused84]": 84, "groove": 22482, "Goodwin": 21693, "Sykes": 26382, "Pound": 28033, "Per": 14286, "##\u3093": 28823, "hurts": 15483, "minimize": 20220, "Belgian": 6399, "##cure": 22712, "Estadio": 19116, "Vernon": 11459, "dorsal": 13243, "##\u0986": 28540, "\u01a1": 342, "arrondissement": 26592, "##boo": 24385, "optimization": 25161, "Viola": 18007, "##tives": 27230, "\u017d": 338, "females": 3032, "##47": 24766, "\u2295": 867, "contender": 23759, "rushed": 6169, "Rebecca": 9135, "statewide": 15086, "Background": 24570, "##than": 22252, "Drake": 7431, "Screenplay": 21257, "Moscow": 4116, "\u00e3": 249, "grossing": 19842, "lake": 3521, "Gmina": 7002, "previously": 2331, "rat": 11631, "puppy": 21566, "Records": 2151, "##ced": 9650, "Off": 8060, "##ahl": 24166, "command": 2663, "lengthy": 12628, "\uff09": 1098, "1753": 26659, "##pressive": 16568, "freshly": 22866, "ve": 1396, "valve": 11727, "##ogenic": 17960, "pistol": 8951, "wired": 26473, "##unity": 22534, "belongs": 7017, "intersection": 6326, "fourteenth": 20872, "Pi": 21902, "Cotton": 12871, "statement": 4195, "created": 1687, "dynasty": 6107, "Maxim": 25217, "Bang": 12926, "land": 1657, "und": 5576, "speakers": 7417, "##cter": 25857, "Coach": 6522, "Stephan": 17120, "1500": 10204, "Beyond": 8270, "premises": 10330, "##\u00b6": 28171, "incorporates": 12560, "existence": 3796, "anatomy": 19768, "##nat": 24226, "objectives": 11350, "##rout": 20885, "##shed": 10680, "functionality": 16354, "##nda": 7807, "reflections": 26906, "##ok": 5926, "filling": 7843, "Change": 9091, "hay": 20433, "Dragons": 12230, "prosperity": 16286, "BT": 27378, "longtime": 11448, "apply": 6058, "shipping": 8629, "agent": 3677, "indirect": 16673, "Rosa": 9449, "terrestrial": 13669, "Mai": 17551, "##\u093e": 28531, "Oval": 16103, "disappeared": 4712, "Walls": 22211, "180": 7967, "asset": 13274, "BS": 21948, "petitioned": 25042, "Mir": 20522, "##regation": 22998, "Augsburg": 27398, "nail": 16255, "spherical": 21279, "Marley": 22197, "farmland": 17790, "##dez": 15125, "presided": 16448, "USSR": 10183, "1969": 2540, "rushing": 8248, "resulted": 3657, "difficulty": 7262, "##pan": 10224, "decorative": 12300, "Square": 4656, "sentenced": 6874, "Pro": 5096, "linebacker": 17625, "##les": 2897, "weekdays": 22701, "224": 21448, "fix": 8239, "chef": 13628, "##chenko": 18599, "Cha": 24705, "blood": 1892, "##oted": 21493, "\u1ec7": 749, "symptoms": 8006, "knights": 15480, "Franciscan": 21183, "aunt": 8524, "athletes": 7653, "houses": 2725, "visual": 5173, "explore": 8664, "##das": 9028, "Towards": 16220, "elevation": 6252, "1758": 17922, "honored": 8817, "engagements": 23048, "restore": 9176, "curse": 9188, "Gateway": 20393, "nephew": 7502, "clown": 25778, "erected": 6517, "Notre": 10360, "Lines": 12058, "figuring": 27862, "Clarke": 7949, "##over": 5909, "Inverness": 25558, "arts": 3959, "controversy": 6392, "Clube": 28070, "##ign": 11368, "subsidiary": 7049, "Health": 3225, "Days": 6637, "viewer": 15403, "##sby": 13341, "uneven": 19616, "realization": 13192, "standard": 2530, "artists": 2719, "\u00be": 224, "Vincent": 5665, "preserve": 8333, "remarked": 10694, "Hart": 7103, "\u00eb": 257, "Can": 2825, "\u03be": 431, "cognitive": 12176, "##dox": 15942, "##ete": 16618, "Gates": 12702, "dryly": 22874, "A1": 18967, "flows": 5611, "intends": 20299, "lecturer": 10635, "##heus": 25212, "##otte": 25722, "##\u063a": 28491, "altogether": 11257, "##dives": 27943, "Bartlett": 21912, "Opening": 13902, "Crescent": 17919, "##iracy": 19128, "Dynasty": 9609, "Road": 1914, "##taking": 17181, "##zie": 15039, "Craig": 6422, "compassion": 18027, "graders": 26186, "Robin": 5981, "wrestler": 11113, "Madras": 13302, "##ulates": 20267, "Lt": 8403, "commanded": 5724, "##E": 2036, "##illa": 5878, "base": 2259, "vertically": 22026, "Organisation": 14213, "##li": 2646, "Leopold": 13642, "certainty": 17140, "##hm": 18208, "##iah": 15963, "##ahu": 23222, "seductive": 26393, "Lara": 14179, "therefore": 3335, "derive": 20292, "usage": 7991, "whisper": 6996, "Sophia": 9432, "recurring": 10993, "##pse": 17783, "fills": 18878, "vessels": 5956, "Keep": 7947, "Stakes": 8666, "##ergic": 26949, "##wind": 11129, "lots": 7424, "Wellington": 8017, "colony": 6417, "Glass": 9357, "[unused97]": 97, "Copa": 10576, "go": 1301, "SUV": 16536, "Year": 2381, "\u5149": 990, "Neck": 27369, "Nightmare": 26247, "induce": 21497, "districts": 4210, "Unionist": 24406, "narration": 25008, "Commando": 20621, "##classical": 23974, "uploaded": 23661, "##mulating": 24297, "signaled": 24771, "taking": 1781, "##ray": 6447, "##wain": 13644, "Julie": 7129, "\u092f": 620, "Centers": 22347, "\u1ee7": 760, "Solomon": 8848, "##\u306a": 28806, "Baton": 22178, "##leashed": 24906, "leapt": 14462, "Harald": 23037, "Millennium": 14898, "deals": 8927, "Chain": 19589, "Transfer": 23489, "SR": 5833, "immediate": 5670, "mill": 6159, "Newcastle": 7685, "tale": 8144, "printer": 17588, "shaky": 16591, "[": 164, "Cummings": 22982, "designed": 2011, "album": 1312, "Raiders": 12317, "Militia": 18549, "clergyman": 25215, "posture": 18229, "ridiculous": 9944, "trophies": 26530, "chatting": 25132, "regular": 2366, "Ban": 18393, "Italy": 2413, "##hus": 8827, "swamps": 26216, "##eral": 21716, "Golden": 3684, "##time": 4974, "Espa\u00f1a": 23453, "shirt": 2969, "particular": 2440, "\u2116": 840, "##dd": 13976, "Lizzie": 16817, "furiously": 22406, "Who": 2627, "vines": 20047, "Laurent": 15356, "appreciated": 12503, "197": 21764, "savings": 14095, "eats": 24347, "##ivate": 18851, "bells": 12552, "177": 19478, "resisting": 26337, "wasn": 1445, "effectiveness": 12949, "##nies": 16133, "legend": 7051, "##io": 2660, "retreat": 7826, "kW": 5897, "faithful": 12969, "\u03b9": 426, "Pedro": 7233, "##stan": 13946, "Neal": 11003, "##lasia": 22992, "supplying": 19229, "Room": 7043, "dumped": 14632, "dorm": 22181, "massacre": 11584, "Commissioner": 6520, "Bianca": 19772, "IUCN": 22193, "##ims": 25936, "##\u2092": 28722, "Editorial": 23640, "others": 1639, "##mm": 6262, "umbrella": 14793, "oblivious": 20667, "Allied": 7194, "Hayes": 10011, "Nowadays": 25883, "##\u0272": 28284, "##\u30ea": 28862, "Amiga": 27424, "\u09c1": 666, "Pond": 15311, "Amazing": 16035, "##rse": 15955, "online": 3294, "\u1d35": 707, "Rugby": 5457, "Man": 2268, "performers": 9821, "Archaeology": 20193, "conquest": 10627, "##ter": 2083, "researchers": 6962, "absent": 10040, "authorised": 21812, "\u0416": 454, "Ministry": 3424, "pillows": 19607, "aloud": 13934, "forced": 2257, "##ensis": 11085, "religious": 2689, "##ot": 3329, "Summers": 22596, "57": 4667, "##stics": 19251, "owes": 27701, "convinces": 21227, "prescription": 24259, "##nated": 25206, "surfing": 25502, "documenting": 26678, "vulnerable": 8018, "Three": 2677, "Maryland": 4624, "current": 1954, "##ential": 15544, "Materials": 19591, "punches": 19739, "horizon": 11385, "##nal": 7050, "\u306b": 914, "370": 17455, "##\u1f70": 28674, "##ius": 3285, "Adventures": 10174, "##tee": 26032, "\u0111": 288, "##leen": 21180, "Electrical": 13779, "majority": 2656, "wore": 4307, "rented": 12765, "##cor": 19248, "##uy": 20257, "##isted": 20330, "bump": 20700, "Ethel": 20995, "##eo": 8209, "tackles": 10379, "corner": 2655, "rack": 16365, "Marlborough": 25398, "Rocky": 9376, "missile": 8233, "##roots": 25142, "##sche": 15460, "Gustav": 13829, "Imagine": 22449, "Griffin": 9212, "##fight": 22805, "Value": 24076, "succession": 8705, "majors": 19796, "Ari": 10789, "##\u0435": 19692, "lane": 7576, "Texans": 25904, "1922": 3988, "Rocks": 17198, "##\u2077": 28707, "implements": 24935, "Stream": 22627, "Berry": 11320, "darker": 9934, "mutant": 21392, "04": 5129, "call": 1840, "\\": 165, "fibre": 26226, "##\u1ea3": 28641, "##\u5b50": 28907, "distract": 16989, "minority": 7309, "1889": 5825, "identifies": 15625, "##kker": 27587, "##izes": 9534, "adults": 6323, "allowance": 25916, "##user": 19399, "\u063a": 584, "endless": 12401, "##\u30ca": 28848, "compositions": 9116, "shooting": 4598, "Le\u00f3n": 14020, "Danielle": 20017, "Over": 3278, "1881": 6411, "Tunisia": 13772, "speaks": 8917, "naturalist": 23439, "##OS": 9025, "arguments": 9989, "Congressman": 15444, "normally": 5156, "ecological": 14769, "propulsion": 21184, "##fully": 5834, "##\u043e\u0432": 24625, "\u042f": 474, "##na": 1605, "Kim": 4246, "##vi": 5086, "##gel": 8863, "##rome": 11457, "clean": 4044, "##pathy": 12233, "butter": 13742, "Horror": 16709, "Susie": 26796, "##bag": 17097, "youths": 23149, "##\u2013": 28684, "Que": 27328, "poses": 25366, "Popular": 10106, "##jun": 17936, "##ln": 21615, "##\u1ff6": 28680, "##elier": 26041, "Talent": 17077, "##nte": 11656, "mounts": 22136, "wagons": 15643, "payment": 7727, "mustered": 25078, "swirled": 20883, "1799": 14287, "coins": 7674, "Angels": 8728, "comforting": 17526, "CBS": 5957, "Cho": 22964, "urged": 9497, "##nius": 19206, "Tudor": 16528, "annually": 6089, "acceleration": 18383, "lawsuit": 9680, "Ware": 22846, "Parkinson": 22195, "thoughtful": 17873, "TNT": 27196, "scanning": 15049, "properly": 7513, "##24": 19598, "\u028c": 371, "checks": 15008, "titles": 3727, "##cracy": 22814, "grid": 8866, "##ach": 7291, "##tist": 12948, "##ador": 21784, "J": 147, "muscular": 14310, "establishes": 23497, "##rative": 15306, "organize": 11021, "##turn": 23238, "##\u0626": 28474, "Nelson": 5232, "satirical": 18703, "Universidad": 17572, "Meanwhile": 5459, "##tation": 7984, "corrupt": 14644, "wagon": 10625, "accomplished": 8587, "blinking": 18617, "##makers": 11877, "continent": 10995, "Type": 6902, "victim": 6410, "\u1eeb": 762, "\u10da": 701, "Babe": 20210, "Kind": 15994, "Rana": 25503, "Alison": 12884, "suppressed": 14336, "guarantee": 11865, "expand": 7380, "Support": 8704, "smoked": 23235, "Mars": 7403, "tragedy": 12343, "##blivion": 26962, "amused": 12003, "limited": 2609, "1866": 7146, "Hawaii": 6826, "debate": 5655, "molecules": 10799, "##qi": 17276, "avant": 18595, "Dong": 16675, "[unused66]": 66, "drinking": 5464, "bees": 18568, "1992": 1924, "genius": 13533, "Melanie": 13973, "##rdon": 22528, "Desert": 9054, "pictures": 5324, "Browne": 15711, "allied": 11221, "\u067e": 598, "gain": 4361, "fears": 10434, "diet": 10211, "boarding": 9678, "declaring": 14442, "##esan": 27376, "horsepower": 16243, "Jurassic": 21834, "##yard": 8624, "Honey": 12632, "##ss": 3954, "Plateau": 17069, "Zen": 18933, "##\u2228": 28751, "##runched": 26640, "Abu": 8158, "AFB": 18017, "stronger": 5992, "subjective": 23481, "##bari": 25964, "##gned": 26884, "weddings": 24536, "Index": 10146, "Giovanni": 8789, "##i\u0107": 7733, "Ten": 5157, "SC": 9314, "insisting": 25504, "##\u0627\u062f": 25717, "soluble": 28043, "titled": 3334, "engaging": 12368, "[unused85]": 85, "Sebastian": 6220, "MAC": 25424, "relaxed": 8000, "##me": 3263, "##schen": 24169, "##ution": 12964, "Elias": 16325, "Rifles": 19275, "enthusiasm": 12430, "podium": 15464, "##mani": 21132, "Havilland": 26952, "##rue": 26930, "coma": 19737, "catching": 9256, "raid": 8818, "forensic": 21330, "typed": 23477, "customary": 17473, "##ddler": 25372, "locally": 6889, "luggage": 20307, "##lump": 15363, "caucus": 27690, "razor": 20015, "exhausted": 8984, "cooler": 16314, "##hsil": 21938, "\u0625": 563, "Magnus": 10138, "clutching": 15571, "mosaic": 22069, "##CL": 26351, "thing": 1645, "##\u0106": 28214, "Misty": 19323, "##ought": 26960, "Heroes": 11312, "\u2113": 839, "compromised": 22485, "Twenty20": 24785, "##ries": 3377, "Depression": 11442, "wheels": 8089, "##like": 10318, "##inator": 24682, "welcome": 7236, "##\u53e3": 28890, "forwards": 22453, "cast": 2641, "##gua": 13855, "Murdoch": 21736, "copper": 7335, "reaction": 3943, "fortunes": 20733, "Rural": 4985, "##51": 24050, "forcing": 6524, "ah": 18257, "deny": 9762, "bandage": 27856, "Ta": 22515, "chronicle": 26539, "reel": 24548, "lemon": 22782, "Emmy": 9933, "##stock": 22248, "\u300a": 887, "Ridge": 7082, "herself": 1941, "outs": 24046, "medication": 15683, "heats": 21247, "tickets": 10068, "##poradic": 27695, "tenor": 9969, "tons": 5606, "Hung": 26157, "Stand": 11232, "\u30c3": 950, "##yrian": 21149, "framework": 8297, "phones": 11947, "completed": 2063, "crab": 24121, "##data": 27922, "##ings": 5018, "##per": 3365, "speculation": 12828, "average": 1903, "pilot": 3955, "Aziz": 23623, "seats": 3474, "Vienna": 5337, "delivery": 6779, "Shen": 26197, "\u767d": 1058, "##brian": 23187, "Leading": 16425, "leader": 2301, "Instead": 3743, "deputy": 5874, "##uch": 9827, "o": 184, "Districts": 18803, "Baghdad": 14465, "Suicide": 25067, "##\u09af": 28559, "##bey": 18503, "commissioning": 26239, "\u0575": 520, "Cars": 16644, "Dental": 24487, "Koreans": 27757, "\u0413": 451, "##\u00ae": 28167, "Shortly": 6480, "follower": 25879, "realm": 9695, "Tennessee": 4513, "Bournemouth": 25468, "Daemon": 13698, "Ellison": 23736, "retired": 2623, "poetry": 4678, "convoy": 10643, "\u02bc": 381, "gallery": 7183, "##trusion": 22097, "Scout": 9240, "Honours": 14670, "Eve": 6721, "illegitimate": 19710, "##lar": 5815, "ka": 24181, "diamond": 9883, "##\u05b4": 28438, "readiness": 25922, "eagle": 13387, "widely": 3409, "Military": 4012, "supportive": 17847, "##\u099b": 28548, "skipped": 18002, "HM": 25259, "##\u0153": 28241, "Botanical": 24136, "surprised": 3753, "Includes": 25051, "##\u0650": 28499, "delivering": 13232, "##oir": 24554, "pivotal": 22927, "establishing": 7046, "Col": 9518, "1756": 24816, "routines": 27393, "##H": 3048, "##\u2011": 28682, "suffering": 5601, "commitment": 8268, "##if": 8914, "##aus": 25134, "electricity": 6495, "2019": 10351, "autobiography": 12134, "##plating": 26938, "dictated": 26754, "crack": 8672, "entry": 3990, "suffrage": 18817, "Reviews": 20321, "Libby": 21337, "Odisha": 24314, "Yusuf": 26798, "Babylon": 19014, "fallen": 4984, "fines": 25488, "\u0431": 476, "granted": 3609, "Helsinki": 12471, "##ygiene": 21431, "read": 2373, "Producer": 8033, "##NE": 22680, "pretended": 15401, "Anyone": 15859, "poverty": 5224, "N": 151, "label": 3107, "Baroness": 25358, "##ky": 3781, "##litz": 15516, "threshold": 11810, "civil": 2987, "##\u90e1": 28969, "Retired": 14454, "provoked": 21094, "machines": 6555, "Dietrich": 25110, "coupling": 22728, "def": 19353, "Ion": 19447, "bathing": 19971, "betrayal": 16793, "##rs": 1733, "forms": 2769, "loves": 7871, "Myanmar": 12820, "holding": 2355, "##gawa": 14612, "Khalid": 24257, "Ballad": 27309, "##&": 28130, "Alonso": 18918, "Tropical": 13536, "Lesley": 26801, "##enia": 23179, "avail": 28057, "##leg": 27412, "Belinda": 27700, "Musicians": 24108, "barren": 25065, "completing": 7332, "Mindanao": 26576, "Benson": 12093, "##ulse": 20996, "light": 1609, "Letters": 10557, "##yle": 12415, "competitor": 13047, "##stown": 13594, "parcel": 24126, "##fold": 10787, "Cyprus": 9460, "expired": 14224, "Revolution": 4543, "Campeonato": 18958, "lust": 13051, "projecting": 20266, "Drama": 8020, "logical": 11730, "remixes": 20168, "bruised": 20617, "sculpted": 22079, "Low": 8274, "##\u01b0": 28265, "##\u00e3": 28199, "##ntin": 26728, "garments": 24938, "origin": 4247, "##rup": 20910, "##hin": 8265, "eyeing": 21593, "ahead": 3075, "330": 14747, "follows": 3226, "RA": 26547, "Prof": 11644, "surge": 12814, "poisoning": 17539, "lumber": 17306, "reflected": 7226, "get": 1243, "have": 1138, "Law": 2601, "##86": 22392, "Randolph": 13290, "##lying": 15318, "residents": 3159, "mask": 7739, "##cope": 16260, "\u4eba": 985, "speeds": 10979, "##\u05d7": 28452, "gift": 5309, "Syed": 21626, "Maggie": 8153, "##izing": 4404, "Oct": 14125, "preferences": 20935, "Manchester": 4280, "lease": 10549, "Studies": 3829, "classroom": 10229, "routed": 21443, "installing": 27432, "##BE": 27211, "steadily": 11383, "Baird": 22903, "snakes": 14986, "Whether": 13197, "anthropology": 20233, "Protection": 8063, "##nia": 5813, "admired": 13092, "infamous": 15881, "\u00d1": 237, "hemisphere": 24114, "Mayor": 4643, "##ats": 9971, "Years": 5848, "frightening": 18523, "Laughing": 26556, "2nd": 2518, "cow": 13991, "Handbook": 18267, "prove": 5424, "##MU": 21219, "Chesapeake": 22907, "automated": 14717, "rewards": 22278, "##lder": 16184, "relaxation": 27475, "Reconnaissance": 18371, "##ilon": 27599, "[PAD]": 0, "Upon": 4352, "##lica": 9538, "MIT": 13219, "\u9fb8": 1088, "66": 5046, "dice": 26104, "patented": 17994, "celebrated": 5719, "officials": 3878, "Soto": 27395, "commodity": 23883, "vintage": 17787, "##ckey": 19254, "orchestral": 15682, "Moody": 17820, "##miya": 25553, "Patti": 25598, "##GR": 27617, "737": 24413, "##leader": 20547, "Pierce": 9636, "sugar": 6656, "Convent": 24376, "Ankara": 22206, "\u1f41": 770, "##skaya": 23888, "graceful": 21620, "Davey": 22618, "Speech": 19656, "inscribed": 15505, "Georges": 10792, "pollution": 11738, "Saharan": 27902, "##\u028a": 28290, "plastic": 5828, "realized": 2788, "engaged": 4349, "Middlesex": 14040, "spa": 22620, "matches": 2697, "##\u03bd": 23907, "mysterious": 8198, "##reak": 22362, "About": 3517, "\u09b6": 659, "##ards": 13584, "##hem": 15391, "clade": 24904, "programming": 4159, "##\u0410": 28366, "##\u2074": 28704, "##av": 23140, "Woodland": 26730, "After": 1258, "Centro": 19927, "##ass": 11192, "Due": 4187, "##uria": 19700, "MA": 9960, "Aberdeen": 12184, "Fleet": 6711, "illustrate": 20873, "preference": 12629, "Irene": 13524, "comparison": 7577, "Quality": 14801, "cups": 13624, "Eyes": 8855, "Samoa": 15850, "celestial": 25432, "Moe": 27506, "firmly": 7487, "Product": 22249, "##lante": 26093, "variant": 8120, "Columbia": 3132, "deserved": 10796, "regarded": 4485, "Museo": 21674, "##\u0995": 28544, "bowler": 17124, "167": 17866, "anybody": 11183, "\u0bbf": 680, "Delaney": 24626, "publication": 4128, "answered": 3845, "comply": 14616, "gasoline": 15117, "##nders": 24373, "Holloway": 23060, "jumping": 8987, "1650": 24182, "Singles": 6950, "deprived": 19576, "Suddenly": 7935, "opponents": 7741, "##quire": 15174, "##\u0173": 28254, "Beat": 11938, "enable": 9396, "##\u00eb": 13420, "thence": 26972, "Tirana": 27759, "System": 3910, "builders": 21903, "Finally": 4428, "murals": 21589, "MCC": 26692, "southeast": 5038, "Blackpool": 18664, "Google": 7986, "##ura": 4084, "Couldn": 23320, "probation": 23793, "grave": 6569, "##\u2080": 18554, "##ules": 11806, "branching": 27021, "##chang": 26236, "lift": 6012, "\u05b5": 529, "##cars": 18633, "Becky": 15009, "Elliott": 9657, "##ruba": 24325, "Cecilia": 20391, "[MASK]": 103, "##\u00c2": 28181, "##kar": 6610, "\u017c": 337, "aids": 23078, "##\u2022": 28696, "Clear": 15458, "Luke": 4599, "ranging": 7032, "Environmental": 8019, "##zan": 14883, "Engineer": 8252, "58": 4650, "Edmund": 9196, "cannons": 20090, "arrows": 15130, "download": 9133, "white": 1653, "exclusive": 7114, "faint": 7859, "net": 5795, "Forever": 11694, "Alfa": 27099, "Angola": 13833, "mute": 26782, "watch": 2824, "curving": 24016, "forty": 5808, "##zee": 26328, "Nations": 3854, "Crow": 15252, "\u30e9": 968, "##ximal": 23984, "tiny": 4296, "Parks": 10112, "##berto": 26831, "Groups": 18744, "confidence": 6595, "battalion": 7295, "chords": 22098, "##c": 1665, "Ferris": 26428, "Fashion": 13215, "mobility": 16178, "##iac": 12571, "entirety": 16635, "accordingly": 17472, "fond": 15263, "coil": 20614, "Bolivia": 11686, "device": 4442, "Midland": 12467, "Ein": 23922, "honestly": 12051, "supplied": 7694, "##viator": 26680, "outcomes": 13950, "##mada": 24817, "illegally": 19241, "\u592b": 1012, "consideration": 9486, "sliced": 17053, "##ret": 8127, "monster": 7121, "Bogot\u00e1": 27976, "##\u0117": 28220, "1932": 3833, "handing": 13712, "obtained": 3836, "Masters": 6935, "flu": 23896, "##lax": 22731, "sculpture": 7115, "##aki": 8552, "##dbury": 26837, "##rient": 27286, "Does": 7187, "gun": 2560, "conscience": 15323, "Donnell": 19412, "##coa": 20535, "Gore": 16455, "field": 1768, "Dark": 4753, "##cologist": 27427, "chance": 2640, "bassist": 10042, "##bro": 12725, "essentially": 7588, "##ark": 23822, "sticking": 14103, "##\u0f58": 28593, "##rift": 17761, "##ade": 6397, "unwilling": 17026, "Steps": 27913, "##hropic": 27544, "##edly": 17797, "indicator": 19738, "##nife": 23373, "Christensen": 27162, "servers": 16096, "Katrina": 17986, "period": 1669, "##rena": 23503, "pseudo": 23563, "Asia": 3165, "nostrils": 16212, "##rana": 26231, "Macmillan": 19830, "tutor": 17463, "##born": 7107, "Congressional": 12537, "\u0561": 515, "##bby": 13575, "promotion": 4166, "pinch": 21466, "Sang": 22409, "mills": 11467, "south": 1588, "extended": 2925, "##nik": 7923, "##lous": 12769, "admire": 21937, "contests": 17457, "partisan": 17696, "\u00e8": 254, "pottery": 12993, "##gaard": 19572, "1893": 5843, "##idated": 27893, "structural": 8649, "##yl": 7777, "democratic": 9327, "originally": 2034, "keyboards": 6184, "glared": 9090, "##rug": 27744, "##tisfaction": 25734, "##ographer": 23528, "behaviour": 9151, "\u00e6": 252, "earning": 6957, "##truder": 24993, "Tiger": 8134, "Metro": 6431, "supernatural": 12361, "Haitian": 23595, "warlord": 26676, "tents": 19544, "##uses": 14225, "gardens": 7709, "##tic": 2941, "demolished": 6515, "steamer": 20472, "Could": 7426, "Lebanon": 7940, "##laming": 20006, "became": 1245, "MS": 10978, "\u05df": 549, "Alexander": 2792, "suggested": 3228, "recipients": 18509, "##\u00fal": 26994, "##rin": 4854, "##ndra": 17394, "composite": 14752, "##lume": 26241, "\u014b": 310, "NSW": 11557, "Telecommunications": 23356, "mole": 26365, "wandered": 13668, "marketed": 11777, "Lausanne": 24688, "involving": 5336, "##bage": 22070, "industrialist": 24916, "stares": 14614, "##oids": 18093, "tires": 14337, "Managing": 16522, "prejudice": 22648, "lineup": 10545, "stationed": 8651, "facilitated": 21582, "staffed": 23511, "dispute": 7287, "1804": 13419, "##rone": 18516, "##\u014d": 4587, "packs": 16777, "Boer": 21929, "##32": 17101, "NWA": 16707, "conditioning": 15851, "wet": 4375, "neighborhood": 4532, "da": 5358, "##te": 1566, "File": 25647, "##osh": 14695, "magician": 22334, "##utt": 25131, "##lines": 10443, "\u060c": 559, "Fortune": 14555, "migrant": 25496, "price": 3945, "decks": 22444, "Step": 14232, "unpublished": 22255, "Reds": 13694, "Springfield": 10363, "Nokia": 24547, "active": 2327, "##\u00b2": 10731, "##mor": 26271, "Kolkata": 13895, "deposited": 14735, "sand": 5387, "unlimited": 22921, "10th": 5368, "reported": 2103, "Editor": 9057, "seven": 1978, "##nin": 10430, "Thirty": 10868, "Chrysler": 18991, "##ste": 13894, "transitional": 23512, "##roved": 16011, "Bengal": 7756, "accounted": 15365, "Nero": 21722, "slipping": 12186, "attacking": 7492, "intensified": 16744, "dove": 15811, "Alpine": 16515, "belongings": 21924, "uk": 26006, "overwhelming": 10827, "Rhine": 10920, "1748": 27488, "landscapes": 14026, "theories": 7997, "North": 1456, "feeling": 2296, "violence": 4289, "alley": 10959, "1793": 12536, "Phyllis": 22244, "wind": 3223, "Reach": 26836, "Packers": 16458, "Kerry": 11253, "had": 1125, "Wise": 16089, "Heads": 20260, "Mining": 15280, "##IN": 11607, "declared": 3332, "##tis": 6620, "Cinematography": 27062, "bubble": 13877, "##light": 4568, "experiences": 5758, "##\u6cb3": 28944, "Malay": 12808, "professional": 1848, "friendly": 4931, "defeating": 5699, "\u30de": 963, "Robert": 1823, "grains": 19707, "foster": 12100, "compound": 7090, "##uad": 18413, "imposed": 9520, "orange": 5925, "Europeans": 13810, "##thy": 15644, "\u03b8": 425, "staring": 3846, "forgive": 10737, "Danger": 21245, "Rollins": 26255, "Maximus": 26295, "reminds": 16816, "popularized": 22390, "transport": 3936, "\u1e6d": 737, "Eight": 8371, "##gart": 23052, "Ministers": 15102, "banquet": 25234, "batch": 15817, "tightening": 20896, "Cavendish": 26371, "Mus\u00e9e": 21808, "Thinking": 16204, "analyzed": 17689, "Progressive": 10709, "graphical": 23885, "##Pad": 24300, "Lorenzo": 12662, "PMID": 21936, "flanks": 26435, "sat": 2068, "burns": 14947, "nobles": 15621, "\u207b": 809, "##RP": 20336, "\u0423": 466, "usually": 1932, "##tating": 24558, "Blessed": 16850, "contributing": 7773, "whereabouts": 20775, "##hov": 24922, "enhance": 11778, "Twice": 24715, "shoot": 5211, "explorer": 16171, "storyline": 9844, "##\u30e3": 28859, "analog": 13022, "Leaning": 24838, "##reshing": 27129, "##ke": 2391, "ending": 3830, "slide": 7253, "you": 1128, "1965": 2679, "##topia": 24696, "backyard": 18707, "Fulton": 18196, "Geological": 14802, "views": 4696, "bodied": 25448, "##woods": 24550, "Her": 1430, "officer": 2575, "canyon": 18964, "##\u300a": 28780, "coincidence": 18264, "Norte": 22095, "Gong": 23703, "resembling": 16562, "allegations": 9966, "petition": 10077, "Jordan": 4421, "Leaf": 21901, "Beta": 13470, "options": 6665, "dominated": 6226, "Christ": 4028, "seventy": 12911, "##iler": 25614, "kilograms": 20471, "\u042e": 473, "seasons": 2955, "FM": 3941, "gentlemen": 16281, "equal": 4463, "##ivist": 23936, "longitudinal": 23191, "Securities": 20548, "lock": 5842, "##cturnal": 26629, "##ent": 3452, "Federation": 4245, "##JP": 25141, "\u09bc": 662, "##\u6708": 28930, "poisonous": 26106, "look": 1440, "condom": 23956, "calmed": 22980, "institutions": 4300, "hatred": 11571, "wrestled": 22621, "abnormal": 22832, "##UE": 24846, "BMG": 27622, "##ented": 22666, "##far": 14794, "burials": 27111, "reduced": 3549, "##yte": 14300, "Immigration": 16119, "quarterly": 21081, "model": 2235, "Style": 13023, "Men": 3401, "##dified": 22293, "\u043e": 489, "##gled": 8384, "Future": 7549, "shortage": 16907, "assignments": 15799, "expects": 27402, "heal": 11544, "##\uff0c": 28992, "##eng": 14429, "shove": 15909, "Dell": 18451, "##posed": 13541, "leaning": 6784, "Wire": 24781, "tourism": 8668, "idiot": 10696, "bathroom": 5056, "feud": 15081, "Jacobs": 13220, "gardening": 27045, "diesel": 8887, "classmates": 22150, "losing": 3196, "##color": 21829, "Vita": 25118, "choral": 20184, "\u30ca": 955, "staying": 6218, "illustrations": 11880, "Jett": 25653, "Vogue": 22257, "shoots": 11981, "closes": 15336, "Petit": 21386, "excitedly": 26988, "152": 15722, "growled": 8518, "join": 2866, "Mellon": 24587, "\uff0c": 1099, "'": 112, "pub": 11030, "La": 2001, "##let": 5765, "Exhibition": 9336, "205": 17342, "Bryce": 21528, "principles": 6551, "Whig": 24159, "Martial": 24800, "shore": 5781, "inward": 23120, "documentation": 14371, "Newark": 13164, "furrowed": 22538, "\u10dc": 702, "##\u2153": 28737, "dock": 11020, "treaty": 7274, "lasted": 5695, "##cible": 16240, "Henrietta": 22807, "confesses": 25528, "Hernandez": 23819, "Ferry": 11976, "Pursuit": 23756, "Crawford": 10433, "Believe": 12457, "languages": 3483, "representations": 16539, "coaches": 8648, "Spiritual": 23509, "Bureau": 4447, "##\u0159": 28242, "##\u2605": 28767, "Duke": 3131, "spoken": 4606, "340": 16984, "sentences": 12043, "h": 177, "reporting": 7516, "Adelaide": 6908, "happy": 2816, "eighteen": 8105, "survival": 8115, "buzzed": 23697, "sleeves": 16021, "##cies": 9805, "destroyer": 11871, "consonants": 21972, "\u2666": 879, "outnumbered": 25346, "##hardt": 16464, "##vel": 12559, "Crosby": 14841, "substrates": 26794, "shades": 16327, "##eer": 8284, "Sources": 22656, "Banks": 10117, "petals": 17270, "origins": 7564, "decades": 4397, "blame": 7338, "stamp": 13182, "alerted": 25368, "components": 5644, "Max": 3405, "##quito": 21594, "##e": 1162, "Plaza": 9761, "Be": 4108, "##eth": 8767, "##\u012b": 11756, "##ump": 15629, "invest": 17557, "Ken": 5928, "worthless": 26121, "##vant": 14194, "##atus": 16582, "McKenzie": 20269, "Colonel": 4212, "m": 182, "##\u5e74": 28919, "code": 3463, "Girls": 4808, "slowed": 9551, "understood": 4628, "19": 1627, "passage": 5885, "eighty": 14654, "carried": 2446, "learned": 3560, "Toyota": 11801, "##ilation": 16230, "terminology": 20925, "bit": 2113, "scarlet": 23299, "compliment": 21215, "Horace": 12950, "Candy": 16045, "geological": 16622, "29th": 17333, "suspiciously": 23837, "Ronan": 20320, "chancel": 17954, "generation": 3964, "##eda": 14604, "##fying": 16877, "##gnetic": 19975, "##\u30b5": 28836, "recruits": 16231, "schools": 2126, "Employment": 18340, "Reservoir": 15220, "bilingual": 20959, "tilting": 26954, "Wing": 5517, "##iano": 16265, "mounds": 23727, "Environment": 9247, "##ssler": 27061, "reputation": 5244, "Lakers": 19713, "aforementioned": 18501, "##\u00bf": 28178, "Launch": 26738, "Bonnie": 12414, "twelfth": 13688, "statistics": 9161, "##\u044f": 14800, "Price": 7510, "Safe": 19770, "initiatives": 11751, "##xa": 20192, "forests": 5775, "broker": 24535, "flutter": 27471, "##ev": 6348, "##rn": 4558, "Gala": 26376, "World": 1291, "550": 13592, "Comet": 28088, "##rease": 15691, "Salisbury": 14268, "shafts": 22970, "\u0263": 360, "Princes": 22227, "velvet": 15438, "Chun": 25475, "##hima": 16340, "toes": 10497, "\u1d2c": 706, "Link": 11193, "Chandra": 17595, "arbitration": 26538, "Property": 13563, "Rowe": 22652, "RB": 24718, "strangely": 16352, "reverted": 17464, "cables": 16886, "patrols": 15803, "cracks": 16694, "document": 5830, "subset": 18005, "coasts": 23278, "Qualifier": 15408, "##mot": 21277, "##tine": 12569, "##aco": 17312, "Muse": 26221, "presence": 2915, "Hamilton": 4436, "1770": 18980, "##bert": 7488, "scrutiny": 19258, "Playhouse": 19889, "##yana": 23732, "##ssed": 17856, "##Millan": 22266, "census": 2314, "counseling": 22138, "capturing": 12203, "Mongolia": 14388, "Spirit": 7258, "##ias": 7346, "commune": 5188, "chartered": 17064, "Monthly": 17300, "storing": 27580, "##xing": 24118, "engineers": 9067, "##\u062a": 28477, "winning": 2183, "\u03ce": 445, "beer": 5298, "recreational": 11240, "Anaheim": 22845, "sponsors": 13942, "\u5bae": 1017, "introduction": 4784, "widen": 23899, "order": 1546, "##sance": 27346, "##\u05e9": 28467, "##wned": 22071, "streaming": 11403, "feat": 8809, "Carolina": 2938, "##mination": 9204, "leak": 19299, "##alaya": 27399, "contrast": 5014, "##ides": 8959, "banner": 12438, "##hall": 8897, "sensitivity": 15750, "Gilles": 24006, "writing": 2269, "[unused91]": 91, "sic": 16554, "Alfredo": 21269, "##hausen": 12399, "motions": 16628, "exact": 6129, "Make": 7102, "differences": 5408, "##ein": 20309, "friendship": 7157, "Tower": 5646, "RNA": 13254, "emerald": 23970, "doctoral": 12308, "absolute": 7846, "\u043a": 485, "Egypt": 4498, "\u01ce": 344, "11": 1429, "##pin": 6709, "statutory": 17302, "##\u06af": 28504, "wooded": 18524, "Munro": 23000, "modeling": 13117, "\u0165": 326, "##lemma": 23397, "Eleanor": 10392, "enhancing": 23327, "Wife": 15256, "\u0f66": 693, "##EF": 14663, "torment": 25944, "dreamed": 14728, "##EX": 24654, "Judah": 25674, "confinement": 24478, "approximately": 2324, "##crow": 27049, "##biology": 25181, "##FF": 17515, "preserved": 6018, "Roll": 9916, "\u53f8": 999, "Hunters": 17998, "cars": 3079, "hangs": 19565, "178": 20977, "wicked": 13273, "Gram": 19891, "pots": 21917, "##oning": 10087, "ecology": 19115, "Planning": 9758, "incredible": 10965, "tablets": 20159, "topics": 7662, "markets": 5809, "guest": 3648, "Palais": 25121, "soul": 3960, "gotta": 13224, "Mans": 18180, "spectral": 20277, "cannabis": 23089, "##tu": 7926, "dual": 7058, "Azerbaijani": 19736, "pleading": 17773, "saint": 10916, "IPA": 27925, "##\u00b4": 28169, "consumers": 11060, "Target": 18525, "biographical": 21204, "Section": 6177, "dart": 23466, "Moose": 25183, "moss": 24908, "\u30d0": 958, "Polo": 18685, "advanced": 3682, "bunch": 9670, "flexible": 13156, "parade": 10686, "golf": 7135, "Rough": 19479, "resort": 8037, "jumps": 15457, "##ilization": 15100, "Safety": 9218, "buildings": 2275, "##\u099a": 28547, "##\uff1a": 28995, "Eat": 21327, "snails": 14034, "Chamberlain": 15506, "Grandma": 16245, "Superintendent": 12987, "##\u00edo": 26804, "##sui": 26841, "##TM": 19974, "scary": 13952, "club": 1526, "32": 2724, "flashes": 18324, "orders": 3791, "##\u2191": 28739, "##\u3082": 28815, "Lois": 17002, "Einstein": 16127, "##ives": 11355, "penned": 18790, "Mexico": 2470, "##yote": 21798, "##hman": 16277, "biological": 7269, "expressive": 26005, "Former": 6963, "##olis": 25694, "heroin": 22856, "blackish": 24534, "##rots": 27460, "wrong": 2488, "Barlow": 19124, "Newport": 9168, "Pyramid": 26910, "Postal": 20976, "Cambridge": 3900, "labeled": 12893, "new": 1207, "##sumption": 16937, "Greenberg": 27174, "Vietnamese": 8763, "faculty": 5449, "##bar": 6824, "contain": 4651, "Railways": 9058, "Leroy": 25335, "slab": 19871, "Sam": 2687, "participation": 6251, "Barry": 5631, "##iment": 27439, "safely": 9510, "ruled": 4741, "acquiring": 14585, "Ching": 24711, "tasted": 12876, "Basil": 16209, "##\u09ae": 28558, "320": 14116, "corporation": 9715, "idle": 24530, "Barber": 16785, "##\u0bcd": 28585, "recreation": 12729, "beers": 23147, "Kay": 11247, "Shit": 12216, "Harvest": 23119, "will": 1209, "##\u00c5": 28183, "Kirk": 11667, "stem": 8175, "##lished": 20275, "snorted": 16015, "##Works": 28039, "NRL": 22685, "subsidies": 24708, "buffalo": 26700, "Birds": 13873, "dreaming": 16313, "gigs": 23369, "##rith": 24969, "##illo": 12284, "Running": 12074, "Antony": 17289, "proved": 4132, "nautical": 11894, "continuously": 10861, "Lie": 15030, "##liance": 20541, "##\u2264": 28757, "fluttered": 19812, "encompassed": 27072, "Urban": 6972, "##\u0303": 28311, "Lancashire": 9365, "Albuquerque": 21037, "##nell": 10376, "\uff0f": 1101, "ejected": 25292, "##\u044b": 28413, "##\u00dc": 28196, "meter": 8227, "##worm": 25633, "doctrines": 27153, "1888": 6079, "swung": 7185, "##dating": 23562, "stench": 24218, "##\u0633": 28484, "curiously": 18941, "\u0414": 452, "bill": 4550, "progressive": 8706, "Stalin": 13406, "P\u00e9rez": 15489, "altering": 25595, "\u05db": 545, "##sport": 21209, "soft": 2991, "Perry": 6306, "Dan": 4317, "brave": 11313, "strength": 3220, "Delilah": 25662, "tomb": 8880, "##storm": 18251, "\u207a": 808, "sustain": 16974, "theater": 5184, "4th": 3492, "##\u65e5": 28926, "mild": 10496, "twelve": 4030, "exiting": 26513, "shape": 3571, "##ially": 21323, "floods": 15501, "CR": 15531, "##buted": 24595, "##oly": 23415, "Fairfield": 20609, "gearbox": 26283, "humor": 8594, "littered": 28006, "Salvation": 22781, "action": 2168, "\u1ec5": 748, "instituted": 15833, "1985": 2210, "Fool": 21935, "##mans": 14761, "commitments": 19716, "appliances": 26498, "loud": 4632, "Catalogue": 20813, "##site": 13068, "##FI": 17675, "Economy": 14592, "Kamen": 24932, "Education": 2531, "altitude": 7761, "360": 9174, "Kenny": 8537, "100": 1620, "Tanaka": 24128, "##bankment": 25306, "\u00fb": 273, "shock": 4900, "##tide": 23767, "\u30ab": 937, "Musa": 27389, "##latine": 27325, "nations": 6015, "##powder": 24272, "Election": 11905, "tribes": 6872, "lawyers": 10630, "\u0417": 455, "##ogram": 28012, "15": 1405, "Panama": 8392, "compatible": 12173, "pagan": 21253, "analyses": 18460, "Equipment": 22897, "cooking": 8739, "Romance": 13589, "saved": 4987, "Wiley": 20516, "Aristotle": 18727, "##chen": 10415, "Shanghai": 7962, "##suse": 24784, "commission": 5500, "Planet": 9522, "Fallon": 17592, "##Ms": 25866, "[unused63]": 63, "##lett": 21664, "249": 26409, "##witz": 15648, "tonnes": 10992, "##jah": 18671, "Ramon": 19437, "hem": 23123, "breeds": 17530, "glazed": 21856, "Archdiocese": 14873, "planes": 10025, "##ducted": 23087, "Resurrection": 26461, "preparatory": 20282, "\u05d9": 544, "\u82b1": 1068, "Griffith": 14672, "##union": 19698, "autonomous": 10661, "1808": 13295, "interrupting": 25602, "paints": 28022, "declare": 14197, "pencil": 16372, "castle": 3804, "cursing": 25002, "treats": 20554, "1908": 4536, "rebuilding": 15921, "##arium": 19841, "Assistance": 20778, "useful": 5616, "Speed": 10856, "monarchy": 14358, "Duck": 16627, "continues": 3430, "Marx": 13860, "##nical": 25116, "##jas": 25983, "\u3061": 909, "ear": 3811, "rating": 5261, "parent": 6486, "scattered": 7648, "library": 3340, "volunteers": 8118, "Golf": 8206, "##at": 2980, "Indeed": 10364, "Rome": 3352, "Savoy": 17438, "residual": 25399, "serve": 2867, "Alberto": 12101, "mentor": 11757, "undergo": 13971, "matrices": 24350, "exploited": 20903, "##he": 4638, "Graham": 5159, "Beaver": 16626, "##aine": 19836, "firstly": 22240, "##j": 3361, "geometry": 12053, "objective": 7649, "Micah": 18948, "ivory": 20728, "First": 1752, "##ine": 2042, "##avan": 21714, "listener": 23392, "kinase": 24779, "symmetric": 21852, "exploration": 10016, "never": 1309, "Mount": 3572, "ranged": 16859, "bearings": 24734, "##cion": 16012, "##\u30df": 28857, "handled": 8630, "cavern": 19373, "Passion": 17044, "showed": 2799, "affiliation": 13494, "strap": 17896, "\u0162": 324, "Neill": 11935, "##\u00dfe": 13750, "assessing": 23529, "Peace": 5370, "[unused20]": 20, "Wanderers": 15131, "Angelina": 26876, "Reno": 19139, "Bulletin": 17842, "216": 22148, "whatever": 3451, "\u0159": 317, "acted": 5376, "invading": 19185, "1796": 14342, "exists": 5903, "##jutant": 22635, "##H1": 27012, "Judd": 21971, "Wally": 19650, "##issa": 14916, "##ntary": 17103, "\u571f": 1006, "injected": 21881, "\u0576": 521, "heard": 1767, "privileged": 24758, "unarmed": 26809, "Dreams": 11335, "Ruby": 11374, "she": 1131, "throwing": 6558, "spanning": 14827, "claiming": 6330, "purchasing": 13980, "astonishment": 27125, "ambitions": 21681, "##aw": 7220, "Syriac": 27095, "Additional": 8154, "Alfonso": 13961, "effectively": 5877, "workshop": 10819, "filtered": 24430, "Governors": 18711, "RBIs": 26417, "##max": 22871, "Designed": 20879, "Purple": 13773, "Doncaster": 20474, "shaved": 23116, "localized": 25813, "##nas": 13146, "\u20b9": 838, "##ulture": 15936, "prisons": 20070, "inauguration": 20105, "Patrick": 3938, "solely": 9308, "genocide": 19643, "Elliot": 11825, "physically": 8027, "realities": 27167, "torture": 8831, "reef": 18939, "75": 3453, "almost": 1593, "assembled": 8968, "##loss": 20831, "happier": 21617, "Val": 12226, "##hali": 24486, "flinch": 26234, "mantle": 19435, "##orf": 22488, "smash": 24881, "ray": 7586, "Gospel": 10451, "Mack": 11397, "associated": 2628, "##pts": 12024, "##uerra": 27519, "productive": 13909, "##\u00e1": 5589, "Rank": 25949, "##\u00e2n": 27708, "Sichuan": 23115, "##itarian": 12403, "MD": 9292, "Shake": 25775, "##\u03bc": 28349, "constitution": 7119, "Talbot": 15547, "vampires": 6039, "bee": 17775, "asks": 4390, "##shire": 6662, "products": 2982, "Invasion": 20209, "##icient": 26845, "\u2191": 844, "background": 3582, "Cypriot": 20036, "##sius": 20478, "tripped": 23376, "driven": 4940, "Potomac": 20419, "axes": 21682, "record": 1647, "backpack": 13846, "##nut": 12251, "##rudence": 18424, "##els": 5999, "nerve": 9071, "hop": 6974, "425": 25933, "Fellows": 19973, "Jin": 10922, "wickets": 10267, "worry": 3994, "NYC": 17520, "2015": 1410, "Salt": 8881, "SF": 18659, "spiritual": 6170, "Bari": 25788, "blowing": 11704, "vs": 5016, "enters": 7603, "use": 1329, "##\u0baf": 28578, "overhaul": 20131, "Kang": 17614, "Medal": 3803, "Anything": 11087, "CBC": 13979, "##allo": 20797, "##rden": 12345, "501": 17196, "theory": 2749, "##cakes": 23393, "Honor": 7337, "meal": 7696, "##struction": 26372, "beneficial": 16250, "Trustees": 15340, "\u2074": 802, "competitions": 6025, "objects": 4546, "##AS": 10719, "##j\u014d": 21006, "particles": 9150, "##w": 2246, "##\u4e09": 28870, "Democrat": 7319, "##rsing": 25351, "trunk": 8716, "grenade": 19487, "88": 5385, "Continuing": 20699, "##pating": 19167, "seek": 5622, "Hugo": 9110, "promotional": 10626, "2016": 1446, "whilst": 5994, "exhibit": 8245, "##chichte": 25124, "Photography": 12954, "Nix": 26880, "showcase": 17045, "##los": 8867, "Doug": 8426, "Dodgers": 13839, "full": 1554, "##T": 1942, "defend": 6472, "partition": 16416, "Weir": 20931, "##\u1ea1": 28640, "sung": 7399, "Nearly": 16992, "preached": 23919, "accustomed": 19292, "##aws": 19194, "Brien": 9620, "diffusion": 22873, "helicopter": 7948, "corpus": 26661, "observations": 9959, "knees": 4257, "Bowman": 21502, "grades": 7093, "Notable": 11017, "\u1fc6": 775, "physics": 7094, "##\u0397": 28320, "Wimbledon": 13752, "algorithms": 14975, "alcoholic": 16149, "capabilities": 9816, "[unused41]": 41, "Currie": 22642, "prompted": 9249, "worries": 16689, "tournaments": 8446, "lower": 2211, "Silver": 4826, "@": 137, "##ai": 3814, "Enemy": 19269, "hero": 6485, "posthumous": 22691, "clergy": 12538, "##\u1d43": 28612, "Danny": 5595, "##rland": 20313, "Tradition": 24216, "Sue": 11728, "##rons": 19298, "Committees": 25288, "##ntino": 18618, "baby": 2963, "##unk": 12660, "Cooke": 17601, "##hra": 20955, "broadband": 26577, "profit": 5022, "reelection": 18955, "Hari": 23803, "Salzburg": 19802, "##\u00d8": 28194, "Distinguished": 8972, "dad": 4153, "Buddha": 12166, "achieved": 3890, "okay": 3008, "##structure": 25198, "##gue": 7222, "Bihar": 17301, "advantage": 4316, "alterations": 18651, "##lya": 25928, "Cope": 26673, "trajectory": 25882, "1884": 6394, "taller": 12891, "devotees": 27145, "intensive": 12885, "rooms": 4045, "hopped": 18507, "lakes": 9231, "Baron": 5483, "##\u0263": 28281, "##19": 16382, "romantic": 6376, "redesigned": 18382, "costume": 10220, "mined": 24359, "conservative": 6588, "\u05ea": 558, "##aal": 27679, "At": 1335, "Mandarin": 17819, "\u30b8": 945, "##ilia": 26502, "Bye": 17774, "##nta": 13130, "peer": 8536, "Soul": 7381, "scattering": 19665, "electorate": 15770, "Serra": 25605, "\u0f42": 685, "cause": 2612, "Trilogy": 27329, "##\u300e": 28784, "art": 1893, "marginal": 16404, "Cornwall": 10248, "##oon": 6931, "attacked": 3623, "postgraduate": 19932, "knight": 11295, "##ara": 4626, "prostitute": 21803, "##ener": 24475, "##\u0162": 28247, "##udder": 23007, "transplant": 26965, "teenager": 10674, "corners": 8993, "Valentine": 10002, "##\u0947": 28535, "hatch": 15524, "consolidation": 20994, "red": 1894, "\u0103": 280, "quarters": 7541, "Fighters": 23928, "Fu": 14763, "pubs": 27392, "##owski": 13379, "solvent": 27624, "##\u771f": 28954, "dive": 12706, "caressed": 23744, "ignoring": 10372, "brighter": 18044, "tried": 1793, "occurring": 9939, "##iam": 18331, "Abd": 22358, "attract": 9781, "Hong": 3475, "epithet": 21397, "Amherst": 21618, "recall": 9148, "Mosque": 16815, "ratified": 19008, "##\u30c9": 28847, "##\u77f3": 28955, "initiated": 7087, "##ahi": 22332, "##rium": 11077, "Continental": 9211, "Stuttgart": 13269, "enduring": 21585, "dealt": 9130, "tongues": 24403, "translated": 4957, "marry": 5390, "hopefully": 16121, "animal": 3724, "##tering": 9930, "##\u03c4": 28355, "247": 26049, "rumors": 12287, "##pository": 24454, "parks": 8412, "\u0427": 470, "##quatorial": 23416, "Prophet": 19784, "norms": 19600, "Estates": 23023, "Defaulted": 20445, "1967": 2573, "##\u05b0": 28437, "cartridges": 26274, "traps": 18743, "mirrors": 15700, "##\u674e": 28933, "Colour": 25809, "hooked": 14111, "Courts": 16624, "Tim": 4446, "##\u2265": 28758, "Volkswagen": 20381, "bursting": 24329, "fishes": 27031, "competent": 19555, "Ave": 15057, "distributor": 19371, "##lev": 23403, "Tears": 9846, "Gone": 12289, "##wes": 14291, "\u00a32": 24155, "Morgan": 4461, "predictable": 24017, "Archive": 15041, "AllMusic": 17628, "##smith": 11195, "##dea": 18747, "##gt": 19815, "Hungary": 5169, "upon": 1852, "Richmond": 6110, "underside": 19631, "##throp": 21850, "Lakshmi": 23691, "concluded": 4803, "##\u060c": 28469, "gorge": 25601, "breathing": 4943, "highlight": 13426, "##forcing": 20586, "expect": 5363, "residences": 15417, "\u30c0": 949, "investigation": 4449, "prevalent": 15950, "slight": 6812, "##dled": 18357, "##ogical": 20946, "##\u00ec": 21409, "Ki": 14477, "balls": 7318, "million": 1550, "error": 7353, "Actor": 7617, "##\u5bbf": 28911, "simplest": 23565, "grazing": 16747, "motive": 17941, "##xy": 16844, "##nko": 17075, "proportions": 21136, "##unds": 20408, "Basilica": 19349, "broadcasts": 8737, "##lini": 21472, "arriving": 7190, "collects": 19213, "proceeding": 20793, "hearts": 12261, "Parsons": 13883, "Covenant": 23401, "Flyers": 20870, "kn": 18325, "threatened": 4963, "Shut": 15104, "Jo": 8125, "##rapped": 27279, "Battalion": 4244, "commented": 6454, "##laid": 16898, "wraps": 21738, "proving": 15975, "##halt": 24537, "Great": 2038, "viewed": 6497, "disbelief": 12962, "able": 1682, "Everest": 26885, "bitten": 21381, "sails": 20349, "Ship": 12863, "##\u03a3": 28329, "##\u306f": 28809, "##iz": 9368, "antagonist": 19173, "reasons": 3672, "##holm": 20798, "Eurasian": 26245, "##pical": 15328, "refuse": 10250, "George": 1667, "##lim": 24891, "Flying": 7769, "rotating": 14362, "##rds": 15093, "reins": 21141, "##MB": 20660, "murder": 3513, "single": 1423, "0": 121, "000": 1288, "##ika": 7223, "M": 150, "##fighter": 22217, "49ers": 19531, "##\u2070": 28702, "spiders": 16961, "##vening": 24248, "Coke": 19630, "Wilmington": 18150, "\u028b": 370, "classification": 5393, "\u00b2": 213, "##play": 11044, "Wexford": 25783, "panel": 5962, "##lessness": 18984, "##wari": 20441, "surface": 2473, "##toire": 19101, "##hame": 25948, "bearer": 26204, "Kilda": 25168, "linen": 19838, "Afro": 20075, "Ultimate": 11618, "##bearable": 27244, "bounty": 23558, "Paulo": 8764, "##ef": 11470, "remind": 11484, "approve": 14942, "rolling": 6362, "##ja": 3174, "Transportation": 8373, "Manila": 9002, "urges": 27169, "value": 2860, "##\u1ed3": 28655, "algae": 20964, "bite": 6513, "Taking": 9251, "Larson": 23360, "alumni": 12762, "touched": 4270, "##rk": 4661, "ideas": 4133, "Gracie": 20653, "nights": 6823, "##uru": 12328, "landmarks": 21308, "Gay": 10906, "Retrieved": 4996, "##rita": 15662, "Wen": 23158, "Crowley": 22804, "retailer": 23495, "Charlotte": 5204, "thereafter": 7321, "Johnny": 4414, "Scholars": 18765, "yoga": 20631, "\u2030": 796, "uncomfortably": 25103, "##lant": 9180, "managers": 11493, "##proof": 20324, "Except": 9656, "supremacy": 27769, "hurriedly": 27670, "Chen": 8742, "CBE": 16779, "elemental": 24789, "Bordeaux": 17441, "relieve": 16775, "Oslo": 9773, "tactical": 12394, "##ita": 5168, "##pler": 20687, "Prince": 2558, "Always": 10672, "##yam": 17485, "##pra": 20488, "##IVE": 26140, "##dalgo": 27128, "resources": 3979, "benefit": 5257, "legally": 10368, "##tuated": 26014, "##\u1d9c": 28626, "##kh": 9862, "championships": 6430, "defiance": 27071, "##elves": 27722, "Concerto": 12874, "damaging": 15812, "signaling": 16085, "##gal": 6997, "strung": 27585, "##yar": 17556, "Philosophy": 8714, "Syndicate": 25139, "takeover": 17748, "struggling": 7851, "penetrate": 20890, "explosions": 20518, "librarian": 18280, "coding": 19350, "Fork": 16384, "##rey": 12210, "space": 2000, "\u3044": 894, "##sky": 4969, "Hamburg": 8339, "mug": 15761, "##garh": 12981, "Greene": 10983, "Tacoma": 25588, "Fish": 9425, "strengthen": 13346, "helped": 2375, "Ares": 27489, "licensed": 6825, "trapping": 26452, "reply": 7163, "confess": 20989, "##nan": 6509, "##tended": 21857, "##luster": 23225, "sewing": 27535, "surplus": 17317, "honor": 3874, "\u098f": 639, "##rt": 3740, "battery": 7105, "he": 1119, "following": 1378, "VHS": 18808, "Carroll": 10668, "threads": 18636, "retrieved": 14408, "Maharaja": 24659, "226": 23100, "yet": 1870, "##vour": 17532, "##clave": 16768, "populated": 10240, "embarrassment": 15285, "Christian": 2131, "matter": 2187, "GO": 27157, "website": 3265, "##\u967d": 28975, "Consider": 25515, "prosperous": 20308, "Beaufort": 26427, "##GI": 21065, "\u5929": 1010, "##olm": 25363, "Unlike": 5472, "modelled": 26550, "Karl": 5728, "literary": 4618, "Founded": 10288, "desktop": 18813, "countryside": 11408, "##\u00bb": 28175, "ourselves": 9655, "learn": 3858, "\u30e0": 965, "Thousands": 26159, "\u5409": 1000, "Ingrid": 24665, "between": 1206, "Webster": 11674, "##ett": 5912, "700": 5689, "under": 1223, "economy": 4190, "beta": 11933, "##plicate": 21379, "Tommy": 6242, "##\u0392": 28316, "minute": 2517, "##25": 17600, "Energy": 5514, "##mous": 15852, "agency": 4792, "Yemen": 14466, "spot": 3205, "##rya": 20845, "Vishnu": 18996, "\u0582": 526, "Category": 13696, "royal": 4276, "nets": 26188, "[unused64]": 64, "\u0f51": 687, "Administration": 4918, "sting": 17975, "Of": 2096, "lifted": 3358, "lone": 14936, "##mother": 15051, "Ho": 9800, "Sanskrit": 11399, "weigh": 18678, "Rivers": 10262, "\u0626": 564, "##\u0917": 28511, "Movies": 19318, "Catholicism": 17164, "thick": 3528, "##wide": 15665, "Roberts": 6444, "Jose": 7438, "Miguel": 7975, "sniper": 22209, "##low": 6737, "Nikolai": 14374, "etc": 3576, "\u0105": 281, "occur": 4467, "144": 15373, "##burne": 26980, "Denver": 7068, "muscle": 6484, "Coral": 20385, "##phobic": 22050, "##mium": 19276, "##ants": 7418, "breast": 7209, "purity": 22183, "poem": 5510, "Jacksonville": 13326, "##enter": 25195, "descent": 6585, "specialized": 7623, "few": 1374, "afternoon": 4427, "bliss": 27100, "hotels": 10723, "Often": 12812, "Emergency": 11177, "ensuing": 14332, "thunder": 17209, "##tches": 16030, "\u0163": 325, "fuselage": 13959, "##rang": 22081, "Holland": 7465, "##belt": 24394, "##EE": 27073, "##using": 19578, "liberation": 14278, "fatigue": 18418, "rapid": 6099, "goat": 17497, "preceded": 11983, "\u2092": 826, "##ort": 12148, "##uki": 17041, "survived": 4399, "establish": 4586, "Kingdoms": 25316, "invalid": 22475, "defended": 7607, "issue": 2486, "newly": 3599, "production": 1707, "kicking": 10710, "capture": 4821, "Sven": 23468, "##azza": 25774, "##him": 14565, "fund": 5841, "Pendleton": 27406, "resolve": 10820, "sensor": 15228, "Buccaneers": 24751, "Dry": 18112, "Select": 18193, "Hurling": 16842, "Shapiro": 27747, "heads": 4075, "forgiveness": 19827, "hardly": 6374, "##ulge": 26272, "##mpest": 25214, "##\u3089": 28819, "eastern": 2638, "clerk": 9477, "##ests": 27838, "Emperor": 3637, "##ux": 5025, "Bruce": 4767, "##del": 6738, "Tao": 25225, "outstretched": 23217, "cockpit": 14803, "##\u4ec1": 28880, "##ov": 3292, "towels": 27715, "##azar": 25329, "mare": 21833, "##cs": 6063, "Henley": 22935, "restrictions": 9118, "Celebration": 22677, "##\u21cc": 28742, "ambition": 19034, "Warwick": 13608, "##mpus": 26696, "Fritz": 13195, "guides": 15889, "##erina": 18866, "##iya": 9384, "##arland": 23464, "02": 5507, "\u30a2": 931, "trusted": 9373, "Gods": 11795, "bent": 5950, "rays": 11611, "Visual": 12071, "Sant": 16612, "##WC": 16697, "attracting": 16453, "Aden": 17533, "Modern": 4825, "##uated": 13567, "Dana": 11422, "Angus": 14091, "Vanderbilt": 18213, "luxurious": 23211, "Leadership": 11873, "closet": 9369, "##tton": 16495, "##gnolia": 27795, "governance": 12711, "betting": 21891, "banged": 25697, "##ulator": 19410, "hits": 4919, "pond": 11925, "##but": 16442, "##IB": 27954, "pound": 10074, "contractor": 14825, "Regent": 17626, "raked": 24962, "Matthews": 12495, "Duty": 21134, "blessed": 15865, "liter": 27146, "greeting": 15908, "superiority": 21378, "##static": 27372, "locking": 16348, "UFO": 27609, "IL": 15393, "1897": 5678, "imagery": 14210, "Tracks": 11444, "##imate": 15774, "\u2082": 813, "testimony": 11405, "future": 2174, "backup": 10441, "bastards": 26711, "outrage": 22052, "##mable": 23019, "dropping": 7367, "Voices": 14725, "beans": 15154, "##ury": 11366, "upper": 3105, "Arabic": 4944, "mixing": 7021, "patent": 8581, "Apostolic": 14220, "LDS": 18966, "bunker": 23674, "breakup": 21194, "Shields": 21059, "##conductor": 21236, "McCarthy": 12780, "Relations": 9269, "Clayton": 11867, "##ucking": 22045, "##jou": 25028, "##ila": 8009, "##rm": 9019, "bounced": 13990, "##ics": 4724, "Patel": 22545, "grinned": 6375, "literature": 3783, "Admiralty": 15563, "couple": 2337, "formula": 7893, "##\u0634": 28485, "cured": 24265, "subunit": 27555, "marble": 8004, "Server": 18950, "furnished": 21904, "##itzer": 23257, "\u1ff6": 778, "converts": 22042, "##od": 5412, "##ga": 2571, "movie": 2523, "Viper": 24010, "49": 3927, "simply": 2566, "comrades": 22506, "mandolin": 21142, "Pandora": 20944, "announcer": 16007, "Rhys": 14418, "adjacent": 4903, "Dukes": 22813, "ocean": 5969, "##erick": 19997, "##enberg": 11588, "carry": 3564, "truce": 21978, "hundred": 2937, "Indy": 19881, "Ce": 24664, "AK": 25808, "Arsenal": 10503, "Domingo": 16540, "Tyne": 19064, "##bbe": 20584, "##ssing": 23906, "noticing": 16927, "1730": 25914, "Hartley": 23053, "varsity": 17611, "##cript": 13590, "Baker": 5779, "Usually": 12378, "Randall": 13001, "Cindy": 16774, "Brewster": 25673, "inscription": 9237, "teasing": 12516, "observe": 12326, "specimen": 11678, "##qua": 13284, "HBO": 15262, "baptism": 24111, "better": 1618, "1919": 3688, "##bius": 19071, "prices": 7352, "desired": 8759, "Mandy": 19599, "litigation": 18184, "Swamp": 25723, "grade": 3654, "ceramics": 21703, "western": 2466, "Matters": 26764, "Port": 3905, "##asily": 20158, "##uds": 23218, "ranks": 6496, "quota": 23690, "##ome": 6758, "83": 6032, "knighted": 21905, "nose": 3678, "e": 174, "rot": 24692, "noteworthy": 22076, "##\u0f66": 28596, "climax": 17396, "[unused74]": 74, "Haute": 22059, "weights": 17981, "##worthy": 13849, "Better": 8529, "Reporter": 18096, "winced": 16433, "Opus": 26855, "##\u0f53": 28591, "\u094d": 634, "Plant": 9646, "associate": 6500, "##mere": 14554, "exploit": 19685, "Calling": 22057, "coverage": 5811, "ICAO": 19426, "##tooth": 21590, "vital": 9301, "##arra": 25203, "However": 1438, "##rl": 17670, "##rrow": 8674, "fin": 15301, "camping": 15973, "Fathers": 23010, "Falcons": 16952, "mi": 1940, "##act": 11179, "##cht": 9817, "##\u092c": 28520, "magic": 3974, "flashlight": 16319, "shows": 2196, "Bangladeshi": 27260, "##trata": 26649, "other": 1168, "arithmetic": 24205, "He": 1124, "hardcover": 27214, "Cyclone": 26847, "##lion": 12489, "freaked": 25818, "plausible": 27918, "steps": 3343, "start": 1838, "##agon": 19867, "sentiments": 27282, "Charge": 24510, "Brisbane": 7217, "Taiwanese": 17585, "mutations": 17157, "rooted": 16906, "106": 9920, "##hta": 26489, "##hi": 3031, "blurted": 20291, "touchdown": 7575, "ARIA": 21356, "finest": 10812, "comprehensive": 8232, "\u3001": 885, "attends": 27150, "##uiz": 20877, "##cological": 23388, "bye": 11901, "boarded": 18666, "##dan": 6778, "observers": 15793, "Sing": 13315, "##to": 2430, "Cowboys": 13009, "op": 11769, "tough": 8035, "madness": 16870, "303": 21786, "parlor": 21799, "shed": 8478, "Severn": 27908, "trilogy": 14927, "Ke": 26835, "##ell": 3991, "notorious": 14140, "Agnes": 11805, "adventure": 7644, "33": 3081, "gothic": 25213, "observes": 27641, "1859": 7707, "Ben": 3096, "healing": 9523, "Hades": 26015, "1875": 6932, "\u00f3": 265, "President": 1697, "typically": 3417, "ability": 2912, "excited": 7215, "Bonus": 21916, "augmented": 22337, "##planes": 24983, "possible": 1936, "Melinda": 27042, "dip": 20866, "habitat": 6296, "ni": 11437, "Virtual": 18486, "impaired": 20606, "##\u592b": 28905, "##ria": 3464, "registers": 21187, "school": 1278, "[unused52]": 52, "sensed": 10494, "diner": 20162, "##ew": 5773, "widowed": 26369, "laude": 27159, "\u03b7": 424, "fuscous": 19489, "William": 1613, "Braun": 24317, "sketch": 12333, "##habilitation": 27778, "##ston": 6186, "ships": 2968, "undertake": 17778, "Government": 2384, "Algiers": 25571, "Ron": 6413, "northern": 2350, "##\u4e00": 28869, "regretted": 20632, "aesthetic": 13492, "40th": 17583, "toss": 10234, "activists": 10254, "Martian": 23194, "##lau": 15554, "force": 2049, "element": 5290, "unconventional": 27668, "Coming": 11050, "choreography": 22543, "Sunny": 17321, "Drivers": 23004, "##nnes": 24147, "Cambodian": 27463, "Baylor": 26860, "Marsh": 11463, "including": 1259, "Impossible": 26138, "##rd": 2956, "Fisheries": 21817, "pen": 8228, "##imation": 21517, "toilets": 24719, "Anya": 24221, "Slavic": 14331, "##xed": 14771, "intimate": 10666, "##\u0416": 28372, "Opera": 5434, "pulls": 7561, "filming": 7973, "##named": 24499, "Albania": 10278, "Mom": 4563, "reflect": 7977, "##sten": 15874, "oddly": 18609, "extracted": 16939, "Journalism": 15968, "della": 12391, "progressively": 22770, "multimedia": 20680, "Janet": 9788, "Enlightenment": 25738, "Mohawk": 25797, "##eavor": 26687, "actively": 8525, "glaring": 17606, "\u044b": 502, "determine": 4959, "##U": 2591, "##liest": 23484, "stroked": 11754, "50th": 13163, "Ignacio": 25713, "demands": 7252, "24th": 13722, "CBN": 24178, "\u1ea1": 738, "disrupt": 26499, "##rming": 21290, "councillors": 16306, "theatre": 4041, "\u0100": 278, "Rodgers": 16532, "systematically": 25923, "Killer": 14613, "##tinuum": 25379, "##lov": 14185, "restart": 27777, "\u017b": 336, "rocked": 15002, "\u3055": 903, "subtropical": 12227, "sociology": 17083, "##\u014f": 28238, "amplifier": 26697, "Cheshire": 14242, "Gale": 19820, "Bingham": 27721, "army": 2306, "##tri": 19091, "Metal": 9953, "lingering": 16329, "##nking": 20698, "40": 1969, "385": 27462, "cheating": 18661, "Evidence": 16573, "Spence": 24589, "163": 19207, "Nearby": 22006, "\u1d4d": 713, "painful": 8920, "##RE": 16941, "\uff0d": 1100, "protagonists": 24541, "hall": 2885, "##\uc0ac": 28982, "hell": 2630, "Alt": 14983, "include": 1511, "##toria": 14155, "##cating": 14829, "habit": 10671, "Manager": 7165, "\u0f63": 692, "\u00fe": 276, "Mace": 28013, "Royal": 1787, "Seems": 25686, "Chico": 25353, "##mat": 21943, "Ajax": 20145, "rower": 24773, "practice": 2415, "Edinburgh": 5238, "Territory": 7442, "Lamb": 16978, "shook": 2291, "streets": 4324, "Mikhail": 11329, "slashed": 26551, "directorial": 24836, "Andrei": 19668, "1970": 2459, "##uze": 26583, "Scarlet": 17137, "\u222a": 859, "demanding": 9504, "Moran": 19823, "##\u3046": 28788, "##grown": 21038, "marked": 3597, "##ps": 3491, "degree": 2178, "\u2026": 795, "midfield": 26599, "##mash": 21575, "sleek": 23996, "drawer": 13560, "Paradise": 10638, "Andrew": 3217, "##iculate": 26748, "tax": 3641, "##mates": 12070, "##offs": 18438, "##overs": 24985, "##lanche": 27474, "paint": 6628, "strengths": 23347, "192": 18868, "arm": 1981, "varying": 9507, "circulating": 25655, "Eventually": 6382, "##istan": 20300, "assessment": 8670, "Senegal": 17419, "Northwest": 8358, "clothing": 5413, "##lian": 15647, "Career": 17062, "chewing": 19791, "##ays": 22979, "pulp": 20467, "##\u05dd": 28457, "\u0637": 581, "Save": 12596, "Aero": 23877, "progress": 5070, "\u1e0d": 726, "copy": 5633, "suitcase": 17655, "Tobias": 18167, "##hir": 14518, "thrilled": 17278, "##c\u00e9e": 19982, "inspire": 21792, "radical": 8276, "Prasad": 19039, "##onal": 24059, "\u05e0": 550, "\u00f1": 263, "defenders": 15024, "recognize": 6239, "##hart": 11429, "##\u30b8": 28838, "voted": 4751, "Lafayette": 15335, "ambassador": 9088, "football": 1709, "Syria": 7303, "severity": 20997, "##\u03c6": 28357, "##et": 2105, "1980": 2253, "Go": 3414, "Barrow": 17857, "Spears": 21214, "Title": 11772, "trailers": 24760, "Elise": 14945, "##ading": 17465, "Loki": 27268, "Featured": 27207, "Park": 1670, "##uz": 14875, "Noise": 17956, "popping": 22850, "##tain": 11379, "##sque": 16803, "##chord": 27874, "manufactures": 26441, "University": 1239, "Count": 5704, "Seminary": 11186, "Its": 2098, "degradation": 18126, "Worcestershire": 22067, "trainers": 26657, "surf": 20114, "##ici": 27989, "manifest": 23487, "sinking": 10464, "features": 1956, "bedroom": 4255, "Vin": 25354, "fights": 9718, "Supporting": 12440, "##\u05dc": 28456, "##ductor": 25836, "ingredients": 13288, "##\u1ea9": 28644, "Caracas": 23947, "Label": 20943, "##suke": 16431, "weeds": 25536, "##olin": 27719, "##\u1e47": 28636, "acknowledged": 8646, "##boa": 22126, "practitioner": 22351, "##PL": 27258, "center": 2057, "champion": 3628, "##pont": 27006, "Webb": 10894, "##4": 1527, "##coach": 26851, "##\u03c1": 28353, "##fty": 27944, "Serbian": 5881, "flashback": 27836, "Kosovo": 11494, "click": 13440, "provincial": 5586, "shorter": 7681, "Andr\u00e9": 9343, "\u1e25": 728, "for": 1111, "rogue": 21010, "2d": 25712, "##dek": 27170, "configurations": 25209, "##\u011f": 28223, "##ani": 7192, "##fest": 17695, "Animation": 15048, "King": 1624, "##dham": 21469, "Places": 5068, "##aley": 25910, "bamboo": 19062, "belts": 20109, "Museums": 27070, "##\u0451": 28417, "commence": 25824, "Foot": 13929, "motivated": 13241, "slick": 16715, "Editing": 25960, "##sey": 8780, "##ament": 11462, "##\u00ee": 28202, "Pradesh": 7530, "##\u540c": 28894, "were": 1127, "Turner": 6217, "##giri": 25899, "##isans": 21836, "supported": 2726, "Weaver": 17263, "XML": 24868, "NHL": 6521, "Show": 3237, "##\u0422": 28383, "##oko": 26793, "Mariners": 21652, "argued": 4491, "Caldwell": 17649, "honoring": 24793, "atmospheric": 15129, "159": 20485, "##ieu": 21114, "31": 1955, "linguistic": 13633, "bright": 3999, "##print": 10988, "##wana": 22839, "##gen": 4915, "facto": 14277, "Open": 3353, "garden": 4605, "lengths": 10707, "theirs": 19201, "smoothly": 16193, "originated": 7506, "lb": 5682, "##BR": 26166, "complex": 2703, "selecting": 19752, "aerial": 10485, "lyric": 19135, "alliance": 7214, "Automobile": 27336, "naked": 6222, "##SP": 15735, "frozen": 7958, "immediately": 2411, "El": 2896, "Album": 6429, "##oire": 19013, "satisfying": 18330, "naive": 22607, "paternal": 16063, "##rano": 23367, "clinched": 23782, "objection": 26017, "##ham": 2522, "Treaty": 6599, "solemn": 22752, "Benito": 26397, "##rve": 24941, "memorial": 6768, "moral": 7279, "Advocate": 20418, "grip": 5688, "Dr": 1987, "##ech": 11252, "squeezed": 7293, "Grimm": 27354, "Airbus": 23002, "cared": 8361, "Nottingham": 11330, "foul": 13209, "innocence": 15025, "##01": 24400, "[unused17]": 17, "Albanian": 9104, "Kyoto": 16083, "struggles": 11998, "PS": 12727, "Zhou": 15330, "Major": 2868, "viewing": 10761, "##ob": 12809, "Burmese": 15080, "##lving": 25115, "lagoon": 25237, "yellowish": 19238, "Hammer": 14473, "##\u611b": 28921, "Da": 10136, "##onies": 11506, "annoyed": 12049, "Bavarian": 15864, "resign": 13133, "Word": 10683, "Portuguese": 4269, "Division": 1784, "Rico": 6526, "##\u2088": 28715, "arguing": 8995, "##charya": 24396, "formats": 11789, "Digital": 6082, "prior": 2988, "Issue": 15653, "bastard": 8735, "Austria": 4318, "custody": 9948, "Sherman": 10981, "Gloucestershire": 16832, "\u0937": 625, "designs": 5054, "Edison": 18221, "captain": 3495, "vaguely": 16559, "Vehicle": 19357, "commercials": 13210, "gateway": 19154, "##fine": 24191, "biology": 10256, "Ladies": 10504, "allocated": 11117, "hockey": 4700, "##dged": 17363, "##\u00ce": 28189, "Cherry": 11328, "802": 26758, "Wien": 25505, "Bon": 17182, "eight": 2022, "##tara": 22875, "Winston": 9982, "##biotic": 22400, "legislature": 8312, "hunter": 11151, "Adams": 5234, "##\u6b66": 28939, "contemporary": 3793, "broad": 4728, "Tottenham": 19494, "remainder": 6311, "flourish": 27760, "capita": 8008, "##ctus": 18045, "idea": 1911, "sorrow": 17359, "##versing": 27563, "definite": 16428, "calmly": 13285, "Juan": 4593, "##ant": 2861, "\u7248": 1053, "South": 1375, "trembled": 15529, "Sin": 14009, "accompanying": 11227, "Field": 3479, "##valence": 25388, "cotton": 7825, "##cell": 22494, "NPR": 23706, "##int": 10879, "caves": 12142, "feedback": 13032, "Egyptian": 6210, "Exploration": 27734, "Marseille": 17851, "Stewart": 5272, "anthropologist": 26232, "Warner": 6049, "erupted": 12773, "Small": 6844, "sight": 3617, "Yorkshire": 6426, "Thanks": 5749, "##tography": 22556, "snack": 23029, "##\u5b89": 28909, "##uernsey": 27745, "peninsula": 10720, "colonists": 16897, "contractors": 19874, "##liptic": 24021, "Croydon": 24148, "##solation": 27959, "rallied": 27429, "customer": 8132, "Lisbon": 12007, "Tarzan": 27951, "##rier": 10914, "1762": 22840, "##\u017a": 28257, "\u05b6": 530, "##bank": 8607, "dynamic": 9652, "##ents": 9857, "blinding": 22350, "Hamas": 24574, "Niall": 24233, "##dial": 27565, "originate": 24077, "Sport": 7331, "destined": 17348, "##varo": 25751, "firearm": 27356, "##yr": 12577, "Teen": 15948, "\u00c8": 233, "Individual": 12265, "morale": 22407, "comment": 7368, "portions": 8924, "materials": 3881, "making": 1543, "Lonely": 18782, "Theology": 15673, "reprised": 25236, "baking": 26377, "sacrifices": 20597, "##sity": 13730, "porcelain": 21085, "Wars": 6238, "foods": 11785, "supporter": 10039, "darkness": 4542, "designation": 7970, "calculated": 10056, "chuckle": 16305, "##people": 21159, "##ense": 22615, "##hend": 24788, "grabbed": 3182, "inventions": 26627, "[unused92]": 92, "\u10d4": 699, "Requiem": 25426, "Parry": 24602, "attempts": 4021, "##ivity": 6366, "numerous": 2567, "Kamal": 24586, "Clint": 17267, "##root": 27906, "Stars": 6200, "##ann": 11657, "murderer": 14603, "Lahore": 15767, "local": 1469, "Especially": 11008, "manned": 16813, "Satellite": 16827, "internet": 7210, "1838": 9702, "##ivism": 26832, "##owed": 12595, "##P": 2101, "Animated": 24238, "Anti": 8329, "exempt": 19220, "##nter": 22456, "Seattle": 5160, "attachment": 15708, "next": 1397, "tuning": 19689, "Jesse": 7133, "freestyle": 11370, "Stephenson": 21567, "\u0917": 608, "squad": 4322, "##quist": 19854, "##ction": 5796, "inclusion": 10838, "sin": 11850, "moths": 16297, "determining": 13170, "Ralph": 6197, "Forget": 17323, "Seneca": 23399, "Duo": 26401, "protector": 23476, "##\u03a0": 28328, "##she": 21581, "buttons": 11760, "spectacular": 14449, "##\u5409": 28893, "##lass": 17223, "2010": 1333, "global": 4265, "mines": 7785, "Murphy": 6528, "##oper": 19807, "##\u0443": 28405, "The": 1109, "peace": 3519, "##\u03bf\u03c2": 26352, "square": 1961, "Hiroshima": 22091, "##\u01ce": 28266, "upcoming": 8851, "Nat": 15857, "##passing": 21793, "cylinders": 20732, "##\u03b4": 28341, "Plans": 17171, "excitement": 8061, "drunk": 6882, "##garten": 20927, "##bation": 19632, "salute": 22321, "##\u010f": 28216, "people": 1234, "Homeland": 21725, "Goodbye": 15938, "Mitch": 11942, "23": 1695, "Nobel": 10412, "##bes": 12866, "##hn": 7272, "##dn": 22834, "##\u201d": 28692, "191": 21625, "Borough": 7819, "##\u00e9ra": 25570, "grumbled": 18163, "Computing": 20463, "hire": 11562, "##ryn": 15023, "MBA": 16079, "Region": 4171, "231": 22154, "##15": 16337, "deeds": 19301, "##ct": 5822, "Doll": 25137, ")": 114, "##\u5357": 28888, "\u2609": 875, "forces": 2088, "Multiple": 17476, "robbery": 15522, "Shine": 22931, "grand": 5372, "muted": 25088, "families": 2073, "##cist": 14015, "##ho": 5114, "\u2077": 805, "Scottish": 3250, "\u039a": 402, "obstacle": 20382, "##tting": 19162, "wanting": 5277, "fact": 1864, "Ashe": 13811, "mimic": 27180, "regiment": 5649, "Cain": 11753, "Gregory": 6813, "##ropriation": 25406, "cable": 6095, "##ishi": 20800, "shadowy": 26117, "spies": 21761, "##oom": 23302, "selected": 2700, "essential": 6818, "Marriage": 16032, "##tower": 26915, "dedication": 13314, "cousins": 14904, "pirates": 14978, "##orium": 25285, "Marc": 7504, "debt": 6695, "dispersed": 16478, "elevators": 22167, "##\u0129": 28227, "Orleans": 5705, "Joanna": 16934, "superiors": 26917, "mandated": 17983, "\u0117": 290, "shifts": 12644, "undefeated": 16467, "animals": 3551, "flown": 10578, "comparable": 12763, "##?": 28145, "##ische": 15890, "pays": 15539, "Pure": 16665, "cooked": 13446, "retreating": 19182, "Minas": 24307, "##\u0426": 28387, "##eted": 27860, "police": 2021, "##ddin": 24691, "73": 5766, "Maker": 23279, "##os": 2155, "plotting": 23214, "##phone": 9293, "Katy": 19513, "floating": 8379, "scheme": 5471, "Coronation": 22137, "polls": 15995, "Alongside": 26589, "very": 1304, "desk": 3917, "Reform": 10201, "Raceway": 26611, "desperately": 9600, "##peculative": 25908, "##oped": 15680, "radio": 2070, "Joan": 6914, "[unused16]": 16, "conditions": 2975, "decided": 1879, "weaponry": 25773, "embassy": 12318, "90": 3078, "tourists": 9061, "##ige": 13417, "##NR": 16107, "tails": 21315, "curtains": 15800, "##ynamite": 24027, "##\u3051": 28794, "beams": 13903, "##tani": 17010, "rectangular": 10848, "show": 1437, "excelled": 25749, "graphs": 21562, "Greenville": 23035, "undercover": 20486, "##oration": 18227, "Him": 15619, "\u00b0F": 7701, "##stand": 18692, "hoped": 4320, "concerts": 6460, "splash": 24194, "Thought": 15255, "complained": 10790, "gallons": 20188, "##naire": 24730, "sequence": 4954, "\u1e45": 733, "sins": 19452, "##ngled": 25675, "##awa": 10946, "resisted": 13672, "\u27e9": 883, "Subsequently": 10608, "##\u30f3": 28866, "Cory": 19801, "##rock": 10411, "##jn": 22923, "reflex": 27820, "##ismic": 24864, "vase": 26100, "timber": 7148, "Dartmouth": 18069, "crashed": 7573, "require": 4752, "Inspector": 9089, "##ography": 9543, "Lola": 15976, "Under": 2831, "allowing": 3525, "36th": 23646, "Ya": 14680, "Kira": 15999, "fetch": 21616, "##ck": 2158, "threats": 8657, "disappearing": 15578, "##gard": 16968, "visibility": 18319, "THE": 7462, "brilliant": 8431, "\u3080": 920, "Raj": 12707, "miserable": 14531, "specializes": 18192, "km\u00b2": 2287, "mention": 4734, "Reed": 7527, "variants": 10317, "OH": 18719, "##actor": 22610, "Bailey": 9039, "Bride": 16456, "Cooperative": 22892, "SL": 27103, "Sure": 6542, "dragon": 7556, "Oxfordshire": 21945, "Cherokee": 14246, "Speedway": 12081, "County": 1391, "distant": 6531, "dry": 3712, "secretary": 4848, "warriors": 9171, "reviewer": 12827, "Peru": 7022, "Batman": 8622, "dream": 4185, "marshal": 23963, "Wanna": 17837, "Sims": 20402, "\u25a0": 871, "glare": 11043, "##50": 11049, "range": 2079, "TX": 21514, "ways": 3242, "##rille": 26327, "News": 3128, "intent": 7676, "##dious": 24348, "harshly": 23236, "apprenticeship": 24074, "contemplated": 25835, "##tosis": 26156, "organised": 6967, "Residence": 18774, "Oricon": 24660, "##nji": 21440, "endorsed": 11889, "##andra": 19799, "##oor": 15626, "##heart": 19233, "assumes": 16956, "plaque": 12592, "800": 4645, "clues": 17645, "1779": 18870, "##wati": 26986, "Davis": 3635, "discontinued": 8779, "seduce": 26317, "determination": 9220, "\u0928": 615, "Racecourse": 20042, "Don": 1790, "express": 6848, "\u0964": 635, "gas": 3245, "Samsung": 20799, "reelected": 23575, "devastating": 15667, "Sharpe": 24566, "##nese": 13309, "melting": 14838, "constellation": 19325, "##bot": 19937, "Blues": 5791, "toward": 1755, "fault": 6088, "miniseries": 15570, "##pol": 23043, "\u9f8d": 1087, "Turbo": 23344, "##azi": 19888, "Saddam": 27091, "Jonas": 10693, "reveal": 7063, "##rel": 9261, "Pain": 13304, "gangs": 21813, "SEC": 15374, "\u0406": 446, "utilizing": 19105, "Norwood": 25365, "##tem": 18408, "armored": 14085, "exposition": 27634, "therapy": 7606, "rehabilitation": 14178, "Buddhist": 7558, "Foster": 7895, "notably": 5087, "Burnley": 25670, "1769": 22632, "elaborate": 9427, "fathers": 15920, "strokes": 15007, "Gertrude": 20286, "algorithm": 9932, "Age": 4936, "alternatives": 18815, "staple": 22088, "##gne": 8376, "Logistics": 25486, "Reid": 8721, "##yke": 27142, "##oll": 12666, "accredited": 12032, "Eddy": 18998, "Hugh": 6016, "Ambassador": 8397, "Op": 9126, "Marshal": 9776, "Boots": 25023, "buzzing": 22601, "Derbyshire": 15964, "##ego": 23820, "##wick": 6196, "eyebrow": 9258, "Gentlemen": 21224, "hamlet": 9937, "mint": 22532, "##ang": 4993, "spell": 5814, "##hp": 16194, "Apollo": 9053, "##gable": 24363, "defendant": 14259, "Buckley": 19259, "##hang": 17204, "folded": 6443, "exhibiting": 25988, "consequence": 9547, "##keepers": 26888, "##oken": 27443, "##league": 28102, "slice": 16346, "Nationale": 28077, "suicide": 5680, "##crats": 22292, "segments": 9038, "##\u25cf": 28766, "worms": 23357, "blurred": 20611, "Alvin": 18577, "aboard": 7161, "maneuver": 19844, "Erik": 10129, "Spot": 28091, "Listen": 10817, "console": 10662, "##tail": 11154, "bonds": 10150, "carefully": 4727, "##TL": 20156, "retention": 23406, "beard": 12832, "Rafael": 11002, "concentrating": 18761, "Avalon": 20613, "##inder": 23216, "Enrique": 16683, "bicycle": 11639, "##\u1ec5": 28650, "breasts": 13016, "##thermal": 27703, "antenna": 14843, "walking": 3179, "No": 1302, "##IX": 19678, "Turtle": 26024, "newest": 15649, "Stadion": 25297, "##rmal": 25635, "Scientology": 26973, "nut": 22664, "##\u0142a": 26617, "##asa": 18384, "evaluating": 27698, "Came": 23878, "Rees": 24646, "jerk": 12935, "##bidae": 20761, "nationals": 17160, "Hundreds": 25793, "Lucius": 16614, "##ello": 13323, "Anand": 20556, "&": 111, "Madeline": 18087, "Origin": 18999, "##\u3068": 28805, "\u3072": 917, "platoon": 18231, "##oft": 18874, "bidding": 19520, "##hmann": 28111, "##dynamic": 24662, "mentions": 9541, "gastropod": 10933, "Mongolian": 19210, "calculation": 19218, "\u2227": 856, "simpler": 17633, "\u2090": 824, "framing": 23431, "boat": 3499, "##HF": 13561, "##lind": 27969, "##emon": 25027, "sentence": 5650, "widespread": 6506, "sizes": 10855, "night": 1480, "brings": 7100, "Democratic": 2978, "refrain": 24296, "Face": 10289, "Faso": 25408, "##\u00d3": 28191, "pursuing": 12137, "Cage": 15693, "Plus": 8696, "##lde": 20937, "precisely": 11228, "Nationalist": 18018, "##utile": 26555, "Squad": 14346, "##\u99ac": 28978, "##tus": 4814, "businesses": 5028, "##ational": 21404, "brand": 4097, "Half": 8636, "viable": 15668, "certificates": 21487, "Medical": 3875, "Sinatra": 21396, "600": 4372, "##ence": 7008, "reacted": 15510, "Humanities": 14860, "Euro": 11854, "Garland": 20119, "##ono": 23038, "coffee": 3538, "raced": 7850, "adjoining": 14241, "stir": 17977, "alias": 17486, "\u03bc": 429, "brownish": 21233, "desires": 15827, "cleaner": 23722, "##bery": 19941, "swallowing": 24841, "Kings": 6560, "cardinal": 15058, "##ckers": 24138, "guarding": 18648, "222": 20640, "sibling": 26563, "Gothenburg": 25419, "##\u0111": 28218, "##vo": 6005, "Strand": 21939, "panting": 17700, "resemblance": 14634, "pounder": 22809, "Sir": 2203, "##\u00e8s": 10695, "##\u014b": 28236, "broader": 12594, "diameter": 6211, "1785": 18425, "ensemble": 9525, "\u1e29": 730, "curves": 10642, "tennis": 5538, "guide": 6388, "informing": 24388, "Amir": 22135, "monkeys": 22413, "Opposition": 16475, "Iran": 3398, "talent": 5939, "##fled": 19036, "Estonia": 10579, "murmurs": 26792, "##nt": 2227, "Liberal": 4561, "hate": 4819, "##lite": 21998, "Dunedin": 24377, "filly": 27090, "Romantic": 20359, "Fremantle": 22231, "Flames": 19002, "Penang": 24099, "Profile": 26890, "spying": 26470, "##coil": 27137, "Marianne": 21659, "8th": 5192, "mail": 6346, "##ties": 4338, "##volved": 19628, "Commission": 2827, "suspicious": 10108, "Excellence": 10600, "##mina": 14503, "bred": 14698, "unit": 2587, "##rato": 24306, "dropped": 2434, "##reaked": 28051, "Vlad": 20868, "assess": 15187, "Como": 25143, "##thorpe": 22194, "inhabited": 9375, "scored": 2297, "##PO": 23329, "##genus": 27651, "Acting": 12608, "##HS": 11420, "Today": 3570, "man": 1299, "Rhode": 9502, "hiking": 14249, "##ision": 15575, "\u0395": 398, "##take": 13482, "postwar": 24217, "Pig": 23350, "##tony": 25843, "poured": 8168, "niece": 12585, "border": 3070, "Ava": 11651, "paused": 5162, "Boone": 15753, "##rified": 24269, "##\u30c3": 28843, "poised": 25156, "an": 1126, "accounting": 11438, "Assyrian": 21734, "teammate": 10871, "worshipped": 25610, "275": 18783, "Improvement": 22053, "dos": 18463, "Twin": 12213, "Bravo": 19465, "stacks": 24879, "dimensions": 10082, "##bred": 26774, "##\u0445": 28407, "1828": 11521, "Mat": 25702, "Prussian": 10633, "##dus": 15307, "cheap": 10928, "##gged": 12165, "companies": 2557, "mythical": 22766, "Crystal": 9048, "##pur": 4093, "illustrated": 8292, "Knox": 12124, "##duct": 13890, "##tion": 2116, "\u2071": 801, "Evening": 11718, "overlooked": 18459, "##\u5fc3": 28920, "De": 3177, "##acing": 18715, "relentless": 26011, "##sect": 26338, "##h": 1324, "##where": 15839, "\u795e": 1064, "##UP": 18124, "520": 21338, "Eton": 24085, "##ira": 5132, "##OR": 9565, "##nger": 11576, "tendencies": 23581, "[UNK]": 100, "##ron": 3484, "survey": 5980, "retains": 15208, "manufacturing": 5863, "##ery": 5075, "Johannes": 12697, "mouse": 10322, "IEEE": 16206, "##rrell": 11862, "##eak": 23783, "\u2075": 803, "Yoga": 25035, "noir": 25766, "cute": 10509, "AND": 16716, "slaughter": 20723, "1811": 13370, "Engine": 13451, "##ppard": 22261, "wins": 4646, "##ocks": 18347, "Bachelor": 6143, "amateur": 6135, "larger": 2610, "bronze": 4394, "##\u0420": 28381, "Troy": 9454, "facade": 10611, "##cluded": 23498, "Nov": 14152, "##\u300b": 28781, "Virgin": 6567, "Current": 9493, "Deputy": 4831, "shimmering": 25378, "Laboratory": 8891, "ambulance": 13342, "riots": 14584, "##ink": 10223, "##mler": 20465, "hold": 2080, "##NU": 21760, "##eni": 21462, "##onized": 25331, "deity": 13924, "threat": 4433, "Uprising": 22326, "paddle": 24845, "##quin": 12934, "GAA": 22156, "armour": 14583, "kidney": 16042, "garrison": 10609, "tempo": 16655, "##ifications": 25583, "Piedmont": 20970, "##\u2032": 28699, "Mr": 1828, "Schumacher": 24656, "Special": 3139, "##AC": 8101, "##yre": 10930, "##m": 1306, "resembles": 13198, "cartoons": 15669, "##played": 26669, "m\u00b3": 14813, "colors": 5769, "Concord": 18314, "NSA": 27020, "LSU": 24184, "##\u0bbf": 28583, "walks": 7104, "##aar": 26028, "sway": 21931, "##hl": 8495, "##powering": 26703, "##\u062d": 28480, "Suite": 14958, "lightweight": 14939, "Tank": 12466, "assign": 27430, "concerning": 6995, "Job": 18235, "anymore": 4169, "collecting": 9370, "##pm": 9952, "Fe": 11907, "##lington": 21103, "Leah": 14809, "boasts": 24372, "attach": 25337, "community": 1661, "\u4e0a": 978, "##vert": 12986, "##ynx": 22093, "Chichester": 26101, "vertex": 22132, "coefficients": 23795, "##BC": 9428, "1907": 4796, "##vik": 13160, "shattered": 11670, "##rid": 10132, "crafts": 22009, "profitable": 16244, "Guerrero": 18079, "bases": 7616, "Diocese": 7169, "##odes": 19419, "culturally": 23656, "addressing": 13735, "Again": 5630, "##ologies": 20941, "##dized": 26332, "bombers": 12555, "maize": 26114, "Indianapolis": 9205, "motorway": 15316, "##cise": 14636, "punishment": 7703, "##pop": 18299, "Stokes": 20476, "##ys": 6834, "obsessed": 17597, "diagnostic": 20346, "cooperation": 7395, "Exactly": 18342, "##itution": 27067, "fibers": 18064, "inhabitants": 4131, "hovered": 19594, "62": 5073, "##laus": 17442, "Shepherd": 13444, "barrier": 9391, "##ching": 7520, "##sta": 8419, "painted": 4331, "prophecy": 19214, "Savannah": 11304,
[...]
