{"##soil": 28663, "pregnant": 10420, "(37)": 19628, "##prim": 13998, "confocal": 12558, "oval": 22473, "gynecology": 26508, "caribbean": 28120, "##\u00e8s": 18591, "sid": 17092, "turkish": 24723, "##tom": 22759, "##iors": 25901, "##erves": 26836, "13%": 21981, "complements": 27599, "perspective": 5211, "##olec": 13540, "tables": 5993, "chall": 2507, "##tiff": 23897, "reprogramming": 27158, "cytotoxicity": 11941, "crop": 8501, "schwann": 24803, "spectra": 4179, "aro": 25497, "3),": 12068, "faint": 26249, "1983;": 18995, "propagates": 29953, "undertake": 25250, "factor": 1491, "force": 3163, "nodes": 2207, "ign": 6321, "periodicity": 22876, "isomorphic": 16532, "lect": 13077, "[unused87]": 88, "matter": 4067, "its": 633, "cod": 4511, "choos": 7048, "1980": 10998, "##fem": 16121, "shareholders": 25685, "##emerg": 29001, "sentinel": 27542, "probes": 7932, "##7]": 4557, "toronto": 17395, "(1998),": 28144, "way": 1804, "##\u7535": 31065, "(1980": 26711, "##linger": 28652, "leakage": 9861, "breaks": 13960, "##rist": 21952, "abd": 12378, "##\u7684": 30346, "intellectual": 12290, "##.(": 9510, "employer": 22841, "##\u201e": 30325, "engl": 15065, "games": 8472, "blotting": 13065, "##\u0097": 30717, "spectrom": 6986, "lastly": 16065, "bank": 5108, "annih": 24185, "##\u222a": 30270, "corrected": 8849, "inferences": 17715, "buildings": 13675, "##\u0418": 30751, "thymus": 21064, "pair": 2147, "antic": 5163, "knowledge": 1767, "wall": 3545, "137": 14671, "##18].": 24151, "priorities": 16409, "victor": 16309, "arrival": 9790, "##ighter": 15562, "suggests": 3082, "dox": 12022, "intimate": 24525, "##ting": 586, "\u03bc\u03bd": 26214, "investment": 6544, "##eration": 1759, "nur": 6254, "##ati": 229, "##veness": 8417, "tone": 11191, "fetal": 6993, "denti": 13403, "##hot": 15531, "16-": 17026, "proposal": 10604, "bel": 1208, "assay": 3031, "got": 11268, "powders": 28156, "1\u2044": 27822, "##management": 18018, "flank": 14797, "##(3,": 20048, "biomaterials": 25399, "##aline": 28669, "##\uc5ec": 30719, "bovine": 8721, "##7\u2013": 4163, "preliminary": 6538, "eing": 15121, "##.1": 536, "##eng": 929, "influence": 2496, "v": 171, "emission": 3653, "wound": 6953, "##ressed": 9707, "anova": 8183, "droplets": 16381, "##planar": 22552, "##nx": 23495, "frame": 4037, "abet": 29570, "miniatur": 29714, "bilayer": 18476, "##\u2666": 30486, "rag": 17117, "offsets": 26131, "57.": 20128, "feces": 26774, "##neighbor": 25472, "vz": 28661, "conformal": 18435, "##meas": 8560, "7:": 10723, "splitting": 11050, "sympathetic": 14247, "regards": 14991, "##plates": 12465, "##geben": 19627, "retrospectively": 18818, "ingredient": 24351, "##heits": 19891, "##roleum": 20536, "##\u3082": 30561, "weakness": 11688, "##pc": 3808, "funded": 10084, "##athe": 7018, "collect": 9921, "##essors": 22632, "concert": 29685, "piezoelectric": 20668, "##tec": 27734, "viewed": 8071, "##ili": 3145, "rech": 14182, "##rea": 17747, "classifying": 18929, "##\u22c6": 30416, "axonal": 16967, "prud": 29599, "##fj": 21153, "spine": 10173, "due": 1074, "##ended": 1803, "##achy": 11576, "##gc": 5226, "isotopic": 19920, "diagnos": 2633, "clinic": 7234, "##ardi": 14851, "equivalently": 16446, "st": 177, "##uned": 22104, "iden": 4322, "##caemia": 26702, "collection": 3445, "##\u2217(": 9026, "doi": 2624, "sectors": 11329, "vl": 8496, "(300": 20026, "##roff": 27150, "colombia": 29234, "##ture": 621, "##asy": 15454, "##mol": 7103, "endotoxin": 23881, "secured": 26048, "bracket": 23106, "cox": 7855, "estimator": 9229, "##atology": 11120, "igfbp": 26506, "##\uc11c": 30573, "lyapunov": 16884, "0.70": 18254, "##avour": 28907, "pays": 27827, "enzymatic": 10835, "tubular": 15174, "##thrombotic": 29610, "inhaled": 21654, "antonio": 26167, "mmhg": 12840, "##asters": 27206, "databases": 7451, "researcher": 12551, "##ont": 1964, "iter": 4546, "chimeric": 21413, "##ogroup": 24620, "microl": 23772, "osteoclast": 23784, "scavenging": 21550, "##194": 29241, "been": 528, "medical": 1934, "##.\"": 7958, "##taining": 5979, "syntax": 12005, "osteoarthritis": 19860, "##bmi": 18704, "keller": 27669, "benchmarking": 27916, "##]": 30153, "3.1,": 27111, "nets": 14454, "##\u1ebd": 30492, "fis": 5665, "##atr": 7721, "library": 5560, "##gam": 14256, "scheduling": 6393, "elimination": 9598, "1/3": 24203, "sponsor": 27649, "##cloud": 29093, "(29)": 14875, "2008).": 6270, "##\u4fe1": 30710, "expresses": 16836, "canc": 6479, "universit": 9529, "##ifold": 19981, "##\u00a3": 30306, "speeds": 12981, "require": 1740, "##bral": 5276, "biology": 4966, "##1\u2013": 3066, "phrase": 14367, "compiler": 14580, "##bias": 26222, "2006": 6186, "##ocytosis": 10161, "1975": 16793, "kappa": 19685, "second": 971, "representations": 6859, "wf": 18190, "1983).": 22340, "grade": 5415, "synapt": 25385, "lanes": 16442, "##model": 8885, "cattle": 12365, "##\u2030": 30516, "functional": 2131, "integers": 13166, "interpretations": 14639, "aw": 9559, "analogs": 20073, "##izable": 11716, "33,": 15747, "op": 561, "xanth": 20266, "##waters": 25723, "##\u2032(": 9094, "igf": 9396, "##vo": 9496, "##itate": 12956, "2.2": 3665, "##13,": 12607, "##lek": 25466, "##issible": 13546, "vibration": 11481, "26,": 10784, "##!.": 12818, "##ieu": 19130, "infect": 12943, "lowest": 5480, "##wv": 27813, "rq": 17527, "couplings": 18878, "flo": 5895, "##bm": 3819, "finger": 7405, "clocks": 26352, "alphab": 16587, "cohorts": 13115, "pharmacology": 15614, "clone": 11352, "##neut": 16839, "airflow": 27576, "medically": 29971, "##\u5927": 30586, "mst": 24257, "consec": 6806, "8.3": 19005, "neglected": 13592, "predominantly": 9446, "##engine": 15887, "##na": 648, "##olin": 11032, "##olog": 388, "midpoint": 27031, "accelerometer": 23855, "harboring": 24466, "liability": 18449, "complexes": 5314, "stably": 19753, "##mans": 23905, "chemicals": 10002, "##lat": 11307, "realistic": 8538, "cartilage": 11508, "carter": 26128, "##ynchron": 11056, "rearrangement": 18808, "trend": 5144, "##aren": 26105, "##\u56de": 30994, "epidemiol": 21956, "##entes": 29094, "##17].": 23264, "rectum": 25277, "kum": 24553, "sds": 7996, "porter": 27960, "diss": 2681, "house": 4159, "influx": 17462, "asthma": 7742, "(8).": 16606, "confir": 2359, "##pel": 14037, "circumvent": 24764, "crosslinking": 28299, "partners": 6830, "caspase": 9249, "beverages": 28651, "psychi": 5663, "##scr": 28847, "barnes": 29148, "thri": 29808, "##\u30ec": 30909, "##immune": 10206, "lactate": 13537, "eric": 23305, "##quilibrium": 21472, "propulsion": 27642, "offset": 9114, "asymmetry": 11767, "galactic": 22051, "\u0101": 22294, "topological": 9853, "pll": 28316, "confidence": 4885, "##innen": 28627, "invited": 17819, "khz": 11428, "##teries": 17728, "##\u22a0": 31063, "franklin": 28116, "welding": 27290, "snp": 11000, "##diagn": 15056, "adc": 15521, "dissipation": 14123, "##ampl": 15899, "##bage": 23577, "meta": 5363, "##asse": 16679, "ser": 846, "relationship": 1654, "manner": 4328, "traced": 21158, "immunological": 17050, "chap": 3953, "sens": 1625, "vena": 28582, "cuff": 20951, "277": 26115, "mentioning": 26246, "##dl": 3547, "toward": 2536, "aspiration": 17058, "##adv": 18873, "ideal": 5312, "luminance": 20595, "achieved": 3178, "##\uc5d0": 30490, "analogous": 10125, "australia": 7266, "##vet": 24929, "##issen": 14529, "##func": 8197, "##8).": 2234, "##ophilic": 12101, "##\u00f3": 30231, "env": 22097, "bronchial": 19440, "##ala": 6999, "zz": 23591, "forebrain": 29907, "##haus": 7478, "rescue": 15145, "aerospace": 25702, "ensemble": 10623, "##ew": 756, "dogs": 9646, "##vinyl": 21600, "pds": 26303, "job": 4417, "syn": 977, "servers": 9796, "truly": 15443, "eman": 25946, "##west": 11070, "bran": 11530, "incom": 5213, "inves": 1289, "##oria": 22488, "protects": 19001, "affine": 15010, "##encoded": 25364, "investigations": 7485, "involved": 2296, "cook": 16266, "uncover": 22099, "##onder": 28610, "spiking": 26107, "xd": 24075, "##hel": 1515, "##rip": 9952, "occasional": 20647, "belonged": 25424, "immature": 15464, "synchronization": 9240, "desktop": 21818, "##letter": 28406, "##mur": 19313, "##mont": 23890, "##orn": 3169, "scales": 5690, "##\u20131.": 25320, "vet": 17801, "nip": 26119, "cartesian": 18727, "kad": 27495, "contribute": 4362, "interchange": 19971, "colloid": 26858, "##horiz": 27383, "##pharose": 26012, "##vec": 22081, "replic": 6377, "##rand": 28561, "##acqu": 21179, "##oker": 20487, "##category": 28637, "clouds": 15095, "##uchy": 21787, "gamet": 21345, "##resp": 995, "vin": 14279, "tibia": 23630, "vascular": 4380, "##atz": 8665, "##nesota": 20049, "##kinson": 9991, "##indole": 29222, "214": 18248, "burg": 29103, "favors": 24528, "only": 617, "##ilen": 25528, "1999;": 7309, "photometric": 25701, "gabor": 24720, "inverted": 13455, "##reading": 24470, "grammar": 13436, "##.)": 3104, "##stained": 16939, "##major": 25100, "fev": 20431, "2009)": 14891, "##thy": 20373, "235": 21899, "##bv": 18791, "vand": 22033, "lassen": 25720, ",0": 20712, "content": 2118, "##anial": 9412, "cylind": 12159, "treg": 18750, "reviewed": 6329, "prototypes": 22021, "processes": 2125, "built": 5896, "##\u2223\u2223": 8257, "circ": 1701, "286": 27687, "ai": 4725, "##90%": 25844, "##imura": 26450, "16": 1107, "##\u7269": 30755, "##iced": 20131, "localized": 7560, "[25],": 23036, "##,\u201d": 2878, "525": 29929, "cave": 15335, "highway": 23147, "##inflamm": 6652, "##4;": 2821, "signal": 1261, "gay": 22857, "0.63": 25768, "conclusions": 3078, "\u3008": 4388, "focused": 4786, "appro": 581, "exponentially": 13326, "deleterious": 19133, "[1": 637, "jahren": 23134, "unse": 14573, "fasc": 13947, "prolifer": 29597, "##schitz": 19640, "##rq": 29944, "rational": 5768, "##sion": 312, "multiplicity": 17578, "actor": 17035, "##lyn": 26988, "c": 115, "##tm": 8400, "mais": 19208, "guaranteed": 12982, "transmitters": 26142, "narr": 11244, "sin": 859, "##256": 24085, "##litazone": 29046, "ontario": 16135, "endot": 4360, "##ostomy": 21531, "##user": 10092, "hard": 2723, "compromised": 15463, "##tium": 12877, "##interaction": 28704, "less": 1279, "##zerland": 11665, "##.3)": 7105, "kinder": 21801, "consciousness": 15482, "yellow": 8636, "schon": 19892, "opioid": 15221, "vein": 8829, "staphyl": 13695, "(18)": 9744, "##zens": 11451, "remarkably": 13688, "accompan": 6881, "disposition": 18284, "bol": 8308, "apart": 8394, "ba": 4087, "violations": 19159, "lt": 7533, "##xr": 12320, "fing": 16819, "bog": 17742, "utilization": 6861, "##methylated": 29819, "##ailing": 13173, "hair": 8241, "##174": 25553, "hscs": 28429, "maize": 13156, "inhibitors": 5241, "valu": 6655, "prov": 627, "isoflurane": 27975, "harrison": 24578, "bmi": 7481, "##reduce": 24718, "##7),": 6212, "##\u239d": 30394, "adherence": 9755, "sums": 17791, "trials": 3270, "transform": 2572, "##\u2013100": 18632, "##ag": 210, "currently": 3803, "(11,": 25836, "waveforms": 15632, "neuropathic": 27136, "chiral": 13450, "rand": 15050, "##leigh": 17446, "##lb": 15776, "neg": 1415, "wish": 10331, "possible": 1263, "##iring": 5797, "##ithi": 25245, "neglig": 8769, "##ington": 18325, "immunogenicity": 27792, "horse": 18944, "undergone": 15686, "util": 2045, "udp": 21417, "unique": 3454, "mucin": 23123, "1992.": 15646, "recogn": 2090, "qualit": 5353, "nanop": 5582, "##snr": 23436, "else": 4192, "normally": 7261, "##due": 16318, "##itating": 17642, "stap": 24260, "removes": 19373, "##oxane": 29051, "490": 26915, "##df": 7385, "##four": 12568, "136": 16185, "cock": 16296, "##ulation": 595, "##trand": 26417, "tens": 14250, "42%": 27991, "periphery": 17392, "##ogen": 1223, "##omyelitis": 25953, "shar": 6103, "compr": 5032, "##union": 25845, "##ating": 560, "##\u22121\u2211": 14375, "ace": 9214, "\u03c9": 3225, "garc": 14729, "calcification": 20473, "##concept": 20450, "##hea": 11718, "kil": 12911, "granule": 19567, "but": 563, "##gone": 14906, "adipocytes": 19790, "##\u2019": 30158, "brother": 24171, "pipes": 29438, "##\u0304": 30213, "dil": 3851, "##hyth": 6727, "##partic": 8679, "##uclein": 27147, "##qx": 27690, "mif": 28731, "##00.": 15014, "equil": 3615, "trim": 9928, "monolayers": 20209, "bon": 8211, "seism": 14914, "metal": 4353, "contours": 16064, "cool": 6240, "phospholipids": 23308, "thymocytes": 29048, "alp": 22907, "redistrib": 21314, "##temperature": 15141, "(33).": 29979, "##7.": 1274, "ninety": 27845, "##poly": 13528, "ew": 12113, "plan": 3416, "##coated": 12785, "glycerol": 13045, "intron": 16485, "equality": 10247, "jensen": 20377, "mathematic": 25432, "##function": 4784, "correction": 5799, "saved": 16952, "##illary": 5990, "expertise": 11731, "hint": 28949, "nj": 8877, "zs": 25893, "doch": 28678, "ish": 15952, "pasc": 24395, "policym": 26603, "##elsen": 16428, "auc": 8362, "hans": 12475, "[unused23]": 24, "wideband": 27989, "4.": 1663, "words": 2880, "resp": 478, "##.1%": 11595, "hairpin": 28398, "##ylob": 29639, "##.4)": 7623, "##uture": 2047, "critical": 2616, "lord": 26965, "168": 17749, "gupta": 20847, "##\u00b7\u00b7\u00b7\u00b7": 28677, "hinge": 26433, "alv": 29432, "parallel": 3098, "##pson": 10830, "[unused74]": 75, "bed": 5630, "##energy": 10220, "(5,": 17831, "cater": 28774, "##tg": 7750, "##eno": 13205, "encourage": 12902, "borrow": 14487, "##kinase": 17503, "democratic": 19232, "##rx": 21606, "endothelial": 5700, "abroad": 25443, "##1)(": 28048, "database": 3139, "##unic": 8160, "homology": 11600, "familial": 15475, "ascorb": 18165, "(9.": 24137, "##omotor": 19062, "perm": 5042, "##clamp": 23141, "supreme": 23637, "camera": 5859, "liter": 2142, "joseph": 16963, "art": 5751, "dysp": 17983, "##apto": 25263, "reed": 18992, "neph": 7985, "##aterial": 16448, "##..": 242, "mask": 11660, "zusammen": 20643, "##naec": 28888, "feas": 4904, "indicates": 3322, "syll": 14960, "gibt": 27144, "danish": 21220, "extracted": 4271, "proliferation": 4498, "##hn": 4804, "contrasted": 28645, "##vascular": 11339, "introduces": 10646, "pes": 12162, "exchanging": 28710, "##plicated": 4392, "partially": 5667, "##bred": 19551, "near": 2396, "##qd": 27028, "seasons": 18079, "ins": 722, "save": 13446, "decided": 9972, "dimensionality": 16092, "(1998)": 11287, "activating": 13370, "phosphatidyl": 18239, "auxiliary": 12443, "microv": 22027, "stress": 1893, "##ovi": 20437, "##ucleotide": 22682, "##1,000": 29731, "surveillance": 8569, "##167": 24052, "numbers": 3067, "dried": 9478, "preparation": 4737, "##\u00d710": 12958, "kont": 29427, "##])": 7634, "4.6": 13891, "##inesterase": 28657, "gc": 6723, "interacting": 10253, "than": 506, "snps": 10354, "inverter": 13850, "pores": 16751, "imperative": 19370, "bean": 23022, "curcumin": 20920, "scientists": 10639, "##oping": 26100, "##daw": 24549, "##fried": 28547, "catholic": 29927, "deadlock": 29994, "##\u220f": 30308, "caffeine": 19461, "preced": 6864, "ken": 10248, "germination": 16171, "##0]": 17569, "##\uc6b0": 31028, "69": 7751, "tachycardia": 22160, "cll": 25059, "1.06": 28151, "interconnected": 18803, "ve": 1613, "lb": 9813, "rapidly": 5450, "pyramidal": 18223, "radiography": 27086, "##\u201d": 30161, "prohibited": 16687, "cured": 25325, "journey": 27886, "##immunoprecip": 28605, "ria": 25402, "same": 855, "##wit": 29764, "datab": 2597, "provisioning": 26582, "##cb": 10594, "graph": 1845, "##dehyde": 7850, "chun": 18856, "(2005),": 25538, "rice": 8058, "59,": 23849, "##\u039b": 30253, "lists": 7439, "##\u0640": 30454, "alters": 17318, "##\ub098": 30785, "##-5-": 19929, "##:7": 16252, "waals": 29261, "##here": 2454, "##ido": 10612, "mcg": 18728, "ischaemic": 27421, "ciphertext": 29231, "##echnology": 8637, "special": 2618, "entail": 19841, "150": 5413, "##zung": 22835, "##iven": 20142, "shift": 4338, "ihrer": 22222, "purification": 9951, "##dry": 21499, "##aches": 2267, "##\u011b": 30577, "critically": 12313, "-4": 16608, "autoanti": 19279, "keeping": 9573, "drg": 26845, "##ections": 2481, "pct": 26679, "##uation": 4685, "bonferroni": 19299, "##\u00b0.": 25708, "neuropath": 11343, "ataxia": 26913, "precl": 16601, "encephalitis": 27494, "relevance": 7246, "lee": 5783, "regression": 3089, "cytosol": 19100, "direction": 3041, "herz": 19514, "[15]": 8363, "##5].": 4646, "concepts": 4854, "##oul": 6798, "eur": 9171, "##.1).": 26529, "twofold": 20617, "##ivan": 18623, "erythrocytes": 19099, "##imide": 21943, "besides": 7007, "phosphorus": 14866, "##ichlet": 21686, "##producing": 15580, "##.47": 20765, "19": 371, "##wy": 25517, "##\uf8ef": 30962, "hansen": 20423, "##gj": 26374, "[1]": 5263, "quadr": 6085, "1\u2013": 9311, "trif": 19077, "##\u239c": 30330, "0.0001": 10464, "sca": 23237, "gao": 17218, "stochastic": 6349, "##>.": 27139, "[unused72]": 73, "##smith": 16221, "diction": 11618, "distinguishes": 23837, "##doped": 20216, "##selected": 20392, "confers": 25952, "##itr": 3932, "##commercial": 17174, "##px": 18233, "rho": 16745, "issues": 3293, "high": 597, "poland": 16924, "nanotubes": 18764, "##ropol": 15699, "##j": 30144, "##\u0410": 30672, "cette": 22486, "##23,": 16604, "##ategory": 4453, "said": 6032, "caro": 8673, "##fet": 16054, "pediatr": 17002, "43%": 28997, "##./": 22941, "chronic": 3164, "##ass": 465, "##\ud574": 30818, "##rib": 413, "depic": 6234, "summing": 20363, "splic": 9248, "##stimulating": 27302, "thromboem": 22138, "##pet": 8403, "visualized": 11590, "hearing": 9519, "further": 911, "##entin": 28590, "##formation": 687, "##alc": 13861, "returning": 18471, "spouse": 29624, "##stead": 24128, "##\u4e2d": 30519, "\u2225": 8172, "cms": 20299, "##tests": 19020, "showed": 1367, "##\u1e1f": 31043, "##ticas": 28548, "##ulin": 2751, "(16,": 29389, "surgery": 2797, "##water": 5056, "##correspond": 11390, "december": 5854, "vocabulary": 14401, "obligation": 26671, "##frag": 24139, "substitute": 15544, "##V": 30503, "##agging": 14249, "##cohol": 4403, "##0).": 2441, "during": 781, "literary": 29061, "academia": 29224, "written": 4293, "nested": 12686, "##helial": 3362, "losing": 20196, "arf": 24133, "roche": 20032, "menopause": 27376, "##fern": 23107, "entrepreneurs": 18301, "refs": 20225, "##fuzzy": 29538, "(95%": 7470, "phage": 16148, "##hydrogen": 10402, "assays": 5443, "##\u201316": 15316, "##abd": 22783, "49.": 17963, "gsk": 20362, "tumour": 7421, "spe": 1631, "mhz": 6611, "##aceu": 7800, "centroid": 19447, "##omas": 4190, "rate": 1013, "##dual": 21347, "coinc": 7520, "##ulsive": 16384, "##null": 17559, "municipalities": 27920, "phag": 12403, "##\u22121)": 4814, "##-20": 9401, "ester": 11353, "##zes": 9210, "repres": 837, "characterized": 3765, "cage": 16312, "##lea": 27481, "##center": 15731, "toll": 19092, "##lipidemia": 21548, "##1]": 3134, "##fun": 27506, "rece": 858, "zhang": 5527, "trainees": 27072, "11).": 21494, "##idazole": 17429, "enzymes": 5554, "hemodialysis": 22982, "##alpha": 12221, "fill": 5104, "striking": 11751, "##nag": 23751, "expenditure": 12667, "workflow": 11479, "discern": 18680, "##rera": 26397, "##ander": 8094, "##\u0442": 30275, "proposed": 1337, "245": 23427, "##ique": 2724, "##end": 372, "directory": 20572, "ventilator": 27879, "ph": 375, "arginine": 18377, "(\u223c": 18706, "pension": 21894, "##cid": 24497, "##yled": 29288, "undoub": 23362, "fu": 4339, "chemistry": 5727, "group": 583, "##hip": 1192, "gamma": 8831, "misuse": 28239, "beha": 1179, "categor": 3161, "surprisingly": 11698, "##alanine": 19197, "##226": 28330, "[15],": 15924, "sine": 20575, "##/100": 15850, "121": 15829, "##30.": 20824, "[9].": 7924, "ih": 6730, "##array": 9081, "probe": 5102, "cards": 17235, "##lasting": 25000, "##'-": 12588, "##lear": 1183, "##iki": 18276, "\u22121": 4551, "triangle": 12032, "gering": 18597, "spoken": 18590, "answering": 20147, "##\u89e3": 30875, "align": 4246, "pick": 8766, "gastroenterol": 26968, "##\u011f": 30352, "\u2229": 6408, "##writing": 24532, "##ependent": 1429, "consecutive": 7315, "building": 4736, "##ridge": 28611, "##isors": 19076, "held": 7243, "stroke": 5177, "##akov": 25305, "prerequ": 17792, "2%": 9614, "wires": 17162, "end": 864, "##park": 22625, "authorized": 17658, "##zen": 4633, "logarithm": 17949, "lethal": 15629, "##osm": 19889, "crt": 21575, "mannheim": 29511, "fashion": 8813, "1992": 14527, "emergency": 7410, "##itary": 7164, "modulators": 24542, "residing": 25632, "78": 7898, "(10.": 22501, "explore": 5610, "rows": 10392, "##till": 1939, "phosphorylated": 12602, "##central": 15250, "##\uc2e0": 31060, "quote": 29652, "##ho": 6147, "grafts": 16458, "##gar": 11142, "characterised": 16488, "##merc": 17876, "##physical": 19350, "purs": 9030, "instr": 3491, "csp": 18305, "numerous": 5876, "spez": 26804, "##\u0109": 30420, "##yj": 20492, "wins": 26358, "##\ud558": 30489, "(1993)": 14759, "##188": 27129, "##figure": 1794, "##0:": 17217, "compiled": 17667, "##acture": 3806, "height": 4583, "successive": 11026, "vh": 14634, "##fib": 17439, "##reported": 11350, "##conventional": 27880, "##department": 6980, "tex": 2335, "##oses": 15240, "pacs": 29169, "##chloro": 27782, "disordered": 18956, "article": 2148, "##\u21e0": 30943, "threats": 15504, "responsibility": 9945, "##negative": 5986, "conv": 5597, "diagnostics": 14405, "##attrib": 22325, "glial": 17391, "1986).": 18645, "implantation": 10949, "##kal": 11330, "diagnoses": 12797, "##\u56fd": 30926, "gee": 28954, "silicone": 23570, "industry": 4569, "##types": 10356, "styl": 12641, "probably": 4752, "##.,": 349, "##\u221e(": 17096, "##hplc": 26157, "k\u00f6nnen": 20397, "##harmonic": 23703, "[47].": 26084, "bite": 27564, "exped": 28480, "constituting": 29262, "##ofluorescence": 12898, "registers": 16102, "reflects": 8016, "##burg": 6285, "inclination": 23661, "payments": 16603, "##ritis": 6631, "##ur": 166, "holland": 25763, "corticosteroid": 24193, "##(\u2212": 10471, "adul": 15223, "anch": 9648, "supervision": 14631, "##wf": 16972, "viable": 10109, "crops": 12760, "##teil": 14201, "histopathology": 23443, "interp": 2140, "##reci": 8457, "##atrol": 25442, "comparative": 6935, "matthew": 29077, "download": 12922, "aided": 23999, "irrig": 27388, "digit": 14116, "methylation": 8163, "##88": 4582, "genetics": 8476, "micrornas": 26023, "termin": 5627, "11": 1021, "mim": 6417, "##clin": 8038, "hexane": 25943, "mel": 3341, "distor": 6849, "(195": 11924, "##6\u2013": 6875, "dissem": 10041, "broadly": 13771, "##scientific": 17236, "aerodynamic": 28248, "increases": 2348, "sur": 557, "##circulation": 28469, "##uno": 29804, "obes": 4735, "haplotype": 16147, "##:22": 27315, "collateral": 20237, "##color": 18365, "##bled": 10240, "diabetes": 3604, "deer": 23058, "delib": 22558, "drastic": 25728, "segreg": 11473, "determinants": 10687, "##1)": 838, "lowers": 26150, "actors": 11739, "(\u201c": 11223, "##ofl": 13673, "##siveness": 9516, "(%": 14276, "subunit": 8440, "##uez": 17774, "##upt": 21382, "branched": 22836, "bereits": 21900, "trough": 21854, "##queous": 7529, "semigroup": 25546, "##\uc7a5": 30907, "behaves": 20790, "exch": 3702, "attention": 3577, "##6/": 4647, "inspection": 10999, "hop": 6872, "accumulating": 23262, "rep": 6295, "geodesic": 21905, "insertions": 22035, "destinations": 26436, "surfactants": 27303, "##cutaneous": 8415, "##glycer": 25276, "(2.2": 13753, "##motion": 26943, "scanning": 7070, "acquiring": 19264, "insert": 12426, "ont": 4610, "##inar": 26975, "bottom": 5473, "blackwell": 19073, "1.1.": 22122, "350": 12548, "##\u7528": 30502, "succeeded": 28037, "##adap": 10872, "anatom": 9172, "db": 4630, "categorical": 13397, "##tar": 24876, "symplectic": 25581, "##zyk": 26487, "succin": 21510, "preprint": 28471, "parathyroid": 24247, "quarter": 11124, "##amins": 21698, "premise": 20926, "##apses": 11930, "##acces": 22852, "##lessness": 29869, "barcelona": 22127, "##herty": 29780, "##te": 282, "(1,": 7597, "##mor": 11944, "paulo": 16946, "profitable": 26205, "affecting": 7586, "chloroplast": 23329, "garden": 25314, "resis": 14555, "##riched": 9323, "##ytes": 25854, "[15": 23942, "summarized": 7198, "repeating": 20426, "novem": 6081, "##sw": 3074, "##ened": 6316, "chain": 3590, "##bj": 14206, "##critical": 14818, "pg": 6001, "reforms": 19850, "hospit": 7476, "##rv": 16757, "##\u2205": 30315, "##anine": 9451, "cada": 18553, "kra": 26224, "repression": 16405, "questions": 3750, "\u03c7": 5708, "##abel": 25349, "0.8": 3106, "##omorphic": 8794, "contradiction": 13297, "digiti": 18530, "taken": 2450, "laminar": 24992, "##march": 25925, "essay": 25986, "saving": 13873, "hi": 5305, "##ching": 2215, "predictive": 6180, "##44,": 25127, "owl": 21357, "##inence": 22995, "1.08": 28998, "##ctgg": 29553, "34.": 13046, "##krank": 14423, "convention": 13316, "11.1": 28884, "##stre": 17084, "retina": 12962, "ipc": 29130, "##cv": 13235, "##mers": 25048, "turnover": 11546, "##duction": 915, "##acil": 17158, "##126": 21215, "oligodend": 21998, "multiplex": 11824, "##ends": 4017, "297": 27752, "reag": 6672, "##eb": 11441, "ras": 9461, "##ness": 1076, "fri": 5438, "sweet": 19549, "moreover": 2428, "l\u00f6": 28127, "##\u22121": 1577, "ord": 4821, "autoantibodies": 24879, "##ocyan": 13345, "elucidate": 14579, "##qp": 20987, "##\u03c0": 30199, "nal": 13006, "##evolution": 21322, "fric": 23708, "myc": 8351, "##ogle": 11896, "##gre": 15590, "##800": 17137, "company": 5871, "mimo": 14543, "gest": 5782, "##otransferase": 22079, "##\u0160": 30616, "certified": 22565, "plasminogen": 25750, "##algorithm": 26925, "##inj": 16607, "enthal": 23505, "##imid": 23420, "##interpret": 26335, "alone": 3957, "accompanying": 16410, "wars": 22968, "parasite": 11873, "separ": 1769, "##>>": 20488, "##front": 18110, "##36": 2752, "yielding": 12357, "olfactory": 14730, "##igs": 29284, "reper": 18133, "pesticides": 19006, "##quant": 25895, "##oxide": 5748, "##mr": 7740, "##\u00e6": 30405, "##tex": 2801, "##)\u2208": 23866, "##oxfordjournals": 20762, "vul": 5992, "0.2%": 23167, "##fisher": 27465, "promoting": 10302, "4\u00b0": 14208, "examples": 3676, "progresses": 25124, "##enthal": 27616, "\u226a": 25610, "[9": 13203, "##ale": 886, "repl": 2850, "especially": 2825, "helps": 8978, "overhead": 7654, "verg": 29843, "##[1]": 21848, "mct": 25352, "accidents": 17490, "ultrasound": 7801, "coincident": 25990, "##uelle": 29053, "intuitively": 15740, "assume": 2806, "##exponential": 27705, "beacon": 25936, "electroly": 12116, "lysine": 17113, "[14,": 15631, "##tables": 20265, "\u222a": 6643, "som": 7856, "\u00d3": 15466, "observation": 3613, "ontologies": 15916, "inequalities": 12309, "##come": 2456, "barcel": 21113, "lectures": 22861, "10.220.": 27863, "##fort": 5061, "##\u0430": 30263, "##osomes": 7363, "##.9": 7619, "m\u00e9": 9948, "##.3.": 10418, "##wat": 14911, "museum": 19693, "##~,": 14439, "transformer": 14982, "gravitational": 15669, "hydroly": 8052, "who": 975, "##estic": 5639, "disulf": 18092, "##tee": 24725, "##timate": 11734, "streptavidin": 27097, "relaxed": 16024, "##modulin": 28042, "##occ": 5261, "sobre": 22449, "sphere": 10121, "citizens": 13014, "##()": 11476, "caco": 24250, "endometrial": 17334, "quality": 1671, "##\u0227": 30746, "dropping": 22802, "[3],": 11542, "exam": 689, "chop": 21832, "olympus": 29540, "##ix": 827, "##lu": 716, "##ospor": 12810, "clay": 15129, "unch": 9508, "throat": 27757, "distances": 6630, "##iana": 14388, "chann": 1780, "uncondition": 22648, "##osome": 8430, "##\u0130": 30626, "##voltage": 17320, "waven": 27020, "[unused51]": 52, "lipschitz": 22224, "[49].": 27694, "##\".": 12885, "describing": 7813, "##cu": 8594, "aircraft": 12118, "##reach": 25030, "afforded": 22253, "1\u20131": 28288, "##associated": 5956, "rsv": 24420, "##portant": 26404, "k": 231, "annually": 19029, "##illi": 11917, "[28]": 14223, "tms": 19119, "##iner": 7635, "##206": 23774, "ems": 19785, "am": 439, "sod": 4336, "##ader": 21973, "epo": 23841, "##andra": 25005, "provision": 7658, "causes": 4080, "##/17": 20677, "##iae": 10574, "##jud": 21200, "395": 28095, "##iation": 18045, "zero": 2799, "0.29": 18063, "background": 2740, "hybridization": 9394, "##svm": 22228, "##operative": 3140, "functionals": 26275, "spill": 17401, "##ynthetic": 12968, "##\u0095": 31009, "involving": 5005, "speed": 2747, "ambiguous": 15276, "##hig": 17110, "(16),": 28197, "api": 13419, "##cone": 28746, "linkage": 9993, "km": 4833, "quantity": 6725, "pres": 430, "extracellular": 6636, "placental": 18208, "[29]": 14857, "concentrations": 2347, "chlorophyll": 17061, "immunoblot": 13606, "##oga": 22322, "bren": 21687, "deficit": 12381, "rheumatoid": 15790, "##structural": 21209, "##amples": 22985, "vancouver": 29990, "confirmation": 14468, "potential": 1411, "congr": 13197, "claud": 28957, "##agne": 2492, "inconsist": 8816, "##echn": 708, "identical": 4659, "tract": 6449, "repos": 11562, "harmonics": 16876, "##absorption": 22335, "disturb": 5568, "##north": 28266, "dirac": 20007, "elek": 22461, "##material": 29947, "##pca": 22505, "##rob": 11345, "horses": 18538, "peo": 22937, "limited": 2379, "tai": 9636, "16,": 7796, "verme": 25570, "rhyth": 9567, "##lis": 930, "##aining": 958, "members": 3087, "##pecific": 9705, "##eln": 16822, "\u2212(": 19506, "\u221e": 4635, "##het": 11744, "boson": 26306, "mrc": 25974, "auction": 16648, "observe": 4991, "cycling": 13168, "pedagog": 18900, "vene": 22376, "compost": 23700, "mirrors": 25089, "inputs": 5671, "##ohist": 8209, "dispute": 29810, "endoscopy": 18722, "ann": 2796, "##2].": 3818, "respir": 4518, "tang": 7353, "stones": 24127, "##(3": 11882, "##overy": 3038, "investigation": 4534, "gravity": 10899, "oracle": 16710, "##sus": 18912, "vanish": 22580, "7.0": 16016, "binding": 2280, "##veolar": 12232, "##mis": 19102, "claims": 9260, "pairwise": 11281, "waist": 19515, "reagents": 10969, "##imental": 22240, "##anka": 28909, "[unused20]": 21, "##ym": 712, "dermat": 13460, "##rotein": 11633, "##icks": 15942, "arter": 2947, "hgf": 28029, "outer": 6674, "##ash": 2455, "closing": 18667, "brom": 11011, "##urch": 11875, "overlapped": 22331, "ive": 28821, "music": 8881, "##\u72b6": 30885, "##\u0644\u0627": 17995, "##frames": 29690, "voltage": 2872, "-5": 17844, "*": 1375, "##-90": 23353, "##posterior": 27443, "##che": 3688, "stuck": 28488, "competencies": 22972, "##anging": 12109, "abl": 21706, "##\u5230": 30952, "\u23a7": 20441, "##ising": 2475, "scienti": 8489, "regulations": 12187, "[35].": 18085, "appear": 1853, "scarce": 18901, "50%,": 29708, "jim": 21754, "##entre": 27453, "diaz": 24796, "##inois": 16398, "(1.5": 17717, "lambda": 22964, "##301": 29666, "cer": 1866, "##2):": 15123, "regressions": 15500, "2].": 20555, "individual": 1161, "schle": 22735, "##\u00dc": 30342, "idle": 16921, "##fit": 6717, "microfluidic": 23618, "##heim": 10100, "##basic": 27731, "##urine": 24513, "section": 1155, "permanently": 26890, "commitments": 26006, "##\u533b": 31010, "characterize": 7803, "##ometer": 6038, "immuno": 14981, "discontinuity": 22912, "##\u8a8d": 30936, "medic": 2260, "sz": 12359, "##ate": 217, "##ozy": 7092, "interactive": 8091, "spillover": 27193, "whose": 3489, "##)(": 3382, "reports": 3578, "bord": 14065, "filaments": 15964, "bioscience": 29115, "1\u20132": 20245, "organis": 11741, "former": 6347, "vt": 10917, "brought": 9868, "##udi": 14825, "##hybrid": 20650, "##orf": 12135, "emitting": 25797, "recording": 7809, "executing": 16292, "##between": 16977, "capill": 20613, "ipt": 22069, "##\u043b\u0438": 24530, "##odil": 16850, "##achlor": 26526, "chunks": 27536, "multipl": 8884, "lith": 9399, "scav": 14676, "##kel": 10141, "nurs": 4990, "##jc": 20756, "stage": 2410, "##/1": 10669, "portr": 24484, "##9\u2013": 3811, "edge": 3555, "##ava": 6573, "trin": 29565, "##\u21aa": 30723, "1=": 17153, "religious": 12482, "gloss": 25533, "inf": 554, "##agner": 18163, "coordination": 7395, "##obiology": 29219, "angiographic": 28087, "utr": 29176, "cancer": 1314, "##:10": 13206, "round": 5194, "lipp": 22270, "endocrinol": 21850, "##irus": 5338, "##cold": 20036, "hyper": 1884, "metastatic": 9123, "laplacian": 21774, "prostate": 6625, "inhibitory": 6628, "zj": 23344, "##rosine": 8820, "spectroscopic": 16358, "subspace": 11543, "stresses": 11711, "##ales": 3326, "plasma": 2780, "##plied": 14637, "outsour": 22481, "##\u0169": 30417, "rhythms": 23511, "##7],": 9736, "vap": 18053, "uric": 25511, "compl": 5255, "granules": 16040, "rescued": 27472, "##uvate": 17187, "##vehic": 25110, "errors": 3515, "##feedback": 23616, "contrast": 2144, "##treated": 4113, "##(2-": 25834, "sphincter": 27096, "climbing": 29475, "##match": 29278, "##\u0103": 30539, "##96": 3576, "schedule": 8279, "uncertain": 3511, "obligations": 24119, "30)": 29618, "closely": 5566, "[unused83]": 84, "include": 2212, "##dimensional": 3434, "unambiguous": 17975, "impacts": 7681, "stenosis": 12247, "##stor": 20558, "coars": 22530, "##symmetric": 25134, "##ischen": 6271, "neck": 7980, "our": 580, "eif": 19927, "grip": 21360, "constructive": 18924, "##selective": 15650, "teil": 17242, "individualized": 26298, "cerebral": 6756, "##rez": 12210, "unresolved": 25582, "##999": 26575, "orthopa": 20039, "1\u20444": 2479, "arr": 3976, "##tiz": 19972, "faces": 8894, "kommt": 26684, "##cov": 16401, "##bcl": 23359, "uas": 28050, "##\u1e61": 30843, "##.5%": 8028, "lipid": 4739, "##iso": 14309, "constant": 2080, "##\u20137": 10526, "fut": 18844, "mite": 29370, "alpha": 6010, "##.........": 17435, "##8],": 10257, "gam": 4267, "pare": 13934, "wastewater": 15350, "##bed": 2802, "##abe": 9878, "wine": 20037, "##anum": 28383, "##shi": 28636, "##uring": 2502, "##ages": 824, "facilitation": 21888, "##omnia": 25506, "shade": 26806, "vortices": 28425, "human": 1168, "disclos": 8750, "##32": 3428, "kore": 7014, "ppt": 27794, "inhab": 16325, "chunk": 25795, "##idin": 9269, "3.3.": 13191, "##24.": 22315, "mec": 14779, "##common": 27073, "released": 7163, "grund": 15690, "blots": 18675, "qui": 12376, "pr": 492, "executable": 26483, "diges": 8243, "took": 7334, "rotations": 18426, "pfe": 29388, "##=1": 2355, "##ogn": 1354, "##kd": 13076, "robotics": 16826, "lund": 18798, "##gest": 12354, "##factors": 21373, "pec": 11385, "zn": 7081, "##ouri": 21647, "##issensch": 23144, "pis": 20793, "parenteral": 27750, "sponge": 28000, "sex": 2649, "mirr": 21276, "granular": 12752, "##ense": 2895, "##ieties": 11504, "kos": 17945, "##tk": 11351, "burk": 22775, "##over": 1132, "marketing": 10644, "evaluations": 9963, "imperf": 14805, "writes": 19285, "##ly": 179, "##lass": 16440, "##ticular": 29446, "##hex": 9522, "4.9": 18765, "facets": 20469, "##andial": 26439, "##(4),": 25502, "##zid": 26197, "dic": 10756, "inhib": 1286, "differential": 4031, "consumption": 3337, "##_00": 25978, "averaging": 11558, "autoreg": 21385, "questionnaires": 11682, "reconstituted": 24950, "joins": 28635, "sato": 25363, "##((": 10107, "narratives": 25733, "##aplan": 14278, "##anged": 5962, "##opre": 23640, "marriage": 16925, "ghrelin": 24810, "men": 1801, "##maxim": 28980, "outflow": 16505, "plur": 17155, "bridges": 18864, "melanogaster": 22564, "homo": 19377, "releasing": 21865, "remain": 4126, "##ancers": 24539, "\u03b8": 2362, "##131": 27693, "##aries": 2881, "atrial": 10212, "lipoprotein": 11649, "##bler": 27268, "extinction": 12058, "theorem": 2265, "adjusted": 5731, "25": 1552, "##10%": 29507, "integrating": 10083, "mesench": 13562, "##ensory": 16596, "furn": 17683, "anticipated": 13846, "helper": 22032, "##inator": 9629, "fertile": 30086, "##\u00e1ndez": 23203, "##iscal": 15460, "##afenib": 25378, "##\u4e0b": 30663, "232": 26955, "conical": 27954, "units": 3660, "##\u5b58": 30922, "studio": 29229, "helium": 22765, "boul": 27313, "##3(": 8796, "2000).": 6992, "##\u2019.": 8540, "collaborators": 30016, "##otically": 13847, "##jones": 21400, "propositional": 22910, "conceal": 30037, "##utch": 18519, "334": 26474, "kaz": 19610, "nij": 25281, "adver": 9065, "metaph": 12143, "cas": 3964, "##<0.05).": 21317, "dahl": 28916, "##kw": 22198, "store": 7522, "mq": 23370, "70%": 10651, "injection": 4209, "##f\u00fc": 21279, "suff": 2213, "##40-": 29974, "zeigen": 24579, "(35)": 18516, "##tique": 16033, "treadmill": 26574, "explanations": 12382, "##equ": 2520, "75": 4710, "##eties": 13146, "discrepancies": 17065, "edited": 13293, "functions": 1832, "xj": 11306, "introns": 27082, "##drug": 12325, "leh": 21049, "##imax": 23428, "preferences": 7637, "specificity": 5565, "accur": 1712, "opin": 6165, "distress": 10581, "nelson": 17816, "##zeit": 19221, "gewe": 25687, "microsat": 17548, "synth": 11053, "uncom": 12165, "penal": 9227, "##,10": 29159, "bronch": 8645, "verm": 11435, "mcp": 16501, "##une": 3073, "heterogeneous": 7010, "##apac": 26052, "##hog": 26605, "lipof": 27330, "chlamy": 20475, "85": 6885, "worthwhile": 25126, "bring": 7977, "vide": 3506, "wy": 18829, "+2": 24363, "sound": 4976, "institut": 12999, "##co": 1173, "skills": 5561, "concerning": 6275, "##\ud3ec": 31067, "##\u2227": 30266, "heparin": 12545, "telome": 16584, "##\u00f0k": 23840, "wie": 8043, "ware": 16778, "snapshot": 22631, "microg": 29782, "35": 2638, "digested": 15706, "##pid": 19114, "##ameth": 20631, "##uten": 21496, "irradiated": 15499, "jnk": 17123, "agilent": 23044, "##fire": 23085, "[unused24]": 25, "##shif": 17702, "emotions": 11394, "ranks": 18949, "##ogonal": 29753, "multil": 11621, "cond": 6598, "##\u97f3": 30971, "neurotrans": 14912, "via": 2168, "embry": 4100, "10.110": 17044, "##309": 28741, "##ape": 2221, "cpp": 28556, "york": 4811, "substr": 3052, "sw": 1419, "##gamma": 21681, "##arp": 24007, "gone": 24951, "##\u0096": 30777, "thems": 5652, "fus": 14259, "##\u2032.": 15991, "##asic": 21626, "##taking": 23186, "explain": 4490, "##conduc": 12518, "stirring": 21184, "##otoxic": 17275, "kat": 16350, "endovascular": 23795, "viol": 4843, "##\ub97c": 30614, "lattices": 21958, "tumor": 2074, "logic": 4856, "expression": 940, "retrieve": 16138, "##b": 30125, "farming": 19323, "tol": 20720, "##astern": 17474, "##ology": 665, "2\u2212": 17592, "illum": 9772, "##iod": 1182, "##sei": 29203, "##phone": 8429, "##vide": 23454, "quantifying": 19294, "arctic": 21426, "durable": 28424, "compil": 7412, "print": 12153, "anton": 15733, "##regular": 8993, "##cess": 454, "divided": 4524, "predicate": 13185, "##pdf": 10067, "##ached": 3393, "savings": 12042, "##utely": 14787, "##7": 30145, "cho": 1677, "charge": 4416, "mph": 24249, "spanning": 13914, "(19).": 20893, "S": 25916, "certification": 20390, "assem": 4383, "polarized": 14146, "speculation": 29482, "$1": 24087, "##utz": 14303, "##tag": 12966, "##:8": 14871, "electronically": 28676, "<0.001": 20581, "15).": 27832, "transmits": 23319, "##self": 10321, "undergoing": 8669, "strands": 18518, "##adian": 8477, "##ensors": 19613, "thal": 11667, "index": 2018, "(13),": 25504, "velocities": 11250, "vmax": 26897, "calc": 992, "##igation": 7431, "equilibrated": 27821, "unre": 8361, "##wick": 11348, "##84": 5813, "extrapolation": 21739, "nah": 16246, "##arf": 23196, "##diff": 16213, "##kine": 24749, "317": 23517, "##fors": 22178, "pan": 3103, "##tum": 25714, "uniformity": 20145, "microfluid": 20934, "scs": 23919, "overweight": 13809, "gwas": 29376, "##zation": 4803, "subgroup": 5909, "ongoing": 8513, "##roscopic": 8214, "##tery": 7156, "repeatedly": 13939, "##brand": 18673, "##auth": 21212, "transfected": 8708, "1-": 4409, "hearts": 16354, "commun": 1158, "adenosine": 14584, "7": 450, "##channel": 10584, "recover": 8390, "make": 2113, "sensitivity": 2949, "1996,": 12721, "spons": 13241, "cim": 24639, "##esophageal": 18986, "##charge": 18653, "##ece": 12353, "##uma": 13878, "particip": 1272, "ministry": 9795, "(17),": 29030, "##dv": 14168, "linc": 22275, "##atis": 879, "\u00ac": 12033, "ejection": 18438, "wa": 2755, "slc": 20695, "formation": 2256, "verlag": 16045, "bout": 21938, "28%": 26032, "##stric": 2427, "frontal": 9588, "##012": 23992, "goldstein": 30015, "##april": 22590, "benchmarks": 16774, "bromide": 17369, "(33)": 16895, "financial": 4437, "##ysiological": 11112, "123": 13481, "##generative": 17510, "mk": 9847, "|=": 15300, "salt": 7030, "##\u2283": 30564, "[38].": 19763, "equilibria": 16690, "ovulation": 28441, "massachusetts": 13653, "abundance": 6743, "##tein": 723, "humidity": 12472, "granted": 14501, "thresholds": 9706, "##\u015d": 30402, "34,": 16112, "disabilities": 16633, "##otax": 24471, "hot": 6281, "##\u2308": 30559, "venti": 8256, "define": 2977, "haem": 6805, "##cha": 8804, "les": 2300, "##paper": 25765, "##tizing": 20090, "histological": 8218, "nish": 20657, "##oprol": 24668, "##agraph": 14264, "osteopor": 14098, "##bsi": 28702, "##P": 30370, "pik": 27130, "benzene": 20214, "alanine": 19120, "##-11": 10376, "lc": 6087, "##3.0": 12203, "disrupted": 17360, "traum": 5914, "##availability": 15205, "disciplines": 15625, "##optical": 22671, "##tek": 25832, "cic": 20687, "placed": 4032, "lig": 3391, "multic": 6245, "##main": 14502, "arnold": 24570, "cauchy": 22808, "thirty": 12498, "apolipoprotein": 27166, "embeddings": 28683, "necessary": 2538, "\u2228": 11858, "sorts": 24465, "querc": 22132, "stages": 4303, "##opathic": 13103, "##pj": 18554, "##inct": 23006, "mitochond": 4327, "cannabis": 23683, "##consuming": 19810, "##506": 25595, "##uto": 19663, "##osa": 4591, "bridge": 10105, "##gtp": 29773, "##mogorov": 25489, "##mit": 1592, "org": 6219, "##ion": 329, "retrograde": 21712, "##an": 133, "ketamine": 23126, "benjamin": 25670, "##\u0119": 30464, "navigate": 28828, "\u239f": 14623, "chamber": 7467, "momenta": 29453, "2014;": 7915, "##2:": 5231, "##503": 26556, "hereditary": 20804, "is": 165, "fundamentally": 20184, "biochem": 11071, "corporate": 11500, "subscale": 21290, "##omyel": 21931, "hydrochlor": 17358, "planting": 26225, "##otrexate": 23996, "##aces": 2079, "disappeared": 19034, "conclusive": 28768, "##let": 2384, "allergen": 22773, "theories": 7275, "cing": 21749, "##ogr": 1039, "##ylation": 4218, "break": 4550, "veter": 9638, "expres": 703, "owing": 10638, "trail": 16509, "##71": 6590, "##\u20162": 10039, "ischemic": 9420, "hear": 12214, "micros": 7096, "physics": 6333, "##lish": 2352, "\u00dc": 14896, "lungs": 12521, "##-4": 2054, "permits": 8983, "electrocardi": 19910, "##avir": 15921, "green": 3755, "##structuring": 24110, "lud": 22540, "exem": 10205, "mip": 18678, "##drop": 16479, "payload": 19355, "##170": 22258, "amplitude": 4599, "psychiatr": 22145, "slice": 11735, "##diss": 22395, "##continued": 24521, "-0.00": 23865, "##ulence": 9117, "escher": 12592, "entrepreneur": 22094, "concatenated": 29323, "cot": 9830, "greater": 2110, "2017;": 15048, "[17],": 17004, "##ihood": 4909, "##enc": 435, "checklist": 22919, "wbc": 30092, "##sj": 17570, "15-": 16215, "saturation": 8573, "magnification": 15144, "##unctional": 27455, "ecological": 8384, "imposing": 22133, "strand": 11161, "edin": 21778, "histograms": 16982, "206": 22772, "turbo": 26977, "aquaculture": 27939, "filtration": 12140, "0}": 21895, "##akis": 15131, "##ines": 865, "notions": 15403, "##ospec": 23777, "bess": 25908, "brachial": 27582, "tetrahedron": 25758, "##ogene": 2174, "prostagland": 18898, "##\u03a0": 30282, "##ural": 893, "0.005": 19883, "competitive": 7617, "##otrophic": 16031, "rot": 3043, "opponent": 28625, "##pcr": 5106, "##orec": 9121, "5).": 7152, "##brevi": 8841, "worst": 9186, "poorer": 15536, "anaesthesia": 18280, "stock": 5426, "yet": 3481, "hsp": 9535, "15,": 6799, "\u2032.": 25520, "##.38": 16828, "esters": 20019, "##aine": 6581, "glycol": 11976, "dating": 23729, "greg": 22900, "##.32": 15451, "intrace": 28558, "0(": 17361, "##obium": 28422, "##otom": 14663, "lower": 1268, "spores": 19705, "##iding": 6507, "##\u539f": 31061, "balancing": 13018, "automotive": 23163, "sequel": 18835, "##ipping": 12246, "acl": 19540, "colle": 3536, "##molecule": 23695, "##\u22123": 14314, "proinflammatory": 16248, "halo": 17988, "##3-1": 20644, "##ieri": 27227, "gron": 29368, "montre": 23449, "##gaussian": 25180, "chr": 2453, "##reshold": 2643, "unbiased": 18344, "siemens": 29415, "102": 11480, "parity": 13743, "##alo": 16879, "url": 16369, "schneider": 20292, "##\u00d5": 30413, "harves": 9731, "1986;": 15813, "complementation": 29720, "[35]": 18666, "wrote": 12740, "educational": 6336, "multiv": 6209, "##25,": 15025, "epidermis": 19728, "##osides": 26339, "10.1007/": 26889, "##list": 10477, "0.71": 27796, "##each": 20826, "nuclear": 4097, "groundwater": 16269, "##ville": 10358, "indeed": 3462, "##\u20130.": 21175, "specificities": 29034, "subcutaneous": 12029, "##\u00bb": 30310, "enumeration": 23199, "##ulatory": 7655, "##istics": 29325, "glomer": 11144, "qualification": 27749, "pursued": 23017, "##tron": 7885, "comprehen": 4908, "encoded": 9195, "##feeding": 14191, "acceler": 8948, "##dt": 5317, "bib": 13652, "anf": 23108, "##onate": 15091, "(2013).": 15833, "rein": 5858, "##orbit": 25460, "##-10,": 22922, "rearrang": 13366, "81,": 27480, "sentiment": 18996, "repeatability": 25066, "##ibrium": 3904, "desires": 28482, "hazardous": 22084, "everyone": 19147, "hematology": 24156, "incumb": 25422, "hf": 6901, "ii": 1264, "interval": 3191, "##force": 6189, "recessive": 21877, "##bone": 11531, "shore": 22266, "##zr": 25939, "##xs": 13084, "##dynamic": 13487, "multiplexing": 22420, "eren": 24499, "queu": 24622, "chow": 19407, "eighth": 29886, "sets": 2713, "##3/": 6960, "[7,": 12506, "recomm": 2912, "##ionic": 11591, "saccade": 26560, "combinations": 6613, "##inery": 13171, "bruc": 27933, "gps": 10194, "smaller": 3039, "hoffman": 29021, "anna": 27228, "strategies": 3236, "dk": 10600, "##names": 29775, "##cin": 2099, "donor": 7268, "hypoxia": 9903, "##pur": 10583, "sett": 15979, "##kul": 22383, "uwb": 25921, "surroundings": 27375, "##eg": 4980, "spines": 24455, "##\u03cc": 30972, "##ter": 192, "##sensor": 27340, "contrain": 21301, "##/4.0/": 21762, "myof": 28179, "recycl": 13956, "insertion": 7798, "##electron": 16091, "survived": 19136, "project": 2575, "uav": 20357, "##fe": 320, "##itory": 5660, "finally": 2285, "dehydrated": 26447, "(2010).": 13122, "speci": 7846, "adaptation": 5846, "untersuch": 12516, "##iao": 11442, "##ograft": 14539, "overt": 17327, "171": 23155, "##=0.01": 28252, "##izz": 19060, "cac": 12814, "skip": 24241, "1987": 19431, "bor": 6474, "port": 4428, "redox": 12180, "##edu": 4454, "iff": 11926, "64": 5421, "can": 300, "##ker": 3836, "##\u0437": 30379, "##otactic": 29353, "##head": 4333, "##low": 432, "##val": 1086, "synd": 3770, "ca": 1292, "the": 111, "##5%": 1830, "proteinuria": 23437, "(2002)": 10407, "##mer": 5001, "officials": 21959, "\u25cf": 5824, "sediments": 13977, "heterozygosity": 28047, "catchment": 24984, "##olet": 15309, "nielsen": 25587, "##erc": 1687, "##\ud654": 31074, "erent": 12025, "depri": 12410, "##ground": 2464, "promot": 3118, "##ails": 10691, "##small": 13186, "##ussion": 24311, "smear": 24333, "##abine": 16851, "##sex": 14211, "##22].": 28497, "##cent": 1538, "##mission": 1818, "cal": 771, "##potent": 21693, "morphometric": 27364, "hydrogels": 23159, "##arrhyth": 29965, "##urin": 21904, "##transferase": 13132, "immunobl": 12596, "eqs": 11851, "##putation": 10944, "miles": 22560, "##idone": 20947, "cvd": 14703, "dermatitis": 23775, "185": 17149, "divisor": 27285, "##lv": 12123, "qr": 18077, "##ying": 1918, "juvenile": 14509, "distribute": 18474, "alignments": 19521, "loos": 19698, "changing": 5468, "##oxifen": 20498, "##morb": 26723, "designed": 2933, ".1": 5613, "bron": 26485, "kong": 12182, "##left": 10549, "lights": 22333, "geophysical": 29150, "elastic": 6845, "(=": 19784, "##atoire": 25319, "johnston": 29121, "##\u2228": 30320, "##13).": 29442, "succession": 20570, "cloning": 12926, "graphics": 12261, "denied": 27389, "##nci": 25555, "elli": 28859, "frozen": 10510, "##ad": 213, "stokes": 22654, "##vef": 26136, "##vac": 14199, "fiscal": 18078, "photograph": 24039, "tuned": 15769, "##fail": 23938, "insignificant": 15880, "##igroup": 22760, "limitation": 7332, "plating": 26037, "##\u8005": 30636, "freeze": 17410, "##uts": 16402, "europ": 24962, "larvae": 9943, "##-4,": 18833, "convinc": 17036, "thorax": 25207, "##imento": 21199, "hing": 26432, "##hal": 3507, "##199": 10711, "(199": 1779, "retrospective": 8759, "bowel": 11321, "delayed": 7461, "{1,": 10556, "0.03": 9456, "##amous": 13108, "burdens": 28640, "immobilization": 21028, "restaur": 23429, "liquids": 20295, "manure": 26096, "rodent": 18443, "orient": 3484, "homogenate": 27979, "normality": 20285, "prod": 16799, "trouble": 26892, "##ers": 270, "\u00f4": 29547, "##1,1": 28293, "##ophore": 14633, "pyro": 17818, "##termin": 12884, "latter": 4085, "##isms": 1829, "##dom": 3352, "seemed": 12441, "alternatively": 9390, "endorsed": 29095, "gluc": 2972, "surviv": 10124, "seld": 22226, "reference": 2470, "thorough": 9763, "cv": 6076, "##incott": 24444, "##translated": 27677, "cec": 18394, "##ococc": 8748, "##sea": 16630, "##analyses": 20306, "inequality": 6430, "##\u016f": 30876, "##asing": 1545, "99,": 27873, "angiogenesis": 11948, "##ocompatibility": 21495, "modelling": 7186, "##7).": 2197, "abandon": 17523, "possessed": 23188, "antimicro": 8651, "##uptake": 29585, "6%": 16086, "##\u041e": 30703, "##=10": 27508, "we": 185, "compare": 3745, "##raft": 15955, "investigate": 3782, "##oston": 11668, "precursors": 13391, "contaminant": 28848, "##!)": 22826, "infrastructure": 7095, "impos": 7585, "transistor": 15884, "integrates": 20500, "mic": 863, "satisfying": 8272, "97": 8276, "moder": 10183, "gibbs": 20642, "##\u30b8": 31044, "##although": 19297, "preserves": 18779, "polygons": 26737, "yolk": 29294, "textile": 29996, "pfc": 22087, "##implement": 27370, "therapeu": 4174, "##transcriptional": 28740, "der": 812, "40": 1921, "crossed": 18752, "##if": 193, "dodecyl": 25118, "##prone": 27449, "##apsed": 13725, "implement": 1547, "##ecl": 15755, "##williams": 27670, "##12)": 19356, "registries": 29253, "cull": 27408, "##\uc9c0": 30618, "viel": 23782, "uncommon": 17109, "listeners": 22387, "##opathies": 24633, "publicly": 16222, "rubber": 19560, "moun": 6860, "##izumab": 15241, "##grid": 14155, "##subs": 18014, "name": 5147, "mant": 14772, "attending": 15799, "supp": 20188, "modulate": 12658, "admissions": 19182, "influ": 1617, "criteria": 3009, "##ww": 3070, "##5%),": 25411, "invested": 28672, "rely": 8520, "smartphone": 23096, "television": 17693, "envision": 22110, "##\u23a5\u23a5": 29171, "##ichia": 12027, "predefined": 15342, "##ceived": 15914, "sie": 5487, "##iron": 1054, "failed": 6616, "robustness": 8656, "pediatrics": 15861, "renormal": 19884, "problems": 2010, "hydrophobic": 10375, "##-70": 23149, "spatio": 23343, "##hnen": 27205, "##rij": 28065, "emphasis": 9581, "suppressed": 9883, "pacific": 12193, "##eps": 12719, "##brown": 18913, "commercially": 12604, "organisational": 21150, "compactness": 28215, "workers": 5555, "##sten": 8724, "dum": 11119, "realizing": 25267, "##oneph": 24872, "xe": 18132, "inconsistency": 21903, "galax": 7725, "0.94": 18615, "mcgr": 25707, "(10).": 17323, "orders": 8483, "183": 19832, "combustion": 15796, "##ia": 426, "##\u0098": 30841, "election": 18564, "##wir": 14546, "heav": 5064, "##jj": 15719, "prefet": 26452, "(4.2)": 30055, "##olym": 8671, "##apol": 9637, "##roll": 14001, "##olia": 19123, "magic": 29710, "##ggg": 22621, "distribution": 1382, "ell": 18670, "##omes": 2192, "bah": 23877, "##elle": 5037, "##ete": 10874, "9.": 4057, "##elfare": 8989, "##:10.1016/": 12945, "affiliation": 26861, "coagul": 27803, "##ceptive": 29823, "create": 4424, "show": 405, "##vi": 379, "##ingular": 29416, "##\u795e": 31071, "##ucher": 22090, "abor": 11434, "##iction": 4341, "sd": 3654, "##3),": 3795, "##cg": 8694, "##yncr": 26810, "suitability": 18969, "##4.9": 21231, "##ocytic": 11335, "##rosis": 5139, "development": 1120, "stream": 5098, "frank": 11062, "noticed": 13096, "coch": 9690, "markers": 4607, "##\u00e9r": 10455, "18:": 20542, "smooth": 4264, "gs": 9326, "approximation": 4528, "believes": 23828, "##\u0631": 30328, "inflow": 19695, "##\u0093": 30817, "##\u2039": 30821, "buyers": 22810, "psych": 2013, "logarith": 10441, "risky": 19587, "##53,": 21230, "##peptide": 21307, "wife": 23453, "##usion": 851, "duplicate": 14370, "fulfilled": 17670, "neutr": 12682, "floor": 10298, "bicarbonate": 22040, "roll": 13932, "##00": 232, "frustr": 20102, "##\u22650": 22549, "pareto": 16719, "kranken": 29068, "au": 3403, "communic": 4121, "##biomedcentral": 29704, "104,": 29912, "sixth": 17821, "defining": 7671, "##aea": 25469, "sectioned": 29924, "28.": 10159, "##oic": 18152, "phenyl": 12971, "##ande": 20977, "pma": 22136, "1982).": 23614, "publ": 27413, "##isor": 11932, "impurities": 24480, "effluent": 20304, "pin": 7126, "streng": 3023, "iz": 11784, "wavegu": 11973, "prerequisite": 20567, "##\u540c": 30706, "##strept": 29694, "steroid": 11809, "##0.05).": 25496, "vac": 4948, "jobs": 9935, "notice": 6013, "limits": 5605, "dod": 13801, "##eil": 25955, "ur": 1917, "ing": 5520, "mack": 16892, "##rov": 17633, "##itely": 9530, "##onically": 18983, "##ioma": 23873, "[3].": 6781, "##ashes": 19511, "education": 2870, "##lf": 15375, "conscious": 10655, "abstractions": 26010, "ultim": 6658, "mul": 728, "cosmetic": 26348, "##alex": 27656, "##opus": 14924, "7.": 2714, "auditory": 9368, "plateau": 14238, "\u306b": 29559, "1100": 24979, "hou": 26394, "symptoms": 3049, "multiplication": 11957, "epochs": 23404, "##\u0091": 30880, "confident": 22419, "logical": 8294, "write": 5579, "##137": 7541, "##ligand": 27074, "infections": 5352, "##1.5": 13634, "##encer": 20071, "##page": 7084, "suspected": 11417, "diagram": 6046, "##pq": 17139, "duty": 13633, "##grow": 10179, "fluxes": 13313, "separating": 15387, "hin": 11135, "##ec": 155, "[6": 2766, "master": 7945, "diab": 2809, "##bu": 8077, "##ics": 1081, "##uar": 23412, "institution": 5051, "neighb": 6184, "fragments": 6752, "does": 1452, "##agt": 14846, "politics": 15637, "[24].": 12552, "incubating": 27729, "1994;": 9505, "moiety": 16535, "stan": 11499, "##acker": 28150, "region": 1025, "emergence": 10436, "streaming": 15496, "relativistic": 21518, "(1998).": 15312, "##lim": 3866, "remod": 10344, "helpful": 7851, "promotion": 11185, "##instit": 12996, "##ave": 1524, "ersten": 23396, "herm": 16061, "1.02": 28837, "##sk": 2791, "einstein": 20684, "aff": 1148, "##-39": 18725, "simulations": 3853, "infants": 6548, "##write": 22848, "accounts": 8790, "##ians": 10572, "-0,": 29922, "##cis": 16621, "##31,": 18552, "2-3": 25434, "##m": 30119, "abdomen": 17748, "##antes": 18729, "2012).": 7443, "locomotion": 20104, "likely": 1987, "manipulation": 9262, "voluntary": 13971, "##umps": 11478, "##.11": 7472, "islet": 20097, "##defin": 22728, "likelihood": 5452, "##proliferative": 24468, "mcm": 13949, "0.66": 20954, "national": 2227, "##gered": 9330, "already": 3440, "plans": 8757, "##(2,": 13312, "##verte": 26305, "vector": 2069, "##ivas": 28684, "external": 3458, "##pent": 20952, "##\uc2a4": 31042, "##\u75c5": 30839, "##21]": 27278, "caregiver": 21268, "applies": 9203, "##galact": 16533, "diarrhoea": 27596, "##ote": 2062, "multidrug": 24715, "hemisphere": 13843, "acknowledgement": 17184, "##oresist": 23421, "refers": 7648, "attained": 15765, "##\u044c": 30424, "##ferentially": 14764, "coll": 2291, "improvement": 3523, "careg": 10918, "##terms": 13608, "##rope": 3193, "metropolitan": 20949, "##atp": 13951, "north": 4656, "(1990)": 17651, "tent": 16531, "cult": 3319, "##saturated": 29311, "##ogeneity": 5706, "nie": 10660, "##period": 12445, "##\u1e59": 30704, "##otherap": 28079, "520": 26942, "##rium": 13854, "trimester": 21742, "[31].": 15867, "257": 26337, "##\u5b9a": 30584, "##dominal": 7108, "updates": 11370, "##aved": 12523, "flows": 6754, "florida": 14485, "undertaking": 29820, "(2.4)": 25471, "##38": 2380, "##\u2767": 30804, "complement": 4662, "catar": 17864, "##ented": 27377, "\u221e.": 18601, "2,": 1718, "##anch": 5006, "specifically": 3697, "hag": 28016, "infrastructures": 24700, "##sv": 10231, "oxyt": 25695, "!": 3190, "gly": 3129, "pathology": 7149, "unrel": 20479, "sub": 414, "love": 16780, "duc": 11006, "gata": 21449, "##rab": 13066, "ubiqu": 7548, "##users": 18723, "berry": 25605, "scan": 6242, "2011).": 6895, "##oxin": 10074, "##\u017c": 30451, "16)": 25044, "##inqu": 27543, "reconfiguration": 22624, "promin": 8156, "##light": 10767, "##aceous": 17301, "jack": 10961, "publishers": 13860, "151": 21398, "cea": 23375, "##choice": 24329, "scaling": 6863, "##ied": 511, "often": 1992, "generic": 7398, "hcl": 14035, "fusion": 5038, "##oxygenase": 18368, "annulus": 26388, "casting": 26877, "insulator": 29940, "brca": 16075, "rectifier": 23854, "##tains": 25557, "##1,2": 11843, "_": 4627, "##panel": 27594, "##\u0443": 30351, "immune": 3890, "\u00c2": 21692, "##sitivity": 12158, "##ensity": 1362, "pcb": 20294, "streptococcus": 21812, "##ifera": 21857, "genotyped": 27216, "voter": 25676, "##186": 29591, "plain": 11456, "biomedical": 9981, "[21,": 20286, "##nition": 27293, "hypothesis": 3323, "svm": 11422, "practition": 9264, "vague": 27067, "trajectories": 9023, "improved": 3007, "##prop": 9823, "kt": 12643, "collisions": 14328, "deposit": 18427, "##clim": 15277, "engineers": 14329, "recalc": 26347, "85,": 27040, "\u2206(": 22649, "mefs": 29797, "##ready": 3385, "specimen": 9933, "##tr": 278, "##nlm": 25738, "73.": 29485, "##part": 6531, "##\u53d7": 30944, "mor": 1310, "##treat": 6451, "##rocytes": 8768, "transformed": 7136, "##oderma": 26310, "common": 1495, "##ection": 686, "##oto": 6190, "person": 3203, "zusammenh": 29138, "##??": 28474, "##ig": 167, "themes": 14475, "males": 5165, "hes": 13791, "##university": 13015, "##fte": 26795, "haben": 13356, "##inear": 13649, "demographics": 17359, "##oretic": 22046, "##M": 30333, "utilised": 29546, "consequently": 4830, "sla": 17615, "denoising": 26562, "every": 1795, "##vest": 22722, "volume": 1894, "##zers": 24574, "classifier": 8039, "##mmp": 24515, "asking": 17020, "platform": 4321, "recurrences": 26781, "##~~~~": 25564, "##\u6c34": 30921, "##ves": 1046, "believed": 9059, "attachment": 9458, "##anium": 14144, "##lot": 14588, "##umn": 13560, "exceeding": 17467, "excl": 2680, "fee": 13365, "joint": 3746, "leak": 7254, "##govern": 17959, "tenure": 27949, "become": 3063, "evaluation": 2166, "surge": 7565, "##antigen": 28729, "nitric": 12345, "displacement": 7536, "loads": 10012, "spite": 13425, "##opausal": 13575, "scrutin": 23578, "epistemic": 26050, "southwest": 26660, "relatively": 2731, "hue": 28581, "optimizations": 21338, "adh": 29641, "##ulations": 1570, "##rc": 9608, "\u20131": 19390, "##emens": 24056, "korea": 9112, "##life": 7376, "part": 1188, "##making": 8650, "obstacle": 14812, "medi": 3050, "act": 1438, "address": 2035, "##aneous": 2196, "piper": 24460, "##ilateral": 10942, "uses": 3294, "combinator": 12590, "dex": 9603, "dwell": 23694, "arn": 19564, "##aton": 12243, "##height": 27151, "revascular": 20009, "dispos": 14294, "##\u201d)": 12050, "prelim": 6486, "120": 5897, "kw": 11746, "haus": 19837, "tpa": 22188, "##phrine": 14907, "##\u79d1": 30923, "\u2032\u2032": 11885, "pictures": 13041, "##rose": 5718, "chez": 28207, "remodelling": 29428, "instituto": 24162, "neigh": 3187, "subdivided": 23252, "##gem": 22412, "##Z": 30661, "hepat": 6188, "machinery": 13933, "litterm": 27529, "entit": 7279, "deletion": 7459, "##amines": 17604, "##47": 4495, "call": 1726, "##anes": 2844, "gh": 5357, "##rane": 9685, "pgc": 28892, "manifold": 11257, "pector": 29680, "treated": 2338, "outlined": 11164, "hydr": 7769, "##screen": 21094, "##alities": 7000, "##architect": 23670, "##omegal": 29892, "flaw": 20794, "describ": 955, "nothing": 11392, "##bial": 5131, "ensured": 19673, "##filling": 29949, "##cal": 3538, "##perfusion": 12458, "kf": 17545, "\u2020": 8199, "technically": 20486, "##ator": 1005, "stro": 4512, "deng": 14780, "verl": 18340, "##anche": 21596, "contention": 18196, "##](": 18275, "##sehen": 25147, "##erm": 436, "##single": 20424, "##utions": 1406, "comprised": 10508, "readiness": 27682, "airport": 27450, "[30]": 16270, "hygi": 15564, "##ogram": 6155, "testis": 19124, "proportions": 11922, "gmm": 26383, "resolved": 9098, "degeneration": 12422, "##by": 2301, "overexpressed": 19481, "rubin": 25619, "papers": 5995, "\u2223\u2223\u2223\u2223": 13230, "pruning": 19442, "pend": 18473, "heading": 21954, "grammatical": 22956, "accesses": 18279, "tackle": 21608, "##portion": 17536, "defined": 1565, "5'-": 25998, "##uals": 26094, "##onto": 12965, "##ework": 2623, "freedom": 8244, "chron": 11426, "egf": 16809, "##ure": 221, "61": 7610, "ncc": 29142, "sieh": 14114, "seques": 19965, "pri": 1404, "##[2]": 25631, "0.002": 20750, "retrieved": 10135, "nephropathy": 21671, "dani": 13950, "##fulness": 17515, "trends": 6071, "##ovas": 29758, "constructions": 17426, "##isations": 22617, "##pr": 1516, "##month": 8180, "##amphetamine": 29314, "##nos": 16156, "physic": 17295, "querying": 26341, "wire": 10414, "millenn": 29299, "##azine": 10352, "sein": 13667, "shr": 8062, "##ic": 141, "##rl": 14318, "##wert": 18826, "##dings": 25556, "##triggered": 28168, "inaccurate": 20735, "##inin": 11947, "##tv": 16659, "check": 3247, "document": 3367, "wol": 8648, "\u227a": 23832, "miy": 19122, "detergent": 24321, "##welling": 28736, "2).": 3500, "##.5)": 7498, "conson": 21098, "eclip": 24381, "##\u03c1": 30205, "potent": 8886, "##.;": 1353, "thick": 3383, "bits": 6964, "helical": 18256, "callus": 28043, "##-\u2010": 28165, "rayleigh": 18510, "eut": 19732, "aqp": 24627, "##.7": 5488, "paragraphs": 29448, "##aacr": 17879, "terrain": 17456, "##disc": 13378, "weak": 2973, "148": 17930, "waveguide": 14242, "grams": 29809, "hardy": 23972, "##beck": 16005, "##meier": 16200, "inefficient": 18583, "tends": 9677, "respiratory": 5580, "constituent": 16367, "has": 434, "##\u012b": 30574, "stays": 21229, "##.35": 15587, "fas": 9237, "##ming": 9050, "12).": 22731, "##\u00ea": 30277, "##-1": 661, "(2).": 12139, "fibrinogen": 20966, "##\u7a76": 30659, "antidepressant": 21247, "herni": 27344, "##\u95a2": 30783, "formalin": 18633, "\u00eb": 27326, "carbonate": 18130, "myocardium": 17620, "ssp": 26154, "interpre": 5464, "##.22": 12488, "##attr": 21771, "##tical": 625, "invari": 5348, "tells": 20979, "patterned": 25950, "fifth": 12008, "##itrification": 28148, "f\u00f6r": 29136, "##nahmen": 29936, "dominated": 9811, "optics": 14205, "kron": 26818, "behalf": 17522, "quest": 24844, "##effect": 16474, "not": 302, "motors": 17898, "##\u0646": 30345, "##iten": 15225, "reducing": 4443, "##inations": 4488, "eosinophils": 24094, "help": 2279, "##analytic": 25054, "lte": 20539, "records": 5934, "primes": 24350, "inser": 4357, "##umann": 14137, "hist": 1520, "yh": 28887, "priv": 3694, "investigates": 21138, "##fflffl": 26940, "##atsu": 20444, "##hold": 1868, "##sug": 29796, "forschungs": 29516, "zl": 26505, "condition": 803, "mapk": 14081, "grap": 9544, "verify": 7366, "traces": 10300, "therefore": 1104, "##jee": 19509, "spo": 17183, "3.1": 3569, "2+": 15752, "synch": 21520, "refinement": 10954, "microscop": 3539, "vacc": 4439, "##166": 25313, "allocations": 26267, "computing": 3743, "anym": 29421, "30": 1339, "0.13": 12725, "powered": 17507, "1)-": 24961, "oc": 2831, "directive": 23605, "metam": 13291, "landing": 24565, "reconstitution": 27970, "##tility": 6066, "rop": 28301, "##yam": 29327, "waste": 6882, "##support": 18817, "carbohydr": 10614, "##bolic": 13340, "##/2018": 26559, "printer": 28744, "##\u03bc": 30172, "##ussis": 28557, "buried": 23119, "string": 6298, "jac": 8835, "motility": 12957, "farm": 5947, "saline": 7116, "##isible": 19332, "##egfr": 28706, "nematodes": 27092, "(2008).": 12709, "component": 2332, "placing": 14715, "metac": 21186, "lbp": 23967, "##ahead": 28033, "[unused4]": 5, "aggressive": 10132, "conversion": 5602, "occurs": 3517, "mscs": 16869, "##derungen": 18963, "carlsbad": 25732, "annotated": 13783, "salts": 16764, "nog": 24653, "33": 3307, "lymphoma": 10753, "cytoskeletal": 25444, "1995,": 13309, "##eterm": 11104, "hematopoietic": 14549, "##\u22121).": 24576, "2:": 5562, "\u039b": 6396, "advantageous": 17447, "promotes": 10137, "henry": 21122, "commodities": 29407, "poli": 4594, "prolactin": 25508, "##ulous": 26865, "underestim": 11717, "addic": 25599, "##omi": 23364, "terminated": 17624, "roi": 16887, "muller": 24488, "##etooth": 24472, "heavy": 6501, "##ierung": 13752, "##ides": 1974, "mall": 19220, "intracranial": 15743, "fairly": 10542, "##correspondence": 23901, "zwei": 20874, "##'.": 15889, "law": 2958, "0.004": 23672, "wool": 25264, "centrifugation": 11383, "ia": 5551, "germline": 22306, "112": 14357, "xenograft": 25910, "##vially": 25241, "repulsive": 28955, "introduce": 5359, "ligation": 16823, "striatal": 22782, "##aften": 29066, "nc": 4996, "molar": 12935, "##\u0107": 30356, "structure": 1187, "on": 191, "##uf": 1915, "conferred": 28276, "completed": 5343, "splits": 23209, "07": 12569, "formaldehyde": 20965, "##promega": 21815, "moh": 19767, "networked": 23688, "penicillin": 14811, "prototyping": 27235, "semantic": 5437, "target": 1549, "bounding": 18715, "activate": 9808, "##ju": 10685, "ill": 1753, "##reduc": 8691, "##\uc6a9": 30745, "##\u5dee": 31053, "hom": 2014, "consuming": 14297, "most": 755, "##utes": 1996, "aggregated": 13858, "captures": 13834, "##18,": 14708, "gag": 17032, "attrib": 2440, "(0.6": 23130, "##\u5b9e": 30919, "lying": 17311, "modulating": 16853, "occup": 4529, "insulin": 4084, "##clos": 5739, "##orthy": 15576, "bush": 26384, "sorted": 14287, "##rile": 11655, "ende": 18246, "9.0": 22489, "##cultured": 29377, "chlor": 4317, "fat": 2906, "sufficiently": 7094, "##ipore": 19636, "##atidyl": 15787, "##ingual": 14369, "sciencedirect": 19690, "410": 25769, "##)\u2217": 28014, "##\u2605": 30988, "retr": 15135, "preclinical": 16856, "currency": 20344, "##anck": 18792, "checkpoint": 18891, "##kers": 24491, "seek": 10453, "chin": 18507, "##riers": 18880, "outpatient": 13844, "##02": 6726, "reasonably": 13520, "##omyc": 19085, ")=": 29218, "5,": 3553, "ranged": 7650, "logarithmic": 15508, "gaz": 12578, "##opolys": 19675, "actual": 3799, "contraction": 9994, "##ials": 8882, "litig": 23656, "##ocom": 9088, "weighted": 6420, "observing": 12401, "glauc": 15022, "circuits": 7514, "##asible": 19979, "zm": 21418, "names": 8541, "galact": 19934, "nowadays": 16766, "timest": 21722, "comorbidity": 19271, "reich": 23499, "##ersch": 27609, "##224": 29035, "droplet": 16204, "##jim": 24941, "##otypes": 4347, "##ferenti": 9424, "fibres": 15782, "##expon": 24697, "hsi": 26719, "heuristics": 15021, "##width": 4364, "glycos": 11196, "##wered": 14253, "##sterdam": 16500, "apache": 29120, "##ciences": 29435, "##iosis": 20001, "##hei": 30029, "opi": 11052, "versuch": 29824, "exposing": 25861, "lengthen": 25684, "communicated": 23074, "council": 8252, "vegetation": 9723, "##(2+": 24601, "krank": 15359, "hn": 11063, "monolith": 24598, "alleles": 9148, "seems": 4109, "##ades": 4605, "##opy": 9954, "(2006),": 26145, "nanotube": 26086, "bas": 986, "##edes": 26599, "forwarded": 27736, "provin": 9844, "##\uc0c1": 30647, "iiber": 27394, "covers": 9774, "approved": 6152, "operates": 13954, "lucas": 30021, "swit": 2818, "imag": 6488, "ren": 4552, "##3\u20444": 26359, "(54": 28753, "mark": 1144, "##otes": 9890, "0.20": 13931, "##nahme": 17488, "variational": 18274, "gut": 7881, "config": 3332, "eigenvector": 23831, "mature": 7632, "moral": 10992, "cta": 27591, "##70,": 25348, "cnv": 29805, "live": 6489, "contrib": 1514, "##ambig": 13295, "hif": 13728, "proceeds": 15666, "csc": 23121, "##ograph": 1306, "mega": 28433, "counter": 4227, "bottles": 27617, "##ingu": 3252, "2\u00d7": 26593, "ecos": 8061, "iscussion": 27758, "oct": 6595, "adds": 12806, "annealed": 27202, "##\u21d3": 30872, "ethnicity": 15393, "hpa": 19715, "##stral": 23004, "##ge": 303, "##male": 19268, "[22],": 20723, "migr": 3556, "##ches": 3584, "##dy": 8134, "oblique": 21746, "##\u2019).": 27066, "##0|": 21820, "##cip": 16303, "month": 1978, "private": 5225, "percenti": 13395, "mitotic": 16137, "##rum": 22384, "##\u96c6": 30995, "odds": 9719, "##\u2014\u2014": 23594, "-20": 21924, "notch": 12858, "hospitals": 7775, "reflux": 15705, "interesting": 3016, "complementary": 8487, "fz": 23476, "pj": 9444, "hapl": 10108, "##heimer": 10527, "##isy": 11197, "##1.4": 12131, "road": 6229, "dut": 7326, "perfectly": 13452, "epit": 3721, "tactics": 30017, "##ontal": 4223, "##atio": 14175, "465": 29533, "202": 24660, "anomal": 8819, "deox": 28687, "happens": 11302, "##ork": 420, "##3,": 967, "\u0647": 19334, "\u2032,": 14597, "soll": 17626, "##\u30eb": 30580, "inten": 3741, "independent": 2229, "synchronized": 17053, "inserted": 9107, "##92.": 27411, "zeros": 17422, "##idence": 1190, "computer": 2556, "then": 666, "sauer": 29521, "fuc": 27100, "##imal": 10567, "streams": 10488, "expenses": 22197, "manufacture": 5538, "hem": 2372, "zeig": 22513, "sql": 19922, "portfolios": 28688, "lay": 1696, "pressure": 2241, "340": 19374, "##hu": 7201, "##class": 5717, "gsh": 15166, "##hol": 3057, "##section": 4503, "##aer": 25876, "##forms": 5620, "##ecton": 29312, "##\u00c5": 30284, "kas": 17775, "15.0": 28232, "##icidal": 21847, "##ament": 4972, "##reperfusion": 27856, "wrong": 11165, "ti": 3340, "[unused44]": 45, "arrang": 8187, "(3.5)": 29486, "##imension": 1582, "rac": 10837, "intravenously": 23597, "##sensitivity": 26026, "oedema": 29295, "pam": 16708, "##\u00f3g": 26001, "ors": 26951, "mont": 19536, "psp": 23494, "isoforms": 11987, "pharmacokinetic": 17778, "represents": 3059, "##-1/": 23974, "##insp": 27007, "##ieren": 13176, "intentional": 22561, "instrumentation": 15754, "carolina": 16098, "yt": 13689, "0.35": 14438, "##arb": 14828, "voltamm": 27493, "incorpor": 3723, "##wall": 10571, "financially": 26957, "misalign": 25778, "##olesterol": 5913, "##este": 14930, "reynolds": 16901, "##short": 20713, "sensory": 7322, "resort": 28898, "##oric": 21911, "##alcohol": 24401, "[24]": 12179, "##yster": 26035, "krist": 28423, "topology": 6344, "319": 24832, "viability": 8349, "exerted": 19236, "1]": 9132, "divergence": 10263, "##oh": 1580, "##rine": 11483, "abstraction": 11551, "outlier": 21083, "##oxins": 26710, "hospitalization": 13972, "dilutions": 20290, "238": 24884, "daily": 4122, "periv": 25588, "##sities": 4806, "icc": 22179, "auth": 1266, "extant": 25757, "underst": 6218, "investigators": 10859, "##qk": 23856, "blocking": 8732, "##venues": 17371, "##terminus": 18820, "##\u53d1": 30879, "91": 9046, "##____": 3863, "6.5": 11264, "##ayama": 20425, "##uin": 19907, "##\u201315": 12859, "undergoes": 19017, "##itten": 3616, "supply": 4494, "night": 9786, "occurrences": 16273, "reporter": 10806, "5)": 8259, "silencing": 13567, "affinity": 6839, "##16].": 22788, "##\u00a7": 30271, "train": 7434, "habitats": 13864, "younger": 8306, "binds": 10172, "oxidant": 28442, "meng": 25761, "latest": 13905, "buffer": 3520, "##proced": 23383, "##=2": 8332, "##\u2032),": 24705, "announce": 19766, "generated": 2360, "chand": 18691, "phot": 2020, "bioinformatics": 15249, "##\u5831": 30937, "##a": 30110, "hypoxic": 17171, "\u00f1": 19797, "##gebra": 4668, "tier": 12142, "##isp": 6561, "##I": 30400, "##180": 18281, "##fv": 15894, "##arbox": 18971, "##\u21e1": 30963, "##cephal": 11018, "uncertainties": 10643, "0.88": 21422, "histor": 6291, "connected": 3777, "tra": 1509, "myelin": 22195, "zyg": 26557, "topologies": 16406, "exc": 2143, "##ulture": 6221, "hydroxy": 15513, "casual": 23602, "ppv": 28039, "microcontroller": 28311, "principle": 5137, "desired": 4944, "##ifiable": 23081, "monitoring": 3725, "affective": 13327, "vocab": 13193, "competing": 7269, "##6.7": 19145, "##\u5229": 30986, "0.77": 20434, "aver": 4542, "child": 1326, "contiguous": 21243, "##opol": 12895, "polyacrylamide": 21581, "phylogenetic": 8935, "sx": 21519, ");": 16709, "nied": 25835, "conceiv": 21823, "ergebn": 17048, "##vt": 12743, "##alling": 8866, "##\u3088": 30527, "darm": 25435, "##\ubd84": 30797, "semiconductor": 13776, "vancomycin": 24436, "medline": 21674, "##atics": 4790, "##rael": 12407, "trafficking": 16827, "resum": 23198, "##modified": 14786, "ppar": 15470, "rz": 27280, "cholangi": 27978, "conserv": 8291, "abrupt": 18413, "caus": 1642, "constell": 20144, "polysaccharide": 23945, "##9.9": 25767, "pointers": 26418, "##odes": 1555, "####": 28344, "##\u043d": 30264, "fishing": 20480, "subtilis": 20772, ":=": 4438, "##\u00f3pez": 29282, "197": 2693, "depolarization": 19342, "encoding": 5827, "biogenesis": 23515, "##iles": 3848, "##ument": 1923, "##plo": 9643, "mur": 5436, "##equivalent": 23084, "##ove": 1087, "##omorph": 4722, "kot": 25480, "deutsche": 28584, "##ados": 9278, "##ttps": 6086, "10\u2212": 9747, "##ozo": 20243, "strike": 23884, "\u2212\u221e": 17571, "##umi": 19814, "oppos": 6053, "initiate": 13627, "stable": 3229, "associates": 15371, "trapping": 17929, "=1": 23857, "ar": 400, "beneficial": 7446, "periodically": 16590, "(4.3": 25828, "##vix": 25853, "1.35": 29069, "land": 2882, "fpga": 14583, "prevalent": 11489, "##308": 25296, "##buff": 14103, "##epti": 2613, "swallowing": 27593, "interf": 14023, "##elli": 10126, "seed": 3678, "##aur": 16748, "evolving": 14187, "mems": 23060, "reh": 7901, "phon": 9102, "##osex": 20369, "##agon": 4567, "shaw": 22994, "ought": 24366, "(12,": 25350, "##9],": 7373, "(65": 24732, "dureh": 19445, "facebook": 20418, "rif": 16562, "##sitive": 6878, "hog": 18991, "##vc": 11807, "##ml": 1659, "altru": 29382, "nieht": 16224, "##ocysts": 25819, "extraordinary": 28606, "staff": 5680, "influencing": 12657, "17-": 25372, "(2018)": 24865, "comorbidities": 17852, "1981;": 21325, "autologous": 17428, "aeti": 24073, "hindered": 29748, "pricing": 12775, "##onyms": 27981, "tolerated": 16539, "diagn": 1563, "retrans": 19936, "##essor": 7162, "1}": 13134, "##uj": 14802, "##elled": 6506, "##teenth": 26208, "ammonia": 15610, "psychiatry": 10310, "##sor": 13810, "reliability": 4817, "oxytocin": 28896, "##\u610f": 30932, "consider": 1129, "ecc": 14142, "belief": 8905, "cows": 15627, "tolu": 18071, "berno": 29962, "##memory": 19315, "configured": 19779, "refine": 20062, "spermato": 22293, "genotyping": 16165, "##erating": 13162, "##/6": 10223, "##heads": 23723, "##ucker": 17806, "ductal": 24777, "##ha": 845, "rr": 5058, "glacial": 27828, "##lets": 6660, "contractions": 18744, "gets": 10650, "deviations": 8751, "naeh": 14300, "essential": 3633, "chambers": 16288, "(90": 20520, "fold": 7966, "did": 1544, "combine": 9548, "##itic": 12234, "##dos": 19770, "##aaa": 26055, "##programm": 27699, "harm": 4663, "slowly": 10250, "##renew": 24380, "pref": 7407, "phytoplankton": 20609, "##weight": 7111, "intercellular": 23473, "##atively": 1725, "##plane": 9428, "produc": 717, "conductivity": 9370, "diversity": 4715, "##containing": 8337, "##idium": 11705, "##chall": 26956, "##5],": 9440, "##mal": 5601, "##film": 26625, "plausible": 12397, "upon": 2869, "recom": 29888, "##acerb": 12145, "lacks": 16167, "##usp": 8019, "thresholding": 22234, "log": 1458, "sweden": 10825, "hamming": 25597, "populated": 24326, "##cortical": 21487, "##240": 29494, "unlike": 6846, "##rek": 20095, "cad": 7508, "##static": 10089, "abandoned": 26555, "##encephal": 15694, "advancement": 19546, "##chan": 22210, "##brain": 11410, "characterizing": 15726, "rostral": 29071, "##aked": 23256, "37%": 28052, "md": 3211, "##rays": 20632, "##gen": 729, "(78": 29492, "obser": 7542, "##1),": 3365, "0.3": 4921, "advers": 11440, "##fold": 3671, "##0.6": 14261, "assigning": 16430, "hrp": 23094, "calf": 18684, "chile": 19327, "unlimited": 26053, "##missions": 14088, "listening": 18062, "gather": 12502, "mittel": 24313, "##\u30f3": 30509, "##threat": 21695, "0.86": 22499, "cargo": 23836, "##atergic": 30040, "niche": 17433, "histology": 14859, "97,": 29439, "##acous": 26363, "ranges": 7226, "##agi": 14452, "71,": 26586, "klf": 28339, "cassette": 22450, "##rev": 15493, "parsing": 19248, "nort": 15548, "##ann": 783, "##pump": 29129, "inertia": 17232, "##1-": 2635, "(2008)": 9662, "unemployed": 26579, "lineages": 15313, "2013;": 7154, "myocard": 5816, "metab": 15865, "##stein": 5162, "(7),": 19028, "perine": 28066, "pm": 3181, "actu": 10052, "##63": 5301, "ncbi": 26088, "##tab": 20591, "speculate": 18032, "anim": 1777, "##enders": 18294, "##abling": 28781, "forg": 24703, "london": 7148, "nurses": 8821, "glycemic": 23254, "reproducibility": 15351, "hybridized": 24679, "claimed": 15446, "threshold": 2757, "nsc": 26343, "##dat": 16297, "losses": 6914, "viewpoint": 15519, "cont": 317, "serological": 24529, "modularity": 25165, "##\u0121": 30981, "contribution": 4068, "alum": 21571, "biomarker": 13925, "layout": 10658, "##bles": 8903, "##sf": 12386, "978-1-4": 14760, "sol": 638, "6.9": 22368, "intellect": 11555, "prefix": 14902, "melan": 6300, "tall": 17492, "spinning": 28993, "##\u00e9s": 6840, "photosynthetic": 18397, "inadequ": 10925, "neural": 3687, "##aware": 11683, "adolescence": 18888, "##ination": 921, "##hr": 2506, "tomato": 16657, "##och": 1616, "john": 5760, "cleft": 21309, "close": 3156, "tri": 1165, "dissociation": 11833, "0.0000": 20879, "##ars": 1962, "soil": 3115, "##1[": 22687, "syphil": 25933, "felt": 10877, "##\uad00": 30756, "configurations": 8067, "##now": 681, "resin": 12687, "##\u00b10.": 10351, "septum": 21709, "rend": 19491, "quiescent": 24462, "caud": 13991, "##\u0414": 30931, "aic": 22400, "chl": 12988, "qa": 19311, "divides": 22504, "##<0.05": 25540, "zusamm": 13761, "0.97": 17659, "##assion": 29534, "ore": 21085, "##ais": 12937, "##.41": 21185, "1988.": 20179, "terminate": 22070, "191": 24819, "excav": 27927, "holomorphic": 25630, "##ordon": 17159, "##uitable": 27783, "sphing": 21804, "##ect": 311, "weekly": 12111, "immersed": 20181, "prostatic": 25103, "mcl": 18714, "##cas": 11399, "##\u221e,": 16037, "liqu": 4042, "143": 17087, "consistency": 7176, "##ticed": 10987, "##zol": 20100, "informatics": 18990, "physici": 4896, "##ensch": 12907, "patel": 24284, "dean": 24773, "##onic": 1250, "satisf": 2044, "obviously": 8109, "##chip": 12149, "transgene": 17367, "bragg": 26530, "gliomas": 27868, "jose": 12478, "supplement": 2979, "##33": 2898, "geo": 19172, "yun": 24232, "scf": 26832, "benz": 9642, "directing": 29951, "##ulas": 21677, "phenomena": 8210, "den": 1157, "##\u2191": 30398, "piecewise": 17944, "defense": 9525, "decomposition": 5720, "horseradish": 26000, "hydrolysis": 11015, "##established": 17189, "hypoth": 10775, "phone": 7949, "bulletin": 19300, "causal": 8409, "intermitt": 13820, "##thood": 14923, "initialization": 15599, "##arger": 20984, "town": 18400, "##translational": 20764, "[23]": 11754, "stimulus": 5701, "(2.0": 28977, "carl": 17415, "/\u2208": 17643, "af": 575, "coastal": 12921, "selectivity": 10788, "denn": 29190, "##rent": 704, "##lectic": 22211, "##9.6": 26362, "caps": 8193, "send": 7914, "behave": 15512, "neoplasms": 20320, "tors": 22949, "reacts": 27744, "dependence": 4899, "##liers": 14531, "##agen": 3487, "##vj": 20959, "dataset": 4813, "##tible": 14184, "formulae": 17414, "##3).": 2053, "algebra": 5299, "##produc": 7640, "chor": 14777, "atherosclerotic": 18874, "colonial": 27770, "##\u70b9": 30782, "##pd": 4008, "infarc": 8624, "permut": 9910, "##sehe": 22646, "vulner": 7199, "rao": 20153, "clustering": 5166, "execute": 12708, "[44].": 23783, "sources": 3117, "##\u3002": 30439, "random": 1533, "##ventive": 12394, "##stabil": 27024, "hammer": 29237, "td": 8806, "##ounds": 24737, "##udge": 14904, "[unused93]": 94, "bap": 21707, "free": 2159, "##\u1e23": 30790, "heuristic": 7308, "##ible": 1723, "1,2": 23105, "##?)": 23200, "##0);": 23029, "lut": 22155, "##64": 2942, "lic": 4265, "obs": 695, "##agged": 8871, "amendment": 23936, "enfor": 15783, "##gon": 21310, "breast": 3479, "1),": 6715, "##pun": 24999, "certific": 14516, "diagonal": 8700, "ladder": 24621, "cones": 21342, "styles": 16181, "workloads": 22328, "##lecular": 7629, "integrative": 20201, "##eradish": 24551, "[unused59]": 60, "propagate": 19089, "stripp": 24058, "226": 25196, "processor": 7271, "perman": 7961, "meteorological": 21211, "##miller": 27789, "1978": 15728, "lend": 29221, "##idelity": 15439, "wee": 2152, "price": 4048, "realization": 12152, "kidneys": 16214, "##threshold": 17485, "##2-1": 20154, "[43]": 25002, "reared": 29968, "##at": 126, "neuroprotective": 24276, "forced": 10579, "minority": 12681, "ratios": 5269, "nmr": 5744, "add": 1015, "vascul": 13995, "##rad": 8975, "##eworthy": 16515, "iss": 1664, "much": 1839, "eg": 6040, "oreg": 22566, "zimm": 27993, "variances": 16334, "districts": 17618, "##ankton": 13350, "##iger": 6585, "(22)": 11876, "deliveries": 29491, "##\u017e": 30435, "##za": 6969, "##mark": 3666, "participate": 7686, "##124": 20945, "determinations": 20135, "gre": 1051, "##ito": 7952, "##trum": 15033, "##-00": 12892, "pcc": 22698, "##bearing": 14809, "tm": 5178, "2.5.": 19131, "gaus": 4888, "bangl": 22215, "nl": 4588, "gaug": 24507, "suggest": 1739, "northern": 7926, "appl": 1512, "##monitor": 22494, "hpc": 28945, "##ranging": 27518, "impl": 2420, "aberr": 11080, "##kg": 3470, "avi": 20540, "llc": 20838, "validity": 6213, "acetate": 9382, "14].": 28361, "antib": 1826, "originates": 22832, "hos": 7354, "fred": 16831, "##50.": 22326, "rna": 2980, "##ipital": 18958, "sul": 9271, "##fication": 4841, "hierarchies": 24017, "lp": 7072, "bene": 2093, "diff": 2504, "composed": 5482, "exclude": 11602, "syst": 7288, "##opoul": 16180, "##aha": 14503, "runx": 25949, "erge": 15339, "providing": 3910, "individually": 10350, "alerts": 22112, "11.5": 25206, "comes": 7076, "##acycl": 15506, "medull": 17413, "lw": 19376, "##formaldehyde": 19897, "inclusive": 21653, "ols": 22115, "prosec": 27115, "##ratic": 29286, "##\u015b": 30474, "suggested": 2995, "##ovirus": 9309, "neglec": 11289, "hyperactivity": 26852, "0\u2013": 22569, "mold": 18282, "gras": 19367, "proceeded": 25891, "gat": 19039, "##169": 26448, "acet": 4090, "na": 2431, "##nem": 27876, "##\u56f3": 30975, "##weg": 14654, "edu": 27457, "[48].": 26919, "tuberculosis": 9757, "la": 1665, "jk": 13671, "csa": 19231, "9.3": 23266, "interle": 9452, "##order": 2527, "behavioural": 12213, "ept": 27644, "interpolation": 10413, "brackets": 20654, "adop": 3240, "##ucle": 5018, "migrated": 24845, "novo": 14030, "##opo": 9969, "##arant": 5172, "moderately": 13686, "preceded": 20182, "charging": 14362, "hod": 14963, "##:20": 28265, "optimize": 10215, "##enk": 20044, "pauc": 26678, "distributional": 27310, "diarrhea": 16557, "progenitors": 18677, "mostly": 6109, "\u00a5": 20704, "roles": 5370, "16%": 22089, "##grp": 24372, "##country": 26664, "##aqu": 28449, "aerobic": 14283, "ultr": 3525, "##-58": 29471, "lemma": 3114, "##orb": 3573, "##adhe": 22483, "##\u00f9": 30453, "##\u30e9": 30691, "6.7": 20123, "##while": 9250, "updated": 7934, "##arest": 8531, "##/14": 18738, "##bw": 20337, "broader": 11103, "bis": 5742, "##istor": 10607, "oncol": 13097, "downward": 16978, "##rios": 29842, "quercetin": 26501, "nice": 18502, "##istribution": 9536, "exagger": 24320, "##83": 6207, "thicker": 25261, "zym": 27210, "##ija": 27733, "everything": 17156, "discretion": 22538, "##lip": 5466, "##/3": 9494, "[unused92]": 93, "##uric": 19233, "##oti": 3032, "orthop": 11299, "##cnac": 27623, "neighbor": 4501, "converse": 25370, "candidates": 7893, "##ty": 1134, "dr": 741, "cient": 14148, "bulb": 22980, "newborns": 23334, "gig": 23354, "contributed": 6753, "displaced": 19997, "##reen": 2544, "herself": 29210, "##0.05)": 27597, "relativ": 15798, "associative": 18341, "##\u00f1o": 22370, "[unused43]": 44, "inhibited": 6514, "##vals": 4666, "squamous": 14675, "##wi": 8081, "vicinity": 15431, "financ": 4022, "gall": 8048, "ectopic": 17135, "soluble": 8492, "basel": 21182, "informed": 6841, "lymphocyte": 14913, "65.": 26060, "exact": 3262, "transfers": 13782, "easily": 3717, "##mw": 14015, "##uminescence": 16371, "ica": 17130, "foot": 6894, "##mo": 4173, "michel": 20528, "utter": 13448, "fs": 8523, "82,": 27994, "ones": 4523, "##rabbit": 19200, "##ometric": 3347, "compensate": 13389, "disj": 10317, "insensitive": 19326, "##\u4e00": 30538, "crit": 20381, "mater": 1249, "##aryn": 9387, "utilities": 19620, "tagging": 20993, "quin": 13131, "evening": 23459, "whi": 19238, "immunoassay": 25796, "##1371/": 8902, "differs": 10122, "sharply": 20701, "livestock": 18262, "##ib": 389, "administrator": 23131, "specification": 6387, "dementia": 10395, "lus": 26672, "glucocorticoids": 27256, "educated": 21545, "##aram": 22353, "boolean": 12064, "buffering": 25742, "fiir": 14922, "##ych": 1734, "\u2200": 6413, "proportional": 6464, "antagonist": 11248, "prover": 30100, "unbounded": 21641, "investigator": 17379, "respon": 1008, "exceeded": 15178, "far": 2739, "completion": 8357, "meth": 513, "amend": 17042, "1991)": 26064, "municipal": 20383, "##ourse": 9071, "retrieving": 27848, "neuroimaging": 20222, "(3).": 13159, "##itin": 7429, "##-47": 23043, "##ipr": 23562, "vincent": 28638, "(2007)": 9655, "2013).": 8017, "r\u00e9s": 20483, "##T": 30314, "##approxim": 13121, "##oshi": 20998, "##icacy": 4294, "ban": 6550, "##helix": 21961, "detachment": 21355, "annu": 19389, "##\u00fcn": 18731, "yields": 5072, "17:": 20914, "palmit": 25467, "##gi": 4746, "##lin": 3265, "##visual": 22738, "embryo": 10820, "minimum": 3142, "(6,": 19942, "##ik": 614, "water": 1506, "cili": 28545, "dick": 15583, "doctrine": 28003, "depth": 3826, "invasive": 7862, "##32,": 18843, "ellis": 22723, "##scat": 16077, "5.5": 9802, "tn": 7052, "##tures": 6269, "##\u201321": 25989, "##214": 29734, "##----": 4404, "concluding": 16546, "bleeding": 8401, "##ize": 767, "##ead": 3185, "##ship": 12189, "visually": 14047, "##ologous": 7736, "##uments": 3311, "##=5": 21691, "dilution": 9470, "qual": 3885, "44.": 16821, "collo": 15231, "##.13": 9765, "regulation": 3607, "attit": 6056, "allow": 1301, "morphologies": 25388, "superficial": 14550, "correspondingly": 20230, "##lity": 11225, "##ergies": 7593, "37\u00b0": 11726, "iris": 16771, "antec": 17906, "role": 1447, "semantics": 7816, "##imetry": 17370, "gsm": 23885, "##jac": 25423, "hd": 6792, "hrv": 25056, "selections": 29890, "##\u275d": 30846, "[95%": 26964, "##tration": 6174, "sorting": 12167, "de": 223, "##esium": 14929, "asym": 3575, "##92": 6386, "70,": 22694, "##ortal": 24630, "demonstrates": 7499, "##thermo": 22414, "##-3": 1456, "##iving": 2811, "recognized": 6373, "delete": 21163, "pharmaceutical": 8745, "##ius": 11629, "whit": 17121, "##\u304d": 30681, "sdf": 27352, "ble": 5577, "216": 17468, "##pop": 9851, "[26]": 13114, "##inde": 18985, "textbook": 28959, "##52": 8074, "30%": 9075, "pneum": 6335, "##cca": 19280, "iv": 2448, "aba": 18399, "eukaryotes": 25640, "##rol": 505, "##onyl": 19526, "offering": 14072, "documented": 7618, "as": 188, "sulfide": 26325, "167": 19061, "}": 3661, "artic": 1742, "##har": 8509, "##fo": 12006, "prospects": 21797, "##tained": 6639, "##pv": 9331, "##\u0333": 30901, "loop": 4472, "##dered": 6826, "aorta": 14079, "hull": 17440, "##\u25b2": 30968, "0.87": 23156, "##\u7279": 30810, "##c": 30116, "serial": 8595, "##poor": 21144, "##graphy": 19471, "anal": 438, ".(": 25082, "##internal": 26365, "collective": 10405, "[46].": 25344, "programmes": 13557, "40-": 24504, "##**": 6852, "prevents": 11580, "incoming": 12689, "##\u3064": 30697, "econ": 2170, "##bi": 1903, "##prote": 24005, ">>": 26843, "14,": 7321, "yin": 22637, "##del": 7787, "##-(": 7696, "laws": 9216, "0.08": 13539, "fam": 1651, "##bilities": 7792, "consci": 27559, "##we": 1587, "##erated": 6093, "bod": 15399, "##arez": 22751, "##13)": 26735, "zwischen": 14434, "##scher": 20167, "creatine": 27173, "95,": 28257, "##ethoxy": 28893, "##nnen": 13380, "4.1.": 13566, "\u03c1": 2853, "##idian": 25455, "psychotic": 25390, "motivations": 21866, "##whm": 22789, "materials": 2518, "variable": 2249, "##.-": 4182, "controller": 4919, "photons": 13479, "##ll": 4078, "website": 11023, "swiss": 17733, "##\u22121),": 22052, "instructed": 17331, "##50)": 28315, "elicited": 13615, "##pert": 14486, "masked": 23270, "unpredictable": 21621, "##sives": 26788, "asset": 12183, "griff": 19449, "##tick": 25407, "aph": 18444, "germany": 4673, "[8].": 7722, "gj": 14239, "winds": 23910, "##62.": 27824, "##tension": 19798, "propensity": 15310, "contempor": 11411, "apj": 21302, "shaft": 20665, "difference": 1673, "creative": 7153, "vocational": 28832, "exposure": 2718, "##present": 8524, "cubic": 13879, "plates": 6736, "##atal": 4004, "generality": 12856, "[unused86]": 87, "macro": 7183, "corona": 28864, "nanjing": 27267, "tracheal": 23537, "##ue": 376, "##ies": 301, "##plic": 584, "nanostructure": 27730, "rw": 13237, "normalize": 22585, "##................": 1063, "##255": 26251, "shares": 11985, "exert": 14353, "##\u3069": 30826, "hh": 11477, "bodies": 8198, "mason": 25459, "##cir": 8803, "mesenchymal": 15233, "required": 1761, "3]": 27590, "electrons": 9365, "fet": 9161, "turbulence": 15294, "##eliness": 26699, "##ondo": 24009, "cyp": 7592, "(6": 3100, "21.": 8045, "medium": 2511, "boards": 17941, "##ive": 1090, "265": 25437, "nonlinearity": 18221, "##tib": 17501, "generalized": 5957, "bullet": 16916, "reduce": 2637, "toxic": 6034, "##js": 15456, "cle": 3374, "##omorphisms": 20903, "organised": 26604, "##otrans": 11132, "ove": 13548, "##ova": 4351, "protective": 7954, "calibrated": 13549, "##exec": 26933, "##kre": 27386, "supers": 9618, "##inates": 19352, "fungus": 20556, "##erv": 442, "provided": 1966, "etoh": 27817, "neurosci": 7550, "##blue": 13516, "blockers": 23524, "##eters": 15871, "employees": 8827, "primate": 22018, "##cript": 3233, "wait": 13775, "##cycle": 12793, "foundations": 17897, "valley": 16030, "##study": 18982, "##(5):": 21224, "bai": 27036, "ven": 5367, "hepatocellular": 17880, "##directed": 13501, "ji": 7685, "wing": 12688, "##nk": 8090, "(196": 8981, "##rency": 9297, "distric": 17458, "ageing": 18143, "bristol": 27011, "##hcl": 13432, "electrodes": 8438, "gym": 30020, "according": 1425, "sist": 18153, "ide": 2161, "##abs": 6440, "gfp": 9054, "benign": 10346, "##urb": 2509, "##ven": 823, ")|": 26056, "##\u06cc": 30384, "(2.7)": 28952, "bal": 2679, "6-": 7383, "editor": 6916, "solubil": 19645, "prescrib": 15369, "agree": 8298, "##imin": 2845, "bru": 25179, "conj": 4304, "evenly": 19066, "sinh": 26123, "anticip": 8909, "receive": 5380, "ties": 17345, "##rw": 30063, "femin": 22279, "##chel": 25642, "##ken": 4474, "durations": 16466, "(48)": 26846, "##asa": 18346, "flying": 26924, "vit": 4890, "##weig": 26198, "iw": 16736, "233": 24306, "asser": 9666, "im": 264, "varieties": 13600, "##hence": 27631, "ses": 11387, "xps": 27584, "arrested": 29317, "radioactive": 21371, "submuc": 27021, "sert": 27638, "inherited": 15672, "schem": 1820, "behavior": 1689, "##ahr": 9979, "velocity": 3531, "diesel": 18483, "acm": 7227, "##probe": 23274, "options": 6612, "simulates": 28680, "centuries": 27232, "##-3-": 10554, "discrimin": 7833, "##yles": 27562, "strongly": 3974, "##istan": 15388, "##\u30c7": 30759, "igg": 6902, "parenting": 20811, "##ug": 308, "##pression": 2390, "bd": 7045, "eb": 7147, "az": 5593, "##enin": 12280, "expectation": 9775, "dl": 6512, "##17.": 17990, "dip": 6332, "analyst": 20773, "archives": 21759, "##-3-3": 28759, "at": 235, "assigns": 19457, "penetration": 11715, "##\u4f4e": 30967, ".5": 6900, "##ater": 515, "ctc": 25012, "artery": 5210, "mess": 2763, "professionals": 9716, "verte": 7797, "##constant": 24223, "##ensable": 19879, "strains": 3983, "brady": 19148, "substitutions": 15408, "+\u221e": 20586, "##mechan": 28476, "##emporal": 16878, "infer": 4920, "##or": 122, "##omon": 9967, "nanoparticle": 17057, "centrally": 25021, "1.10": 27498, "11,": 6599, "indicated": 2662, "covalent": 20851, "batch": 11098, "\u00cc": 29787, "##iqu": 802, "\u2032)": 13249, "(2.6)": 27548, "fon": 29050, "reversal": 13963, "##xe": 23394, "bilinear": 22508, "intercept": 17679, "##loo": 29925, "correlate": 10370, "cay": 29422, "bacterium": 18902, "manifolds": 19962, "##tosis": 3563, "myri": 29987, "nanopartic": 5991, "##pix": 17148, "##det": 7223, "feet": 17769, "phases": 5497, "##itzer": 25868, "##36/": 23553, "##iq": 20364, "neutral": 5215, "(2),": 12036, "plas": 1714, "predic": 1124, "proxy": 11674, "pertaining": 21149, "tym": 29144, "justice": 12703, "##organic": 11719, "executes": 23574, "[37].": 19266, "##excl": 19935, "officers": 21474, "-10": 23572, "throughput": 7350, "##axel": 14244, "vulnerabilities": 23067, "hughes": 21377, "cape": 23663, "nons": 7059, "fv": 15360, "revisited": 29349, "planned": 10741, "exclusion": 8737, "invisible": 27095, "intraven": 8574, "herit": 15484, "tutor": 18109, "dangerous": 18306, "exhaust": 26401, "hirsch": 28817, "spore": 25361, "axon": 15547, "se": 262, "palsy": 24047, "dickinson": 26320, "##ft": 772, "production": 1865, "cha": 7683, "software": 2031, "rosen": 13697, "##aci": 6307, "[23],": 21240, "virtualization": 26868, "full": 2327, "##oor": 11889, "anthr": 27953, "m\u00e1s": 28849, "arist": 26698, "glucose": 3667, "##hem": 606, "unstable": 9825, "anat": 5628, "@": 5435, "wearing": 27122, "##azol": 11597, "##lp": 10509, "chaper": 17875, "mock": 19489, "discriminant": 17309, "##plate": 5585, "contrary": 8672, "stagn": 28650, "1\u20133": 25457, "lu": 4935, "##\u672c": 30619, "##isc": 2432, "##bedd": 4160, "cambridge": 8258, "nation": 10971, "screw": 17546, "along": 2252, "##apeutic": 17151, "42": 4637, "maximized": 22699, "()": 18043, "cine": 28286, "##phia": 17534, "##.9,": 28460, "calculate": 4978, "##tice": 1760, "##\u00dfe": 26360, "andrews": 28895, "provides": 2315, "fd": 9103, "fish": 4450, "jia": 21714, "indust": 4497, "acidification": 29039, "##\u8840": 30754, "bir": 3411, "##\u2192\u221e": 10466, "hands": 12053, "dal": 10902, "##ust": 653, "cited": 8412, "maze": 22064, "\u03a6": 5648, "compliant": 23635, "tetr": 7170, "immunocyt": 23764, "\u00fe": 5024, "##object": 17142, "[unused58]": 59, "ent": 1569, "##anges": 13107, "attenuate": 24150, "chance": 9014, "employ": 2134, "sowohl": 28874, "##ahashi": 21358, "mandatory": 16193, "##nj": 18172, "pfs": 20297, "##J": 30749, "whom": 7861, "fail": 1871, "(8,": 21989, "synchron": 4911, "\u00cd": 22107, "##atical": 5573, "co": 304, "fronti": 11075, "ethn": 6866, "\u00fc": 10598, "pix": 4066, "92": 8698, "businesses": 19128, "tick": 15530, "monotone": 18872, "(3)": 3012, "fruit": 8235, "bbb": 24049, "theoretic": 25513, "metabolism": 5009, "traditionally": 12959, "solid": 3967, "fluid": 4091, "isometric": 23050, "##....": 358, "advance": 7557, "##6%)": 11279, "carr": 21586, "##rop": 1036, "##angle": 11804, "suppresses": 18841, "analysis": 669, "##reson": 24376, "elong": 9770, "coupled": 5677, "mpc": 19559, "nanom": 18980, "stop": 5290, "traveling": 19747, "ens": 2658, "wc": 13533, "\u25cf\u25cf": 23461, "cessation": 15848, "##iman": 22061, "##osamine": 26895, "[33].": 16927, "arxiv": 27253, "##jection": 6577, "[unused7]": 8, "##elec": 7523, "hundred": 8231, "18.": 9934, "##inus": 19679, "fdg": 23816, "autumn": 24505, "(67": 26051, "encoder": 17932, "analytically": 18352, "##lane": 18567, "##oclonal": 9466, "##knowledge": 22130, "##rie": 2137, "vibrations": 20758, "famous": 21416, "recalling": 29330, "precipitate": 20742, "2016": 5323, "77,": 27081, "tears": 28360, "##afted": 19470, "rang": 3186, "aspir": 8824, "anxious": 28328, "fruct": 20069, "smc": 20597, "##ostatis": 26953, "##eed": 2805, "adoles": 5383, "dysregulation": 24393, "sag": 12250, "##6):": 23808, "serotype": 24281, "persists": 25543, "(23).": 22897, "edta": 12327, "fang": 22457, "below": 2382, "##.2%": 11240, "somehow": 23756, ".,": 15961, "##ovic": 17709, "##itable": 3564, "##owa": 15458, "##est": 327, "0.07": 14304, "drawn": 7391, "pipette": 26299, "axi": 10361, "##trust": 27416, "vorhand": 25256, "outward": 21115, "ecm": 15398, "xn": 7607, "##onation": 26089, "twins": 21366, "##ffe": 14532, "eros": 29212, "credited": 22249, "##posure": 22478, "game": 4941, "##patibility": 17850, "programmable": 21593, "pi": 2628, "incision": 13825, "ec": 1855, "eeg": 10023, "solving": 6020, "rol": 10754, "half": 3437, "##ogether": 15846, "##/200": 11133, "triggering": 17040, "islam": 27440, "plasmon": 24130, "aac": 20629, "tion": 6627, "28,": 10657, "earth": 6732, "##admin": 14832, "ligated": 25356, "hla": 9995, "charged": 8839, "##uri": 14292, "middleware": 19224, "2002).": 6699, "##han": 6870, "specifications": 9806, "shared": 5026, "##weak": 19710, "##ten": 567, "perspec": 9551, "inm": 22436, "##pac": 22378, "##access": 11604, "cbf": 24157, "##dial": 29851, "msc": 14426, "1980).": 25395, "lexical": 12617, "scattered": 13426, "##uclidean": 11651, "foam": 19654, "##mentioned": 9726, "tile": 20141, "myofib": 26685, "##rieben": 22180, "qds": 22237, "##\u4f5c": 30656, "##\u0092": 30729, "##sal": 10680, "##roche": 19024, "kx": 20395, "##lez": 23957, "##tren": 27608, "lakes": 15068, "vis": 1258, "tox": 3075, "compose": 26829, "##olas": 23519, "bs": 6989, "##erate": 3557, "##apie": 18188, "description": 3756, "definitions": 7031, "##ults": 3330, "vertical": 4999, "(5.": 13883, "##diagnosis": 29526, "##ver": 207, "fiss": 29848, "quenc": 22360, "manipulating": 23299, "readily": 8102, "fellow": 10188, "(2010),": 28198, "soph": 10148, "incid": 27419, "perpet": 29783, "translating": 23930, "coat": 20891, "buying": 26237, "##___": 29336, "lifes": 19288, "##best": 13175, "laminin": 25160, "##\u266f": 30701, "basement": 22567, "ram": 5369, "##isehen": 22257, "##yn": 819, "puf": 20187, "##dine": 28934, "scia": 29791, "nord": 16206, "error": 1913, "##bard": 25095, "cbt": 26419, "imaged": 17736, "expanded": 8990, "##amol": 26722, "##nitro": 20829, "anz": 20563, "graduate": 10530, "##train": 29399, "##vx": 29668, "seasonal": 10810, "agarose": 14121, "##cein": 16287, "##58": 7745, "six": 2781, "parti": 1947, "stem": 4151, "radiology": 14889, "##eding": 4361, "dcs": 12612, "##(5": 18060, "##0.01": 8352, "johnson": 9724, "hashing": 29054, "##.5%,": 29816, "##iler": 13744, "##\u3081": 30645, "(1992)": 15989, "##code": 13347, "adaptations": 19333, "ascertain": 13852, "mimic": 13886, "0.003": 22542, "depend": 1483, "##\u25e6,": 28262, "##ones": 2446, "##view": 1131, "[8]": 6375, "lowering": 14544, "primitives": 19290, "\u03c5": 23529, "lines": 2469, "stick": 20361, "405": 25681, "relig": 8762, "mosaic": 18561, "##crossing": 27773, "literatur": 27433, "##ware": 1526, "##ersonal": 14389, "##\u691c": 30813, "##gt": 4259, "pon": 14188, "zh": 3634, "ok": 9174, "##imb": 13248, "mechanistic": 14885, "specialist": 15718, "[15,": 16132, "meson": 29602, "where": 582, "##ct": 1669, "##rim": 4614, "routes": 11567, "26.": 9919, "0.0001)": 27242, "p\u00e9": 21479, "##icing": 11177, "clath": 28616, "##such": 8068, "##(1),": 12307, "patrick": 27909, "bending": 13323, "##bia": 12184, "relying": 17760, "aryl": 22126, "##\u4e8e": 30743, "5.3": 8324, "peters": 20457, "nurse": 11608, "(1985)": 21947, "##else": 18100, "orthopedic": 27984, "0.45": 14755, "excellent": 6722, "crs": 24989, "carefully": 9577, "increase": 1242, "veterans": 18876, "978": 9476, "##una": 13169, "fluctuation": 15688, "##leaf": 23892, "##ref": 6261, "52.": 21526, "money": 9668, "oxal": 21298, "gradients": 11538, "##ocene": 16974, "murine": 10034, "moisture": 10706, "##standing": 10722, "##:10.100": 22909, "80.": 24002, "pbmcs": 25463, "##ued": 4475, "##ike": 6710, "##ony": 7346, "##operiod": 27477, "##+": 30154, "##jen": 22025, "##8%": 5981, "##build": 17512, "rival": 27882, "##++": 9423, "(10": 4623, "admin": 2363, "interaction": 2019, "##ision": 1037, "nmol": 14737, "volunteer": 23069, "cyclase": 25120, "interior": 10887, "\u00a6": 22800, "railway": 28939, "##ady": 4879, "histories": 17102, "##80": 2043, "\u00a9201": 14145, "vote": 17654, "people": 2325, "preferable": 19813, "##fine": 26923, "severity": 5625, "corpor": 5951, "dehydrogenase": 12593, "descript": 9718, "##emis": 29090, "nhe": 26169, "##roid": 4441, "2009;": 5928, "lau": 26085, "(0)": 9184, "##pon": 9575, "##2.9": 19095, "3.4.": 17341, "paragraph": 14987, "steiner": 27588, "4:": 8204, "cath": 11541, "##rk": 15445, "##nor": 20099, "##ource": 19859, "such": 555, "##\u03b6": 30259, "##:13": 16672, "statements": 9298, "taxonomic": 17234, "##\u0435": 30258, "##partial": 27351, "##aning": 18509, "##agic": 14161, "adopts": 21379, "##outh": 6671, "##el": 154, "##onymous": 18599, "##\uc600": 30742, "field": 1281, "##tism": 11654, "77": 7466, "pupil": 22277, "reach": 4689, "spearman": 21086, "##ourn": 5253, "##omers": 8913, "##\u0440\u043e": 18183, "##\u305f": 30408, "##reten": 24233, "##faces": 3686, "fx": 14834, "seat": 16938, "abbreviations": 11121, "##\u57fa": 30684, "##ol": 162, "(0,": 6766, "##idal": 6306, "##adaptive": 17560, "##sky": 10746, "cet": 18013, "speaker": 11074, "corn": 10823, "pain": 2675, "feed": 2346, "brane": 28183, "fragmentation": 11961, "##ements": 3249, "##factorial": 27091, "##recall": 27029, "aimed": 7489, "##ains": 1014, "##\u00c4": 30372, "##ically": 1057, "exec": 2656, "[33]": 17495, "neoadjuvant": 26939, "minus": 15708, "gated": 26961, "74,": 26984, "crust": 17200, "mgso": 29551, "pw": 10470, "scanner": 14944, "analysing": 19211, "gv": 14680, "paul": 8374, "ug": 8966, "##jima": 29598, "tro": 6104, "chose": 10493, "##ounce": 17865, "ctober": 21333, "[unused55]": 56, "##observer": 22749, "adenocarcinoma": 14091, "##oth": 570, "describes": 5223, "emphasize": 12712, "simplify": 13221, "##rition": 14122, "grammars": 25585, "zeit": 13207, "[20,": 19250, "jones": 10860, "progressively": 15116, "1024": 24439, "##(1,": 8132, "0.99": 11680, "deacet": 26168, "net": 3657, "district": 10689, "reef": 23477, "qrs": 26811, "ley": 28242, "bcc": 28049, "8.9": 28882, "bc": 6917, "fibrill": 13593, "munich": 27221, "robotic": 14096, "sectional": 27554, "acid": 1397, "mth": 22462, "concurrency": 22666, "##aturated": 13639, "hydraulic": 16749, "symptom": 8316, "nano": 9183, "##==": 13325, "##calc": 13208, "1:1": 18562, "(44)": 23853, "##eter": 4525, "kre": 12985, "cao": 19410, "emphas": 6363, "evidence": 1775, "ich": 9869, "##dovepress": 25984, "##src": 26082, "##\u2010": 30246, "0.5,": 17101, "minimization": 12091, "dichotomous": 28490, "ru": 7345, "##ammad": 28134, "arguably": 24854, "fingerprints": 28662, "maximizing": 15598, "##aney": 30056, "##\u2236": 30847, "##ulating": 3529, "##ences": 1217, "xin": 24899, "thr": 10804, "police": 15023, "##who": 14538, "awa": 7306, "pleth": 27592, "##scri": 29649, "polystyrene": 28338, "dramatic": 12405, "##arn": 19505, "yd": 24731, "##correlation": 18309, "untersuchungen": 22158, "generates": 7929, "##no": 2682, "##ga": 2784, "initiation": 7384, "cooperative": 9189, "##onit": 14547, "cars": 17857, "predator": 19459, "##14.": 17684, "pka": 17196, "##mode": 11140, "31.": 11149, "(1:": 14355, "cmos": 14672, "##19,": 15441, "##16.": 17895, "mitigate": 16735, "##large": 22659, "dying": 23554, "##ensen": 12059, "##bri": 18335, "foreground": 19872, "##retest": 30089, "nucleotide": 7948, "hern": 23860, "quas": 14745, "creating": 7329, "contributing": 10027, "brook": 23868, "##\u306a": 30459, "categorized": 12622, "test": 856, "260": 16701, "listing": 19127, "kinet": 29487, "adipose": 12342, "##dic": 12137, "forms": 3444, "utah": 27667, "2001),": 17279, "\u00d5": 24792, "alto": 27323, "dess": 29402, "##amers": 15062, "remainder": 11336, "release": 3408, "moist": 9391, "##lowering": 29699, "richardson": 23211, "published": 2611, "##omm": 2012, "equip": 6064, "##ophila": 9725, "backup": 22345, "general": 1196, "hcg": 27459, "##bg": 17207, "terminal": 6679, "turn": 3216, "marks": 13703, "##\u22a2": 30570, "attitude": 10924, "##\u201344": 25077, "##tral": 10138, "prc": 29722, "ultrac": 28617, "dendritic": 11218, "per": 309, "##gestion": 8933, "##ography": 2472, "observations": 3244, "ny": 6808, "tcr": 13823, "contract": 6610, "##bra": 13766, "leverage": 17704, "hungary": 26807, "##ratio": 21272, "shut": 15926, "[3,": 10522, "##ights": 2025, "##hering": 24469, "##\u3092": 30391, "transactions": 7285, "incorporating": 11628, "veri": 20169, "prepare": 13082, "ascites": 23566, "shoot": 14060, "##uates": 14826, "##huang": 28801, "##l": 30115, "osp": 24177, "##yellow": 27723, "damping": 13872, "din": 11764, "##oper": 2097, "establish": 3897, "sulfate": 10498, "wisc": 18380, "##withstanding": 28820, "##immer": 21718, "pacing": 20110, "mycel": 24902, "shifted": 11036, "ui": 8442, "##system": 11870, "##mitted": 3237, "shaped": 14792, "141": 20522, "verschiedenen": 27725, "servo": 26291, "##ordance": 6504, "fell": 15545, "anchored": 28243, "jo": 9268, "str": 411, "160": 10783, "rose": 12954, "##valent": 27830, "##ury": 2598, "##coh": 18788, "acetylcholine": 20626, "##\uc2dc": 30689, "total": 1114, "juice": 20899, "##tro": 1741, "omega": 22431, "merger": 23968, "wen": 11592, "##er": 114, "259": 26589, "bacillus": 17166, "a": 106, "##atures": 1534, "forum": 17614, "enterprises": 14271, "nausea": 18816, "##sia": 4894, "secret": 7717, "link": 2022, "##ood": 1166, "planning": 4608, "##bd": 5536, "##-3\u2032": 22062, "evidences": 25034, "hydrophobicity": 29811, "##natural": 19585, "indoor": 13734, "##\u2309": 30558, "spreading": 12980, "fastest": 22675, "regard": 1985, "twice": 6279, "##\u0161": 30360, "##sr": 6653, "corrosion": 18123, "##lee": 16117, "##12-": 22643, "laure": 26254, "##tense": 28673, "metabolites": 9125, "entsprec": 24371, "17].": 29876, "surf": 21614, "##uis": 8305, "##hab": 10150, "##9].": 3631, "ulcerative": 29444, "bear": 12072, "##erative": 8114, "##sensitive": 10149, "idiopathic": 17212, "scarcity": 30053, "##ject": 941, "[unused9]": 10, "##st": 187, "biophysical": 23287, "##\u0338": 30696, "biopsy": 7892, "##chied": 11565, "##stadt": 26683, "##uretic": 21114, "enables": 7016, "conjug": 6255, "N": 21223, "economic": 3587, "lg": 8900, "0.59": 26242, "##roth": 29562, "biopsies": 13581, "##pred": 9312, "##\u201333": 22076, "##aling": 4202, "distant": 11067, "unable": 8576, "[32].": 16333, "##far": 10525, "aim": 2579, "tones": 21728, "##\u201d,": 4644, "uns": 6327, "perturbative": 29642, "parentheses": 22049, "##ine": 276, "##porter": 6848, "agents": 3027, "##xi": 3135, "mhc": 12942, "##inis": 18848, "ordinal": 21464, "levels": 1049, "engel": 26927, "blindness": 28303, "1.7": 10486, "guess": 14378, "broth": 17869, "##charomyces": 20906, "##istering": 22754, "fit": 2471, "qc": 17835, "deployment": 10524, "collaboration": 7392, "convey": 15505, "##005": 16346, "glasgow": 26195, "morphology": 6203, "##tise": 9568, "systematic": 5158, "##ovol": 18038, "paw": 24229, "5'": 26637, "##\u2245": 30925, ";": 1814, "sludge": 16524, "putting": 17408, "1.2.": 24635, "arises": 10379, "outperforms": 15247, "##acetate": 18903, "##etr": 3418, "##je": 7360, "checked": 10315, "##ativen": 23709, "##\u2193": 30369, "[27]": 13692, "immunized": 21543, "schist": 24294, "decade": 10028, "##\u51fa": 30652, "##ibrary": 18594, "amenable": 22823, "gif": 23233, "pij": 29346, "melting": 13824, "choice": 3327, "[14": 21244, "##teilung": 24077, "ara": 23787, "##ne": 711, "empty": 8079, "##ial": 354, "##\u00e4ts": 26072, "##itsch": 29885, "coun": 1821, "##tivo": 26402, "nitrate": 12509, "##yb": 21324, "synthetase": 27842, "##\u5408": 30575, "##opia": 20171, "counterparts": 12917, "uter": 9975, "##cussion": 23321, "param": 14027, "affect": 2606, "pedestrian": 23333, "kv": 9881, "##cr": 1304, "orthonormal": 25015, "##ermost": 25669, "##\u307e": 30669, "if": 543, "progester": 16105, "##/.": 16339, "fractionation": 19998, "##\u4e86": 30760, "france": 6793, "logistic": 7312, "3.8": 14284, "classified": 5346, "polys": 11692, "impression": 14847, "##iton": 9634, "olig": 5408, "##gate": 17703, "thorac": 9338, "##/10.1016/": 11400, "encompasses": 23460, "##08": 8037, "march": 5234, "##nah": 12326, "##lands": 5400, "luciferase": 13145, "inhibits": 9233, "disequilibrium": 28366, "sequestration": 26872, "27": 2532, "wur": 6490, "##icious": 10523, "russell": 19788, "##egfp": 24552, "pancreas": 14752, "accepting": 20456, "loose": 20417, "repositories": 27766, "judg": 7920, "pcs": 15274, "thrombus": 22563, "##-80": 22268, "oi": 15617, "auctions": 27636, "subcarriers": 28413, "transpa": 8969, "1990,": 17249, "slower": 10700, "wrap": 23474, "##itrate": 25451, "##\u00fd": 30455, "##pubmed": 12750, "##nut": 12384, "##obi": 11129, "##bruary": 6045, "argument": 5618, "##was": 6825, "drug": 1698, "##gb": 11652, "##rect": 897, "##opoiesis": 27483, "##)],": 19339, "##encing": 3763, "osm": 10678, "dis": 271, "tidal": 18148, "##myc": 15290, "cit": 11612, "\u00a4": 20840, "pending": 27851, "##\u0633": 30434, "little": 3441, "lec": 9999, "attribute": 7053, "hope": 9859, "traps": 18794, "identifiers": 21595, "##ise": 764, "conges": 24728, "rectang": 9467, "lysis": 13023, "worked": 11182, "addressed": 5774, "sacrific": 13888, "married": 17648, "aside": 20047, "##schr": 28913, "partitioning": 10725, "sondern": 21101, "interpreting": 16225, "98%": 24649, "##305": 24418, "##mortem": 21703, "##agement": 7471, "trad": 2673, "tree": 3093, "seal": 19242, "galaxies": 10793, "##-200": 9116, "implying": 14466, "dent": 9691, "sedimentation": 21054, "enhancements": 25633, "##exist": 8493, "that": 198, "##bung": 22037, "collectively": 14974, "anticoagulation": 24028, "##out": 521, "barriers": 8719, "##age": 342, "becoming": 9605, "lamin": 11227, "consonant": 29768, "##assisted": 13680, "##\u0307": 30283, "##ediatric": 16006, "##\u014d": 30761, "##sept": 22677, "##commut": 27671, "(201": 1928, "shed": 11814, "apnea": 23664, "##\ubd80": 30832, "##\u0648": 30354, "##ichtung": 29777, "lobes": 19765, "mas": 2915, "##ogenicity": 18192, "9.6": 27312, "tester": 29287, "##asure": 16198, "decentral": 14732, "anomaly": 13564, "ari": 13884, "##orescence": 10681, "##emi": 5035, "modulates": 19812, "##seed": 22764, "##aring": 3290, "[5]": 5953, "bre": 1629, "ineff": 10081, "substan": 20322, "##rat": 16205, "##yg": 22346, "?,": 24684, "##mek": 26311, "app": 806, "##oplast": 20752, "##ature": 660, "##ival": 1531, "##1.7": 16696, "##gm": 9443, "##sies": 11548, "structured": 7908, "neuron": 7781, "demyel": 28172, "caution": 14926, "[unused56]": 57, "together": 2738, "icam": 24191, "nih": 11672, "rnas": 14036, "ortholog": 21034, "del": 1194, "218": 20070, "6)": 10065, "beiden": 21816, "##duce": 2309, "effector": 12312, "biochemical": 7235, "##gran": 18834, "##carrier": 28347, "pediatric": 6946, "pq": 14295, "sn": 2308, "carri": 2339, "(14": 12007, "5.2": 6936, "abstr": 3628, "stabilization": 11233, "sports": 11239, "implant": 6251, "##erve": 2634, "bees": 20319, "communicating": 17374, "considerably": 8222, "demands": 8515, "5000": 17088, "disc": 706, "parametric": 11252, "##72.": 30006, "stiff": 8380, "outgoing": 20663, "acoustic": 8304, "lik": 1009, "##uited": 9067, "restrict": 12829, "##ppi": 25330, "retrosp": 17539, "larval": 15130, "##work": 6236, "politic": 24377, "succeed": 13493, "##mk": 15913, "##iples": 6075, "changes": 1334, "##%%": 29334, "##mv": 14263, "##rank": 11589, "partial": 3802, "##@@@@@@@@@@@@@@@@": 24888, "containment": 28404, "##corrected": 22752, "##tices": 3136, "passes": 14397, "(34)": 17981, "##ibe": 24041, "##vk": 20212, "radii": 18334, "##ict": 3048, "stat": 1731, "(2004),": 25825, "##control": 4816, "movement": 4231, "##bir": 13637, "recre": 17105, "reconstruct": 17436, "dosages": 29844, "##nc": 5297, "##gend": 20199, "##64.": 29226, "##fed": 13545, "paralysis": 25542, "##sip": 8703, "##ficially": 20792, "##93.": 29419, "kr": 4019, "attractive": 9595, "445": 29594, "ophthalm": 15384, "catalytic": 8741, "(80": 17837, "generous": 28402, "fecund": 29595, "lecture": 12061, "spl": 3675, "54,": 20782, "these": 407, "cochlear": 24201, "sinr": 26068, "jahr": 28825, "##cut": 5908, "##ac": 156, "##months": 26600, "meets": 17829, "ep": 1177, "bl": 761, "students": 2584, "trip": 15268, "ej": 10832, "##=0,": 23236, "##14": 1635, "stoch": 6067, ".001,": 28530, "demanded": 29337, "##wk": 14495, "chromosome": 6183, "accepted": 3649, "till": 13075, "dissertation": 15996, "##uth": 4194, "perturbed": 19778, "profitability": 22640, "reflectivity": 26583, "##idation": 10967, "(13": 11725, "engines": 16641, "microsp": 18094, "##acchar": 8124, "dyst": 14402, "calend": 23173, "##bp": 3248, "minneapolis": 29581, "sad": 10849, "diet": 3463, "clinicopath": 23487, "##copy": 24454, "competit": 16169, "##zl": 21582, "valence": 15623, "christ": 10492, "accelerate": 17645, "\u011d": 20850, "##\u00b1": 30179, "##lh": 22512, "moves": 9545, "##activeness": 25975, "##labeled": 8687, "tender": 22647, "##tify": 24514, "flower": 18225, "##corrhiz": 27688, "subtracted": 20076, "##urnal": 21166, "ignor": 28152, "throughout": 4038, "leadership": 11201, "##perform": 9266, "180": 8967, "seeding": 24301, "vibri": 29105, "register": 9794, "##parti": 29616, "lock": 14181, "thought": 5168, "continued": 6887, "##izes": 2632, "geometrical": 15019, "saliva": 19633, "##ctt": 14946, "##122": 21604, "medicaid": 21327, "##don": 12391, "vj": 14897, "##bury": 20021, "motion": 3212, "phagocytosis": 22636, "car": 808, "ism": 28743, "##ila": 14107, "##\u222e": 30863, "67": 7319, "single": 1232, "ith": 7530, "contest": 28035, "##F": 30505, "maintain": 2603, "assist": 4515, "##elves": 5181, "shunt": 17956, "ncs": 21909, "them": 1445, "triangles": 16678, "hematoma": 27852, "devoid": 26725, "##ocardi": 10894, "bat": 4199, "##lishes": 18235, "[10": 3708, "ebv": 18603, "drum": 27709, "lov": 20992, "jel": 23742, "\u201e": 11619, "envelop": 9327, "hysteresis": 19240, "analysts": 21926, "##\u5e74": 30736, "assembl": 13306, "fbs": 16283, "##especially": 19773, "pups": 23389, "nitrocellulose": 26729, "order": 993, "9(": 24161, "##51": 7647, "even": 1390, "specif": 3150, "##16)": 29615, "phosphory": 4212, "##das": 15037, ".0": 3179, "##prob": 15381, "##\u0629": 30547, "##exposure": 25464, "conserved": 7027, "congestive": 26411, "zum": 11263, "##anks": 23655, "tempor": 3174, "staining": 4955, "##avas": 19968, "##ovsky": 29313, "juxt": 29360, "thirteen": 26173, "ttp": 18210, "\u01eb": 8743, "18": 1178, "##\u30c6": 30819, "aggreg": 3534, "\u00d8": 11898, "supernatants": 15826, "obey": 27178, "mining": 7566, "cru": 25635, "selective": 5704, "##stem": 410, "dendr": 17090, "[unused97]": 98, "anxiety": 6319, "##(1\u2212": 9735, "reli": 2816, "merging": 15198, "1993)": 22712, "[unused29]": 30, "##inate": 8692, "licensed": 15677, "##shot": 15636, "##depth": 15122, "competition": 6543, "lingu": 8589, "##O": 30666, "##sum": 10228, "evacuation": 29675, "letter": 9584, "additions": 22548, "\u2016": 3774, "##gfr": 6838, "lag": 8527, "expressing": 7038, "##oa": 8212, "##etti": 15904, "base": 2971, "jean": 20004, "##results": 21391, "before": 1548, "phe": 11174, "##lers": 21480, "##\u6a5f": 30941, "facility": 8516, "predominance": 26680, "ged": 25023, "2008,": 8021, "pe": 920, "##82": 6578, "unitary": 16131, "0.54": 24918, "##99": 2510, "##-10": 4794, "##244": 17500, "2007).": 6196, "noise": 2654, "happened": 18647, "heterod": 19022, "##arynx": 19612, "labelled": 13437, "mental": 4476, "safety": 4104, "[24,": 22162, "##top": 6776, "malnutrition": 23609, "##ledge": 1643, "##chart": 25408, "size": 1243, "precurs": 7117, "##iones": 15170, "tooth": 11696, "##-6-": 19161, "##etween": 463, "##le": 143, "habits": 15572, "president": 15980, "adiabatic": 24779, "##stan": 20205, "##<0.0": 9425, "##iele": 20122, "ect": 8182, "unnecessary": 14331, "particularly": 3220, "##ophag": 6662, "##/12": 15714, "grape": 23544, "##\u00ae": 30252, "##onc": 11844, "lh": 10360, "retirement": 21869, "##orm": 280, "##compl": 22891, "eas": 1997, "arrhyth": 14285, "representative": 5195, "##electro": 15432, "oliv": 21458, "el": 847, "rm": 4842, "damaging": 24204, "pbmc": 27114, "##it\u00e9": 12356, "abstinence": 28692, "##fx": 21859, "##commerc": 16645, "pde": 17451, "down": 1922, "---": 22245, "thigh": 25776, "mets": 26813, "##\u21d2": 30313, "mehr": 13038, "municip": 13112, "##\u2243": 30438, "egfr": 10399, "##:19": 19787, "##ogens": 7814, "gulf": 22124, "sides": 9405, "##.6,": 24259, "drawings": 27486, "##----------------": 13488, "##ymet": 27890, "achieve": 3120, "locomotor": 20641, "investor": 22917, "##pose": 2173, "insect": 12483, "equivalents": 22510, "wes": 4046, "##atique": 27571, "ira": 27551, "##\u00b6": 30368, "debr": 15959, "hypoglycemia": 25473, "\u03c4": 2699, "downstream": 7349, "candidate": 5286, "settling": 25317, "0.51": 28576, "##1/2": 7804, "(26)": 13784, "anesthe": 6583, "ou": 7049, "duality": 19035, "advertising": 15864, "##\u201311": 12857, "##osed": 16969, "topic": 6721, "parap": 27633, "gm": 5199, "##iffiffiffiff": 9422, "fight": 19359, "pulp": 18671, "ed": 777, "labour": 10814, "asn": 24716, "proposing": 25856, "##1.": 889, "li": 2329, "trout": 20803, "##aun": 22060, "edges": 4800, "residues": 5251, "##:5": 7182, "##wr": 5012, "##\uccb4": 31078, "umbilical": 22114, "scale": 2211, "suppressor": 14957, "anonymous": 13751, "##computer": 16255, "autopsy": 22905, "archae": 15165, "zu": 3887, "##supplementary": 9926, "61,": 24452, "##iz": 277, "ukr": 30026, "##zu": 12837, "##caus": 27286, "catalysis": 19913, "##tumor": 19553, "requirement": 5622, "incremental": 11532, "##onomy": 8323, "xue": 27907, "##iasis": 15825, "aggres": 29671, "[7].": 7534, "astro": 28648, "mars": 15497, "reprints": 19113, "keratinocytes": 22526, "367": 27893, "##hens": 16815, "##un": 164, "neut": 3096, "conform": 7625, "##stand": 1710, "knowing": 13845, "1,2,": 18716, "gang": 8587, "##(11):": 29043, "##\uc5b4": 30877, "char": 813, "##paramet": 10308, "##obil": 9739, "emg": 16560, "making": 3469, "partition": 5449, "jane": 19731, "jus": 5694, "nsclc": 17817, "preoperatively": 28503, "##bib": 26886, "##inner": 29041, "##.44": 19434, "##frame": 12893, "##\u00b7": 30173, "##centre": 26533, "owners": 17638, "days": 1976, "enthalpy": 27929, "##qi": 8461, "##ges": 2150, "histidine": 24032, "##keleton": 10675, "##auf": 9241, "pr\u00e9s": 26794, "##3/2": 24042, "##vely": 642, "(0.4": 21251, "combat": 19924, "##.2.": 7978, "##international": 22128, "##160": 16955, "##price": 23631, "followup": 25271, "##ethylation": 28489, "##ston": 11933, "locking": 23076, "ff": 6057, "feld": 20610, "helicobacter": 28444, "instances": 6043, "sf": 6767, "mammography": 28365, "invertible": 23282, "##tz": 6027, "ariz": 22093, "arthro": 17182, "jar": 20054, "##ysiol": 19187, "penalties": 29097, "##tigraphy": 29106, "##cls": 28032, "queen": 14698, "schwe": 21402, "formulated": 10550, "tropical": 10576, "past": 3648, "##:3": 9436, "hors": 13485, "399": 28664, "highlighted": 10463, "##.1)": 5833, "interacted": 26523, "##obes": 29737, "entire": 3387, "212": 15745, "proteomics": 19395, "vid": 29362, "trib": 12439, "phenol": 15302, "slur": 25175, "##\u7d20": 30997, "##19": 1685, "judicial": 25121, "possibilities": 10008, "consultant": 20779, "valle": 28284, "diesen": 19726, "##tain": 519, "blut": 15426, "sodium": 5183, "##business": 22181, "departments": 13155, "##roph": 2201, "##conditions": 25266, "dep": 719, "gk": 14590, "flav": 8099, "referred": 5285, "##5.00": 12609, "fin": 1106, "redistribute": 29018, "satellites": 21561, "selects": 15124, "polyvinyl": 28803, "##aves": 3227, "mss": 22477, "parse": 24199, "##ischem": 27044, "tia": 27605, "##\u4eba": 30712, "exacerbated": 28778, "novelty": 20311, "enlargement": 20691, "##sible": 914, "trat": 23503, "##ostatic": 14657, "convective": 22184, "##antitative": 21892, "radar": 10778, "schl": 19354, "##\u03b9": 30361, "expansions": 21227, "3(": 9877, "zell": 23800, "elapsed": 25601, "##astr": 27513, "crim": 12107, "worldwide": 9820, "##265": 29089, "irradi": 6394, "##\u00f3n": 5344, "beads": 11991, "strata": 25184, "reduction": 2135, "\u03a5": 24014, "##timulation": 27512, "##earch": 12742, "##ische": 7594, "##t": 30108, "cumulative": 8217, "##ey": 9257, "neoplas": 12074, "224": 23277, "##quality": 11391, "##pt": 489, "##tional": 1550, "##yle": 5063, "xm": 15115, "potentially": 4705, "##oving": 25960, "sap": 9254, "##lock": 10880, "relations": 1405, "supplementation": 11363, "driving": 7290, "language": 2647, "##ogeneic": 19768, "clades": 24656, "##177": 26669, "degener": 23113, "zen": 25800, "ireland": 15101, "taxa": 12026, "dealing": 10449, "retur": 6195, "mini": 10202, "carbonyl": 19718, "0.19": 14694, "##ths": 23229, "enhances": 11271, "tal": 6031, "##transfected": 19702, "spent": 9181, "##orus": 27296, "##\u00d7": 30187, "##plant": 4101, "##\u8981": 30653, "wash": 13798, "zur": 6494, "hamiltonian": 11373, "##:6": 13973, "couples": 16194, "oxim": 29998, "stepwise": 17195, "strat": 21081, "stol": 26475, "\u2205": 10485, "rab": 5345, "tg": 7720, "##\u00c0": 30419, "community": 2928, "[unused40]": 41, "verbs": 19110, "relief": 13552, "vte": 28665, "initialized": 21288, "##2[": 22385, "##planes": 27639, "motif": 10066, "distorted": 18799, "##\ub85c": 30530, "##cks": 9252, "nak": 9916, "interoper": 16899, "inactivated": 21002, "##ivers": 933, "converge": 12504, "syringe": 20229, "##print": 7734, "##legal": 19467, "cyclic": 8783, "##iferative": 19040, "incentives": 12493, "(2008),": 26221, "policies": 5691, "2010;": 6129, "instead": 3222, "8.7": 25833, "170": 14607, "hence": 2217, "##opress": 23769, "prin": 7877, "##being": 9973, "##filter": 26732, "miner": 16013, "##jun": 11234, "##prog": 27361, "##202": 23336, "##\u6e2c": 31013, "##olution": 1501, "##aff": 2776, "adder": 29536, "##eds": 7572, "shell": 9665, "modifications": 7551, "##ulu": 26207, "##abstr": 14033, "##atives": 3283, "(0.": 2286, "approached": 18083, "##36.": 25135, "homotopy": 22218, "##sic": 25485, "author": 2323, "specific": 1154, "1994.": 13990, "spiritual": 18777, "##adeh": 23189, "##effects": 17211, "permanent": 9113, "##icking": 10708, "measurements": 2354, "##hle": 10474, "/1": 16242, "cys": 10040, "victims": 17066, "flowering": 19380, "##cro": 23411, "periods": 5081, "63.": 25802, "grace": 26408, "##ren": 243, "implanted": 15058, "##athered": 14262, "mart": 6357, "1.0": 3709, "orb": 7917, "##oplasmic": 18962, "##char": 6039, "##cles": 5456, "mlp": 29509, "##aster": 4236, "##rospinal": 21253, "(3.3": 19725, "converging": 26005, "jitter": 19296, "enhancement": 6586, "impairment": 7356, "stimulates": 16482, "tibial": 17888, "##ativeness": 26147, "+=": 21269, "##wash": 23265, "instrum": 13409, "biotechnology": 11054, "j": 261, "##elin": 18679, "##botic": 27781, "##actor": 10343, "thoms": 25719, "hol": 4451, "assemble": 26045, "codew": 19194, "congru": 14228, "resistant": 7569, "encompass": 12393, "inferred": 11811, "verbal": 10774, "100,000": 19341, "complex": 1127, "gem": 11211, "##hispanic": 29413, "actin": 7173, "millipore": 29813, "##cta": 29850, "##\u25a0": 30337, "bayesian": 8631, "##\u30de": 30984, "dental": 7766, "theoretically": 12138, "spans": 22740, "stems": 15196, "##ptic": 14972, "trophic": 21537, "mechanisms": 2571, "champ": 24524, "renew": 10959, "##conc": 18180, "radon": 26916, "2015)": 22786, "within": 1017, "2001).": 6965, "computations": 10626, "consistent": 2478, "immunization": 14074, "dyn": 19189, "targ": 1330, "(9),": 20889, "\u1e7d": 23514, "pharmacists": 25743, "##(-1)": 28445, "physical": 2121, "located": 3706, "ihre": 20523, "explants": 23223, "275": 18887, "##\u008a": 31064, "##gated": 18548, "micro": 1234, "when": 603, "microscopy": 5820, "##\u0420": 30738, "floating": 15440, "denaturation": 19707, "##prome": 21702, "le": 269, "atom": 7753, "strokes": 23697, "usage": 6323, "##)(1": 27831, "##istence": 28674, "##parent": 20449, "##rest": 1141, "invest": 4065, "##abb": 15742, "choose": 4910, "resc": 11782, "187": 17504, "mex": 9670, "paediatric": 18252, "##fill": 21060, "##aided": 24413, "neurosurgery": 24754, "negotiation": 16173, "obese": 10171, "##]).": 10950, "\u220f": 11553, "put": 3659, "prist": 28487, "##plos": 13357, "display": 3355, "arthrop": 28526, "nucleosome": 29943, "themselves": 5675, "biotechnol": 22758, "##\u2044": 30196, "##sitization": 24511, "##119": 21267, "##aching": 3797, "facts": 10284, "dix": 25113, "##zer": 4613, "accep": 3503, "ste": 2038, "##sto": 21708, "osteogenic": 27539, "##xo": 29114, "subd": 17013, "approval": 10192, "##elles": 11421, "disparities": 19808, "##urity": 3020, "zircon": 29567, "qpcr": 18217, "gynec": 13690, "geodes": 18182, "##strand": 11770, "rather": 2316, "periodonti": 26838, "csi": 19351, "##dase": 20867, "antagonists": 14511, "cps": 18964, "wedge": 22608, "subsequent": 3766, "pretreatment": 11787, "6/": 26093, "hundreds": 14949, "intact": 7990, "ceramic": 20577, "##igung": 23893, "##ticity": 28078, "adiposity": 27629, "##ificant": 9351, "##str": 406, "##any": 2710, "##disciplinary": 11446, "##zone": 21711, "##ommons": 13965, "existed": 16158, "polymerization": 14642, "1].": 19890, "curric": 11522, "immunol": 11189, "unless": 7982, "groove": 23680, "##ativity": 9950, "14:": 18187, "##ubiqu": 24238, "##itrogen": 4628, "##ensis": 8937, "triples": 26377, "##zz": 10207, "wkh": 27839, "##repe": 25478, "guided": 12753, "ccr": 12899, "##nmt": 22958, "##rj": 20053, "tim": 445, "##ufig": 17799, "antagonistic": 27128, "remot": 24113, "fres": 28757, "inst": 1300, "##oriented": 7997, "##language": 20716, "marginal": 7468, "desp": 3486, "##Q": 30565, "35,": 15053, "2017": 4585, "level": 615, "clarify": 12611, "embod": 20638, "allocate": 20836, "(99": 29277, "chimpan": 24336, "##pts": 4210, "cardiac": 4131, "##fol": 5841, "erb": 29235, "##\u764c": 31045, "classifications": 18939, "better": 1883, "ang": 1692, "palliative": 17241, "textures": 25419, "nach": 5284, "8.1": 18384, "##authors": 27047, "xii": 28659, "both": 655, "nicht": 6557, "void": 16179, "##\u6b63": 30903, "62.": 25983, "nos": 9594, "triang": 6012, "anger": 19641, "decoupled": 28147, "##99.": 27793, "##aka": 8173, "##\uce58": 30808, "##iento": 19953, "##enen": 11298, "dissip": 10520, "schemes": 5651, "\u00a1": 13090, "(3),": 13676, "an": 130, "cirrhosis": 15202, "sous": 25105, "##15)": 29637, "rewriting": 23227, "broadband": 16547, "configure": 16343, "minutes": 4714, "jw": 17075, "bud": 5881, "native": 6227, "parsim": 22301, "##opositive": 28593, "predicting": 8837, "insufficient": 10119, "simulator": 11128, "##\u00e1": 30234, "practicing": 28313, "dysplasia": 19274, "##\u3063": 30579, "methodology": 4964, "##\u21d4": 30506, "subun": 5920, "ration": 26720, "##5.6": 20924, "##genes": 24463, "##\u30c1": 31083, "stew": 17783, "80": 2833, "##loaded": 3864, "intervention": 3832, "##\u03b1\u03b2": 18257, "aur": 15430, "##iques": 13252, "##icit": 25161, "aco": 28012, "\u20ac": 20801, "##yd": 13558, "##statis": 16948, "signaling": 3354, "2012,": 8655, "##1-2": 21796, "tib": 9959, "transplants": 27093, "producing": 7428, "quasi": 8889, "synthesize": 18403, "hoch": 19140, "mum": 24498, "##tention": 7267, "1992,": 16202, "##mart": 16859, "##iments": 11800, "5\u2019-": 25391, "retained": 10238, "schr\u00f6": 24966, "##lyl": 26187, "##idus": 26163, "##\u00f4": 30324, "pdms": 23627, "calves": 23933, "impaired": 7090, "vii": 11518, "##in": 107, "##ither": 1475, "tinnitus": 30074, "flux": 4597, "miller": 10654, "handed": 28873, "##blance": 29560, "##coa": 15146, "polyclonal": 14534, "throm": 5065, "244": 27065, "disruption": 10278, "##ket": 13580, "primord": 23016, "##irable": 7841, "retains": 24916, "##\u201345": 28978, "##cept": 1246, "##col": 3439, "washing": 6907, "pore": 9514, "absorbing": 23962, "shad": 9758, "shortening": 18055, "##artment": 1888, "tradeoff": 18906, "sequentially": 15535, "tlc": 23204, "301": 18771, "##regulation": 5935, "##permissions": 23944, "spectroscopy": 7779, "11].": 27181, "##ailand": 18218, "unfamiliar": 26177, "convenient": 10153, "##yma": 19263, "produce": 3299, "[SEP]": 103, "(1999).": 14938, "bic": 8812, "proceedings": 5643, "[6].": 7409, "mitochondria": 9170, "sheet": 11270, "##post": 13999, "tir": 23051, "infinitely": 20913, "walsh": 26403, "##most": 2854, "titers": 18485, "seamless": 24236, "##blasts": 24251, "fraction": 3160, "##:9": 19582, "240": 13910, "##onoi": 25982, "negotiations": 27966, "lavage": 27399, "direct": 1381, "pmid": 17509, "wegen": 30052, "autoimmunity": 28329, "sitting": 20016, "orn": 21457, "rain": 7112, "teams": 10494, "##chool": 22598, "oscillators": 23608, "##chain": 11808, "gift": 18513, "collector": 21737, "##odynam": 6050, "</": 22934, "sonication": 28478, "##\u30d7": 30836, "##acity": 16591, "gastro": 5987, "hrs": 17027, "##us": 153, "overwhelming": 22954, "synthe": 3637, "inclined": 25309, "##,3": 13748, "dd": 8315, "##anghai": 13696, "##workers": 18322, "filament": 14040, "adolescent": 11644, "five": 2539, "preserved": 10904, "cfu": 16059, "bk": 11891, "##artite": 20855, "mig": 21073, "m\u00e9d": 28631, "extrapolated": 26182, "analyzer": 12951, "spatiotemporal": 22574, "mutants": 6334, "dilute": 24683, "genotype": 6967, "##omethyl": 24726, "manip": 5033, "gaseous": 27355, "underlined": 29580, "wet": 7061, "harvesting": 16609, "##these": 19345, "fig": 522, "##ouse": 1911, "##cre": 7613, "##eri": 17000, "stern": 18033, "jersey": 22386, "ischa": 19201, "possess": 6582, "3.2": 3914, "cholesterol": 6458, "organisms": 7588, "##five": 15538, "unavoid": 29205, "sal": 1896, "f\u00e4": 29409, "(0.0": 13218, "##uded": 3457, "##famil": 27726, "consequent": 18170, "##aa": 4871, "noteworthy": 16770, "associations": 6225, "portray": 26784, "absorbed": 13792, "unusually": 29799, "visual": 2180, "plated": 17039, "others": 2968, "##.21": 13141, "thinking": 9483, "rdf": 18529, "afp": 28634, "##generate": 25963, "turns": 9980, "##.3": 798, "reciprocal": 14909, "##ald": 14232, "establishing": 10871, "8)": 11596, "authority": 11226, "mediators": 13958, "##neapolis": 27169, "diseases": 3379, "elder": 7328, "infin": 14235, "(2013)": 11701, "traction": 22898, "##imburs": 26749, "##pure": 27864, "murray": 20525, "poin": 828, "plate": 3551, "shrinkage": 20875, "confluent": 28412, "identification": 3366, "designer": 16337, "oper": 976, "medizin": 24433, "##abad": 29676, "##\u0438": 30257, "complete": 2467, "victimization": 29742, "##agia": 22716, "excluded": 5544, "##erman": 9367, "##\uace0": 30588, "senescence": 17884, "##aip": 21867, "##.2,": 8980, "appreci": 9325, "##dq": 18395, "##rousal": 17668, "hmg": 21443, "variation": 2835, "nt": 4405, "##23": 2165, "eluted": 16760, "##ports": 2514, "maz": 24650, "immunohist": 8386, "##pendicular": 12073, "ofdm": 16359, "##right": 8754, "##ipot": 18494, "##iciencies": 11167, "95%": 4137, "tailored": 17111, "ophthalmol": 25270, "##\u21be": 31086, "rheumat": 13140, "##ativ": 5122, "##trig": 18437, "##grad": 2879, "##\u56fe": 30868, "leiden": 29181, "##profit": 21756, "mutational": 24327, "cuc": 23681, "decentralized": 18892, "##enia": 12973, "cancel": 22589, "bow": 7570, "##dehy": 7239, "),(": 22172, "testosterone": 14368, "improving": 6017, "##annt": 23858, "##1,": 587, "schematic": 11923, "##-.": 20310, "satisfactory": 11675, "receptors": 4161, "lump": 20140, "survivin": 29827, "##ahydro": 20353, "(2.": 10582, "maternal": 6403, "polyg": 12218, "islands": 12904, "parents": 5494, "##.~": 20509, "20,": 7102, "##\u20444": 1819, "##entially": 2892, "##inhib": 15735, "hess": 28187, "except": 4359, "##\u00eancia": 17691, "came": 10425, "suffering": 13158, "lum": 5743, "oo": 12928, "\u2223": 4315, "+": 473, "##uting": 4547, "valued": 16897, "analgesic": 20508, "disclosed": 22118, "catheters": 24097, "##nson": 24352, "technique": 2358, "##\u27e8": 30524, "gradually": 9049, "spike": 11826, "##rer": 6397, "observes": 27069, "##oop": 22859, "lv": 6927, "ei": 6782, "permitting": 27923, "8),": 26427, "##idas": 27980, "##.28": 14386, "cortex": 5328, "outperform": 21198, "overexpressing": 23422, "cocaine": 14083, "schmer": 27246, "degraded": 13499, "destruc": 10819, "4;": 22358, "orientation": 5135, "funders": 26209, "hoff": 16848, "##adp": 19008, "isolated": 3336, "21": 2337, "balloon": 16496, "ay": 8184, "##otypic": 8423, "88,": 29189, "##.46": 19914, "($": 23023, "orbital": 11783, "advertis": 10727, "subj": 4464, "\u00d7": 2023, "differentiated": 9923, "porous": 13420, "thrombin": 18194, "##os": 169, "benchmark": 7236, "intu": 7289, "cracks": 24264, "asm": 26118, "sharing": 6404, "##ced": 1277, "intend": 23139, "eis": 24154, "spinal": 6624, "novel": 3045, "stir": 10446, "##prin": 8370, "##adjuvant": 24389, "(9": 3758, "##hao": 11290, "after": 647, "unsaturated": 25367, "##carbox": 19721, "dom": 1152, "cipher": 17089, "360": 15560, "##bility": 1875, "carib": 25347, "sulf": 5170, "application": 1836, "##\u044d": 30699, "platin": 17939, "effort": 5264, "alloys": 20683, "##-13": 10129, "##iol": 12881, "activator": 14626, "##enching": 18685, "rearr": 11030, "##vex": 17641, "##\u0159": 30582, "##eq": 10661, "thumb": 24960, "mpeg": 22559, "##geal": 12177, "##ologia": 14748, "[unused54]": 55, "##estock": 17868, "amplification": 7462, "##idine": 5978, "administrators": 23298, "##ele": 9700, "iterative": 8872, "##usted": 4300, "##ochen": 17619, "producers": 15793, "[unused50]": 51, "##ichen": 12411, "think": 4960, "renders": 24287, "488": 23484, "multivariable": 19205, "pipel": 27756, "##gia": 16638, "histogram": 11261, "##task": 18855, "##vestig": 29961, "fluctu": 7382, "##square": 11911, "7].": 26329, "cyto": 3268, "##arsal": 27901, "##alin": 25104, "(0": 5184, "gase": 25941, "##allic": 24631, "isot": 8566, "additionally": 4782, "(0.8": 22410, "dose": 2750, "##/1.": 22713, "sandwich": 27538, "healing": 9846, "##elve": 14462, "##uted": 1479, "##wing": 17718, "wave": 2530, "screws": 26987, "maxim": 3068, "plei": 28670, "##hydrox": 13814, "measure": 727, "vital": 9612, "involves": 5185, "##129": 21842, "alice": 17282, "##017": 24315, "refused": 27157, "yuan": 19789, "binomial": 20066, "definitive": 15114, "endoscop": 8695, "oxy": 24427, "##.8,": 27272, "hypotension": 21983, "##mittel": 26597, "drain": 9105, "##o": 30112, "validation": 5815, "##wage": 23120, "##33.": 26259, "[unused26]": 27, "probabilistic": 8920, "ao": 12436, "##cj": 18570, "te": 1094, "##quez": 25525, "##pered": 21286, ")\u2212": 21476, "operator": 4196, "##othermal": 26398, "true": 3223, "rotor": 11529, "hypersen": 19056, "temporally": 20336, "tracer": 16551, "##iac": 11699, "evolutionary": 6644, "##ktop": 20863, "hepar": 11445, "##6%": 6063, "positioned": 13178, "transiently": 21052, "\u2190": 10296, "##va": 3833, "decoder": 15171, "##gluc": 8634, "##ectin": 9063, "10)": 15702, "chirurg": 26978, "grounds": 18440, "veterinary": 14324, "alteration": 12804, "shifting": 14731, "ionic": 11536, "reagent": 10686, "##\u20134": 6315, "guarantee": 8822, "##ists": 1340, "perc": 12510, "##certain": 3196, "##osphere": 12527, "##err": 25806, "##mand": 29341, "deco": 26492, "0.05%": 26437, "propos": 924, "chooses": 15671, "belong": 4389, "ecosystems": 14022, "##bons": 26424, "\u2013": 1159, "gir": 7847, "jy": 22670, "1997),": 20113, "subsection": 13271, "##osp": 1426, "cardiovasc": 25747, "conceived": 15839, "copy": 6919, "moved": 10391, "word": 3824, "sec": 509, "asynchron": 12813, "73,": 27972, "nitrogen": 5886, "tryp": 9477, "dens": 11849, "modeled": 7180, "##occurrence": 23374, "##data": 5216, "##arach": 25039, "barrel": 28894, "sedation": 21111, "kev": 15720, "\u23a1": 14681, "cryptography": 22999, "##its": 800, "parties": 10393, "##qq": 20741, "spiro": 28968, "ganz": 19561, "correct": 2996, "21,": 8773, "guidance": 8646, "##15.": 17794, "track": 3231, "redundancy": 13238, "melbourne": 24993, "purchase": 13543, "geos": 24254, "copied": 27634, "normalized": 5360, "starts": 8553, "mys": 18524, "conceptually": 22839, "##\u0087": 30707, "5/": 24044, "cos": 2002, "##rix": 1652, "jd": 14352, "weniger": 27611, "##alkyl": 28866, "##ucine": 29145, "##cancer": 14618, "independently": 5802, "vessel": 8554, "invoke": 27025, "tsp": 20905, "##\u25e6": 30244, "chains": 7299, "##\u0456": 30485, "2.1": 3390, "##pus": 20467, "##bb": 6518, "##entr": 668, "southern": 7663, "nocturnal": 25337, "elisa": 10290, "##6(": 24991, "r": 182, "##ishes": 8459, "##chr": 10616, "abr": 17936, "##other": 1115, "convenience": 13585, "wild": 3530, "crash": 20116, "##nine": 23296, "consultants": 29784, "protected": 8776, "##ometers": 15775, "##oblast": 10595, "environments": 5097, "acidosis": 26791, "translate": 15655, "prop": 2940, "undes": 14470, "infusion": 7880, "mism": 9639, "definite": 12062, "stretching": 15018, "##sulf": 15071, "amelior": 17590, "##anz": 8271, "usefulness": 12783, "several": 1323, "predicts": 11389, "##kines": 28088, "baker": 17354, "evoked": 13151, "##overn": 16438, "))": 8236, "statins": 23551, "microplate": 28928, "##\uc6d0": 31001, "earlier": 3923, "##word": 8736, "lippincott": 24786, "conditions": 1245, "##tionen": 25813, "##.40": 17460, "##regulating": 26627, "cerebellar": 16464, "asperg": 18869, "29,": 11294, "14)": 23785, "caused": 3111, "trabecular": 25931, "283": 28730, "##-25": 13105, "cirrh": 13270, "retrie": 4242, "[5,": 11520, "elicit": 15945, "##\ub9ac": 30883, "bend": 20895, "phospho": 17579, "cylinders": 26762, "posteriori": 29322, "directional": 14062, "nonet": 11724, "interpret": 3526, "##\u0303": 30209, "encodes": 13445, "##itro": 2086, "amplic": 20309, "fungi": 12255, "##.7,": 25567, "run": 2004, "##iaxial": 29835, "##rient": 2897, "proble": 839, "##anen": 23739, "pert": 5002, "\u306e": 25510, "irreversible": 17253, "##1=": 17580, "13,": 7501, "##onau": 21965, "##akt": 11626, "subcellular": 17992, "##sma": 26455, "##times": 5136, "38%": 27990, "##})": 14248, "clos": 2021, "negation": 24192, "\u03b3": 2416, "ganglion": 17056, "lun": 18659, "sa\u00fa": 21733, "absc": 27632, "##super": 22144, "13)": 23961, "sar": 6460, "walking": 9704, "namely": 5100, "bec": 696, "2014,": 10416, "##lipid": 16684, "isomer": 19261, "opacity": 29723, "pregnancies": 17765, "imprac": 26758, "stromal": 14769, "##iax": 26786, "maximization": 17991, "layered": 18157, "suspicion": 23110, "##versed": 29340, "pelvis": 24293, "[16]": 8716, "(1.": 12802, "biphasic": 26999, "constituted": 19245, "##acc": 2621, "convert": 13254, "kennedy": 23770, "##ski": 6432, "dermal": 20568, "##dense": 24221, "handled": 14178, "anxi": 5804, "ta": 3083, "ot": 5381, "##subject": 20146, "##urane": 19974, "##usc": 7785, "vasopress": 26739, "83,": 28726, "pdb": 28856, "echo": 12048, "##fw": 29572, "peer": 6425, "##relations": 16923, "biofilms": 22805, "##5\u2013": 5125, "overexpression": 8424, "##fluor": 15181, "##reted": 25007, "shop": 14260, "pennsylvania": 16414, "bey": 4769, "outside": 5019, "##arks": 25535, "collapse": 13264, "two": 502, "overl": 4201, "hydrodynamic": 19324, "90": 3289, "wi": 3208, "##olith": 17921, "uniform": 3892, "responded": 12879, "tubercul": 9043, "antipsych": 19150, "hof": 21237, "0": 244, "proced": 1614, "laf": 28878, "canada": 6389, "##\ub3d9": 30913, "libr": 4335, "kth": 19216, "##ws": 4563, "##.2%)": 17886, "os": 3581, "(24)": 12691, "##plicit": 3242, "##transfer": 9419, "##esis": 2921, "##.5,": 8385, "##\ud6c4": 31073, "comply": 22796, "##cholesterol": 23647, "globular": 27289, "cyanobacteria": 29635, "##@@": 4870, "##yt": 5571, "##vary": 14018, "stephen": 19838, "separates": 23472, "soci": 2436, "hormones": 12789, "singularity": 19849, "measurement": 2560, "ort": 28962, "parenchymal": 29751, "tc": 6168, "surplus": 19492, "neurode": 14347, "##iti": 534, "##ex": 762, "card": 1787, "hilbert": 15074, "dro": 6493, "tablets": 18058, "arterios": 28926, "hosted": 29510, "##oen": 25441, "##otemporal": 18333, "hardness": 18559, "scenarios": 5828, "##idene": 25001, "intervening": 28542, "##though": 1341, "##0": 30131, "##ound": 500, "matters": 15520, "otol": 27333, "##okers": 10813, "##igt": 12790, "81.": 29902, "more": 475, "safe": 6828, "##ant": 268, "grades": 15118, "##ched": 3731, "incident": 7956, "##%,": 2759, "axioms": 18135, "combining": 6484, "##\u00e7": 30240, "sender": 15490, "biliary": 17496, "##separ": 18465, "compensation": 8684, "atrium": 26851, "##enn": 6044, "packaging": 17204, "##ohydr": 9415, "##riz": 25051, "prospective": 6880, "##ised": 1736, "incorrectly": 25173, "device": 3264, "##reduction": 24493, "cofactor": 26480, "##ochond": 4136, "##plc": 8247, "##validation": 19817, "vertebrates": 20694, "motone": 27324, "scd": 22404, "inco": 26828, "##tric": 3735, "##free": 3999, "atmosphere": 9680, "##echanical": 13101, "bifur": 13832, "cardiomyocytes": 20239, "##rows": 23521, "yon": 4887, "hj": 13662, "dies": 4230, "##(2):": 11686, "##haw": 18056, "##ength": 1412, "##room": 9272, "##(\u00b7": 10927, "diagnosis": 2716, "simul": 22091, "incorporates": 16571, "##ifications": 5402, "ae": 8674, "##ploys": 15102, "(70": 18975, "##war": 7065, "##lik": 2073, "sleeping": 26668, "(1/": 21861, "hb": 7009, "##ble": 503, "msp": 26463, "##ucks": 26041, "##onazole": 26706, "dmd": 29665, "snail": 26993, "ibr": 26767, "natri": 28103, "subtype": 13334, "apply": 4245, "aden": 5015, "##1):": 15905, "disconnected": 24954, "homologous": 12839, "item": 5900, "intensive": 7694, "latencies": 20707, "##erotic": 17445, "glioblastoma": 24699, "##\u0634": 30466, "distinguishing": 15667, "insomnia": 27110, "decreases": 4819, "##table": 2171, "##eman": 9918, "negligible": 9515, "inver": 4755, "transgenic": 8238, "recently": 2803, "arg": 2120, "mell": 9373, "##\ub418": 30825, "##coprotein": 12225, "underl": 18329, "neurotroph": 22814, "##)\u2013": 25808, "sog": 24461, "##beat": 25993, "##uld": 452, "sh": 272, "##oring": 4343, "##\u03bf": 30508, "connects": 19825, "##iste": 24053, "harness": 28763, "acetylation": 20018, "dz": 13513, "quadric": 26522, "loaded": 9499, "pathological": 8518, "gust": 22935, "32.": 12196, "cataly": 6476, "##0.7": 14174, "##--------": 7747, "pal": 4449, "carp": 17328, "ql": 22264, "doug": 18845, "##response": 10976, "communicate": 11160, "toy": 23314, "cardiopulmonary": 23998, "font": 21782, "morphogenesis": 24290, "jth": 21016, "##ip": 335, "mat": 740, "##ael": 8599, "wit": 9303, "184": 19422, "sac": 9540, "shanghai": 14939, "##\u00cd": 30406, "##alb": 17475, "##inol": 8590, "jud": 4575, "centres": 13739, "illustrative": 24178, "empt": 26232, "levy": 24292, "bpa": 26606, "dorm": 20300, "inevitable": 22336, "##vem": 5599, "##specific": 2922, "tat": 14994, "attem": 3636, "nz": 21437, "ranked": 13494, "wrist": 19438, "dias": 21529, "''": 27311, "inclusions": 20971, "arri": 5391, "pron": 14335, "std": 17346, "fermions": 29343, "controllers": 12567, "recognize": 8974, "mergers": 29736, "prejud": 28844, "squares": 10073, "[unused6]": 7, "##ymph": 2832, "2008.": 8893, "vir": 1470, "interact": 5049, "##bios": 22845, "acyclic": 24209, "drinks": 25409, "##2|": 14421, "rec": 431, "nebraska": 28297, "tbi": 18412, "establishes": 18612, "discriminative": 20900, "(2017)": 21130, "hunter": 23208, "fatty": 6462, "whatever": 16217, "distance": 2184, "specialized": 10533, "##atial": 17170, "modulo": 20232, "invitrogen": 24132, "##binding": 6459, "tonic": 24027, "##moment": 26591, "needs": 3097, "].": 15452, "##annels": 23746, "##cession": 13209, "##lism": 15844, "##quet": 20091, "162": 22403, "rug": 23613, "ange": 10389, "##amiento": 29372, "##150": 16742, "##alytic": 18638, "##oconstr": 21110, "##opro": 4812, "given": 906, "tis": 27387, "gcd": 28967, "replications": 29498, "##itz": 5428, "7.5": 9347, "fecal": 17812, "xi": 4787, "##erk": 11953, "voting": 15001, "ein": 2306, "##ancies": 7589, "cooling": 9091, "polymorphic": 17169, "dext": 28814, "##ling": 2123, "gratefully": 19545, "lysate": 20345, "rem": 769, "dispersal": 15255, "##aten": 9417, "peptides": 6607, "pulmonary": 5186, "##essive": 18091, "##/08": 29335, "ol": 1905, "##agg": 4028, "##/24": 26891, "##ulty": 6713, "goats": 27762, "##teness": 11886, "hit": 9663, "regulators": 12941, "1994)": 20051, "excitability": 22618, "somatos": 25617, "narrative": 15227, "glucocortic": 15883, "stellen": 26319, "rah": 18748, "\u00d9": 25047, "necrotic": 20925, "##placement": 26262, "##\u8fc7": 30947, "9/": 29384, "assistance": 7307, "##jug": 10185, "schwarz": 22967, "question": 2214, "usa": 2394, "(3.4)": 28141, "##)\u22121": 15758, "##hong": 27607, "covalently": 27680, "challenged": 16264, "atheroscl": 9711, "##ua": 9623, "##prom": 13386, "ros": 6089, "[unused80]": 81, "##fund": 11684, "catalyst": 8432, "elasticity": 14341, "##only": 9841, "8,": 4997, "\u2227": 6294, "mtor": 14976, "replicate": 13907, "##blood": 21638, "breakthrough": 23677, ":0": 29904, "brown": 6378, "##.).": 7582, "augmented": 12279, "electromy": 29658, "comparable": 5085, "strengthen": 10469, "802": 13194, "##shell": 18545, "##heiten": 27373, "##taa": 29957, "##\u7a0b": 30857, "ke": 1059, "hallmark": 21367, "buoy": 25682, "##-3)": 28532, "email": 7974, "##phys": 11125, "trap": 11639, "0.25": 8171, "##locate": 27753, "aga": 12297, "##qa": 19949, "nodules": 15710, "##shown": 23376, "expands": 25386, "##referred": 30078, "pras": 26322, "[1,": 7242, "may": 552, "pir": 15185, "kk": 14173, "undi": 20484, "##havi": 16159, "pcdna": 27935, "mind": 6262, "germ": 2927, "manually": 10428, "##lg": 19735, "##anian": 28226, "cause": 2836, "hippocamp": 6981, "##iable": 10599, "condensation": 17568, "effusion": 24522, "questionable": 26294, "dn": 7230, "##comple": 29656, "enf": 20516, "doped": 21155, "##service": 16357, "gastric": 7263, "##states": 19921, "spam": 25403, "##tructural": 22850, "detrim": 15709, "player": 8774, "##domain": 9393, "##kop": 15070, "hor": 3624, "caroten": 19819, "electrochemical": 13213, "##=(": 21557, "plane": 4407, "ocd": 27621, "underestimated": 21826, "##tty": 26280, "observables": 25202, "restricted": 5807, "##jects": 1396, "vimentin": 27297, "self": 1968, "##*(": 21831, "##std": 29156, "goat": 13923, "##76": 3784, "hardly": 16136, "invertebr": 19042, "##idades": 26252, "##mess": 20041, "astronomy": 28253, "trem": 15363, "##olysis": 10443, "(1.1)": 19852, "philos": 9008, "subc": 18674, "participatory": 24873, "##atos": 14449, "155": 15723, "keep": 4480, "##osh": 8898, "facilit": 4009, "sketch": 18026, "##ishman": 18317, "attend": 11296, "##anin": 24604, "aspartate": 26109, "opportunity": 7336, "discrim": 7041, "communities": 5904, "##vial": 7185, "acknowledgments": 6956, "[16].": 9760, "##carb": 14507, "[8],": 12637, "inflammatory": 4907, "will": 650, "##%),": 4764, "crude": 11016, "##iri": 18311, "therm": 2695, "##sd": 4876, "butt": 21939, "sr": 4193, "atr": 17827, "pseudomonas": 16949, "falciparum": 21601, "leishmania": 28436, "thor": 5288, "##8]": 4901, "##etes": 3300, "##visiae": 15279, "separation": 5150, "##gels": 19656, "##12),": 27655, "3.2.1": 29838, "manchester": 26304, "2008;": 5865, "rans": 27627, "distinction": 10316, "##uscript": 3537, "disability": 9328, "\u00c1": 18877, "##wan": 8013, "##ampling": 21260, "parasiti": 26652, "visualization": 7831, "##arg": 664, "23": 2107, "added": 2735, "##arginine": 22996, "wid": 2582, "satisfaction": 6735, "akin": 29177, "aller": 13880, "panels": 11528, "catast": 20670, "preexisting": 27701, "##ding": 5882, "decarbox": 28553, "weighting": 11963, "##uli": 7389, "10": 566, "intrac": 18713, "voll": 25328, "[40]": 23975, "##his": 12096, "##\u5909": 30889, "tem": 956, "conduct": 6030, "0.16": 12989, "unemployment": 14157, "bioge": 20787, "##just": 24134, "##dow": 26569, "economy": 7425, "jaw": 19375, "##\u22122)": 24831, "2.4": 5040, "cla": 3895, "(2001),": 26146, "[16,": 16880, "m\u00f6": 17143, "##uw": 17553, "##lc": 10535, "increment": 11670, "##location": 14490, "##ired": 2263, "##\u2019)": 14518, "button": 16954, "##mouth": 27283, "##kn": 8326, "fourth": 7212, "singapore": 15252, "questionnaire": 5692, "abol": 13721, "gonad": 15725, "catalyzed": 22652, "##opoulos": 18195, "cables": 25850, "hug": 15689, "##region": 18098, "8).": 13301, "##yrene": 20371, "##aceutical": 8161, "essence": 18361, "##ocr": 4540, "##ureth": 26840, "int": 391, "property": 3713, "zus": 11407, "mds": 19623, "sbp": 19604, "\u0631": 22065, "##operated": 25220, "emphasized": 13682, "lupus": 17597, "peroxid": 9784, "##\u2660": 30824, "discontinuous": 19379, "inter": 357, "##\u2190": 30294, "certainly": 10157, "mcs": 18625, "ended": 20673, "allevi": 13172, "restricts": 25729, "##opter": 13331, "##received": 23559, "determinant": 12392, "##focused": 26500, "here": 1530, "##-23": 13482, "developers": 11884, "brands": 26429, "##oin": 616, "##urn": 1782, "progressive": 8381, "##etary": 8838, "gran": 4349, "##matrix": 14189, "ventric": 5496, "cat": 1793, "xs": 16926, "hu": 4000, "##ross": 1206, "##ectiveness": 4397, "##artments": 8998, "geometries": 17168, "0.90": 17714, "##hetamine": 20412, "##bys": 29541, "bcs": 27008, "##ustr": 1662, "stark": 13407, "breathing": 14641, "2010.": 9032, "##ostasis": 9898, "civil": 10454, "annotations": 15522, "disks": 16610, "(23": 19222, "fac": 1510, "separable": 20435, "triglyceride": 20841, "##rich": 4723, "##odi": 15777, "pile": 27659, "heights": 18215, "\u2243": 17336, "##ank": 1484, "aspirin": 15858, "agencies": 11934, "memories": 15721, "intro": 1205, "differences": 1595, "arcs": 14484, "##tidine": 17099, "##+,": 8382, "fq": 20365, "appraisal": 21972, "rotation": 5696, "cd": 1389, "traumatic": 14220, "##amps": 18780, "sign": 423, "##algebras": 29662, "##an\u00e7": 19823, "##11": 1199, "pros": 12000, "robust": 3701, "sang": 20546, "##ules": 1518, "##29.": 24288, "sarc": 22287, "serine": 13966, "criticism": 21308, "drive": 7021, "2003,": 9083, "allele": 7145, "ffa": 29792, "confused": 26009, "caries": 20953, "##median": 13988, "2003.": 9596, "forearm": 22970, "electronic": 4548, "##nings": 10990, "##\u2192": 30194, "##17,": 14660, "##ivalent": 13833, "##srep": 26138, "309": 28922, "clinically": 7165, "triglycer": 13735, "1989;": 13332, "momentum": 8729, "synapse": 20332, "(7": 4015, "##rology": 11162, "trial": 3303, "##orge": 12220, "3/": 18023, "stores": 11714, "wafer": 17950, "evaluating": 6785, "profile": 3822, "##ulators": 12037, "nevertheless": 5398, "informal": 13217, "##orientation": 24140, "newman": 24909, "##discipl": 10699, "insight": 7673, "jf": 14894, "regeneration": 9864, "instructor": 24038, "lk": 14813, "##\u239e": 30395, "##37": 2986, "##contin": 12252, "searched": 14428, "escal": 20117, "##iel": 29747, "6.0": 14831, "##62": 5710, "plos": 6716, "prolif": 3726, "##averaged": 23407, "##\u02c7": 30613, "##\u00b10.0": 20559, "accelerating": 22820, "identify": 2743, "benzo": 22658, "##ogenic": 3663, "remarkable": 11419, "##arin": 15878, "##lier": 3595, "missions": 25192, "##oxetine": 27549, "isomers": 23037, "##rick": 14624, "ets": 21852, "##mm": 2561, "delivery": 4277, "##seg": 13699, "[32,": 28775, "##ps": 870, "spikes": 16568, "##ught": 6843, "jam": 20347, "##\u3053": 30515, "median": 4248, "##\u2019-": 14952, "goes": 9289, "flavonoids": 21860, "tao": 27458, "movies": 25481, "##sc": 974, "##10": 866, "##itoneal": 9913, "clearer": 27836, "addressing": 11210, "munic": 12777, "going": 8075, "diego": 13893, "peri": 9447, "0.79": 24948, "76.": 29830, "merg": 7876, "immediately": 4993, "distinguish": 5759, "##\u6709": 30556, "1.05": 25335, "inh": 29535, "reception": 18786, "##+)": 8166, "h": 151, "gaussian": 5336, "equivalence": 9357, "classi": 15670, "dij": 27983, "##cdc": 19138, "0.39": 20404, "nit": 8868, "##relation": 9831, "##mul": 9658, "discusses": 11981, "substantive": 25888, "looking": 8427, "ccs": 19096, "city": 5523, "geographically": 23813, "buffalo": 28410, "path": 945, "juan": 28614, "cytoplasmic": 9809, "loc": 725, "rinsed": 18351, "##theless": 5372, "##tailed": 14724, "benefici": 24590, "##thrombin": 25191, "##issa": 24506, "decline": 6929, "hun": 10731, "##.43": 19918, "hemodynamic": 15907, "##itive": 948, "45": 3044, "##ococci": 20910, "initialize": 22689, "##arm": 1366, "##ats": 3257, "1991;": 11620, "##find": 17632, "dt": 4600, "assoc": 19727, "##sec": 6277, "##\u00de\u00de": 21126, "285": 23532, "140": 10369, "##hou": 19836, "##1|": 12737, "ankle": 15407, "227": 24531, "##day": 3113, "exceed": 5574, "##ife": 5368, "osteoblasts": 24490, "##/4.": 18724, "1-4": 27101, "##{(": 29383, "bioin": 12632, "guinea": 16616, "senior": 12424, "element": 2690, "steven": 26783, "lobe": 11740, "##fy": 23516, "##insky": 21336, "##8/": 13119, "accoun": 6131, "tac": 8927, "##549": 20482, "##ophores": 20580, "##oft": 21205, "gnrh": 24152, "raz": 19729, "ptp": 29911, "dur": 675, "pulse": 4989, "##bian": 28897, "##ocl": 5766, "##hus": 24008, "disappear": 12233, "fused": 13796, "crossover": 13200, "rough": 5687, "lncr": 23951, "##igkeit": 13876, "##ico": 6000, "overcoming": 25368, "loosely": 24000, "contaminants": 20050, "cav": 12289, "summ": 2075, "analyte": 22953, "##expression": 12487, "1-3": 23888, "##ility": 483, "[21],": 19717, "deleg": 22739, "defi": 26188, "##ositis": 27391, "cations": 14925, "unexpl": 20352, "connections": 7122, "lysosomal": 22151, "##position": 2684, "token": 13842, "volcan": 22884, "uthor": 13656, "writing": 7219, "titration": 20219, "consecu": 27809, "olymp": 23086, "nsw": 27426, "rates": 1975, "emerge": 13904, "##40": 1864, "repository": 13805, "##rontal": 14224, "sugg": 984, "##9.": 1472, "##leb": 27138, "brass": 23948, "4]": 29812, "n": 146, "##\u00ff": 30380, "injured": 15954, "parasitic": 16099, "##6],": 9376, "reductions": 10287, "arach": 22153, "##csf": 12317, "sanc": 16239, "):": 23438, "decryption": 27291, "##ophage": 9971, "antiretroviral": 20635, "##atalyst": 24384, "pronoun": 29213, ")(": 5924, "##............": 7774, "grand": 10097, "##omide": 24066, "secondly": 11310, "##\u201336": 29745, "nude": 24783, "##vy": 19603, "##\u3046": 30643, "encryption": 11647, "pellet": 15228, "suppression": 7342, "discriminate": 15334, "sorghum": 29938, "##\u00fb": 30340, "truncation": 20334, "wieder": 15972, "disord": 4010, "duplication": 16422, "x": 412, "statis": 1408, "[27,": 24886, "##kson": 28588, "rural": 7046, "cdc": 11863, "broad": 2976, "dh": 8078, "poss": 5864, "representation": 3207, "disappearance": 21640, "contam": 26544, "wolters": 29437, "diamond": 16504, "##omet": 1336, "##nez": 22795, "locate": 13444, "gu": 1328, "implementation": 2848, "concentrated": 8899, "permutations": 19602, "##glich": 14222, "##2*": 20081, "##bad": 15163, "dream": 24776, "exper": 607, "college": 4936, "10.1016/": 22730, "(1979)": 28439, "occurred": 4118, "##omen": 1521, "refractive": 14479, "toluene": 20035, "command": 9683, "admissible": 18366, "##-99": 27673, "ford": 23715, "vertebral": 17063, "bats": 27356, "0.1": 3562, "cavity": 7553, "resistance": 2661, "phosphorylation": 5267, "nn": 7951, "pth": 16988, "regulated": 7204, "report": 2024, "embolization": 24535, "merck": 23332, "##jas": 28102, "##ipped": 7324, "architectural": 14600, "immunoglob": 14627, "[4].": 6971, "reply": 20478, "unpredic": 20747, "cpg": 15341, "outdoor": 18589, "selten": 27145, "ka": 5656, "##pressive": 7130, "standardized": 8614, "fg": 15162, "cow": 8506, "1998)": 16686, "scholarly": 22669, "effects": 1056, "taste": 16471, "spiral": 15795, "1996;": 8345, "chemical": 2828, "##depress": 15245, "$": 3250, "##effectiveness": 19948, "substituting": 12726, "pooling": 21536, "##ovir": 23415, "capsid": 26744, "encouragement": 26231, "##above": 29037, "downlink": 23003, "##ometrically": 26090, "biomass": 7537, "dentin": 26307, "##tered": 2071, "emo": 4012, "neurolog": 5776, "##cam": 7791, "##iatric": 16245, "marrow": 7911, "dict": 14815, "summed": 20430, "encapsulated": 20454, "proteins": 1878, "conformation": 7761, "cysts": 17043, "##ention": 13021, "##1.3": 21003, "lact": 6779, "resveratrol": 26779, "550": 19552, "fitting": 8340, "##xy": 4249, "##geme": 17095, "exerts": 21125, "bss": 22770, "nec": 1593, "##\u20190": 25792, "apparently": 9953, "psd": 21121, "citation": 8891, "prog": 1885, "tes": 9005, "secretary": 29880, "##...............": 18411, "hund": 7886, "##&)": 22662, "strips": 19111, "##3.6": 17003, "matrices": 5399, "vacuum": 9073, "##\u304f": 30680, "##kov": 12540, "unreliable": 22923, "##press": 3298, "##75": 2238, "1:": 3468, "##\u00a1": 30299, "lymphocytes": 9242, "artefacts": 25452, "connectivity": 7953, "null": 6794, "##sem": 12468, "stor": 3558, "cheng": 14900, "requirements": 3420, "goodness": 20921, "chromosomal": 12882, "redistribution": 12768, "accordance": 7630, "pixels": 6778, "##limb": 22663, "0.025": 22880, "relational": 11509, "lineage": 12115, "skeleton": 16084, "einige": 29769, "tight": 7806, "96": 7380, "dq": 13211, "slope": 6775, "respect": 2646, "##Y": 30673, "salv": 17124, "polygon": 19317, "bruce": 21970, "##pal": 11014, "##tisol": 13212, "##irradi": 22903, "##\u00fcck": 21969, "##\u1e03": 30896, "70.": 21942, "##U": 30602, "detected": 2490, "1.5": 3902, "mixed": 4055, "comprehensive": 6124, "kary": 20386, "fertil": 9585, "##ocamp": 6698, "integrator": 27784, "##inite": 6201, "##auss": 21661, "##rocal": 14041, "presum": 8416, "individuals": 2374, "0:": 7651, "25,": 9244, "dmem": 16922, "npc": 21863, "battle": 26290, "ammonium": 13740, "wlan": 26468, "iowa": 19058, "calls": 8360, "rip": 9127, "rio": 16718, "##edi": 2233, "klu": 19415, "hyperther": 26331, "##G": 30551, "##$2": 24438, "##(11": 22433, "sg": 10410, "neb": 29473, "##kj": 15259, "\u00c6": 16022, "acta": 10006, "enclos": 21955, "compile": 28354, "ribosome": 21929, "##amen": 15773, "##gaa": 14061, "somm": 29660, "biolog": 26543, "0.91": 25760, "tung": 21232, "k\u00f6": 14112, "francisco": 15642, "dw": 10029, "##parts": 11630, "harris": 16338, "##\u02c6": 30288, "##false": 25665, "##aud": 11381, "gq": 28512, "eti": 9787, "[60": 23145, "comprises": 12292, "##vent": 2270, "kept": 6890, "cholinergic": 20672, "##led": 810, "proteomic": 22831, "barb": 17418, "##ivided": 20852, "##rophot": 13335, "##:10.11": 13353, "##ller": 14617, "errone": 19163, "orig": 1619, "oblig": 11788, "##hyd": 28368, "##20).": 29003, "insbesondere": 30046, "##\u793a": 30715, "##pit": 16380, "##ell": 258, "angiotensin": 14927, "gauss": 21599, "contrasts": 17333, "##\u00e9d": 26871, "lad": 20622, "[19,": 18388, "trivial": 10737, "##700": 20877, "(21).": 21915, "234": 24691, "##\u2220": 30862, "kant": 26344, "##mia": 7024, "##istr": 1604, "##ogeneous": 4219, "phen": 1952, "wan": 22992, "##}.": 5624, "adequacy": 23380, "##bes": 7432, "##assung": 25877, "##emics": 26633, "\u2022": 1480, "quantities": 8253, "workspace": 27797, "jointly": 15332, "##\u044f": 30358, "318": 25027, "iran": 12030, "##ux": 6120, "admit": 19708, "##.4%)": 17663, "(40)": 20795, "##odal": 10175, "once": 3246, "methane": 17223, "depart": 19037, "##wor": 5974, "muscle": 3056, "assuming": 5851, "##unch": 12402, "weaknesses": 20916, "recognizes": 20269, "techniques": 2190, "##rin": 6478, "horizon": 11894, "##---": 17069, "coroll": 8034, "fro": 7469, "cronbach": 25083, "top": 1623, "adap": 2061, "##sil": 11424, "75%": 12470, "##\u060c": 30600, "suic": 10403, "monit": 7482, "interstitial": 14778, "\u015d": 19254, "rele": 1504, "deviate": 25294, "13].": 28186, "microm": 11003, "nearby": 13794, "##v": 30129, "prompted": 20029, "##\u0637": 30591, "##helium": 7738, "mimicking": 28219, "##donald": 28101, "##algae": 28838, "worth": 7441, "bent": 12419, "##ted": 248, "##4)": 1215, "survive": 14413, "popularity": 17283, "32,": 14254, "##velop": 631, "forb": 20974, "pollution": 10429, "imper": 12004, "##16-": 29163, "##inese": 5969, "accumulated": 11194, "##arte": 25694, "plasticity": 11925, "##iscus": 28157, "vlsi": 26835, "transformers": 29155, "assumed": 3852, "##urally": 6149, "stroma": 21406, "underestimate": 24798, "knock": 6928, "##ior": 1672, "##ota": 7676, "pigs": 11968, "up": 692, "skill": 4260, "relie": 18464, "density": 2027, "repressed": 27537, "symbols": 8035, "orch": 24536, "##\uc804": 30764, "endogenous": 6364, "##clc": 14163, "interneurons": 22411, "##10)": 11047, "tune": 22020, "demonstrate": 3768, "actuators": 18200, "dense": 8505, "##\u77e5": 31079, "arab": 6991, "positron": 22568, "kinematics": 18488, "incomes": 25596, "flexion": 16940, "##7;": 3010, "##next": 28921, "complexity": 3480, "##ellig": 5193, "##qt": 19401, "contributor": 23771, "dise": 1035, "nig": 17471, "12%": 17465, "scattering": 6158, "tobacco": 9882, "tub": 2742, "chloride": 9696, "used": 501, "##bour": 12597, "analys": 577, "traffic": 4181, "rul": 14010, "cnts": 24303, "##lob": 1751, "procedure": 2272, "inters": 7367, "##onium": 16279, "##\u5e73": 30835, "##146": 22998, "##bas": 8850, "numerically": 13272, "##acranial": 14650, "epa": 17141, "aromatic": 12440, "breaking": 13472, "window": 4149, "anore": 27148, "tokens": 17060, "superfamily": 22766, "##reg": 1432, "surround": 5583, "13.5": 29017, "##\u0413": 31018, "dissection": 12828, "2012;": 6762, "correl": 1372, "meal": 14373, "devi": 3333, "fauna": 28881, "ethernet": 23222, "kim": 6128, "##aceae": 10244, "residuals": 15759, "##\u52a8": 31022, "dovepress": 20011, "xy": 13233, "##targeted": 21878, "##11]": 24035, "gfap": 28314, "sarcoma": 19676, "strings": 13408, "\u00fa": 22748, "another": 1783, "##67": 2901, "sea": 6615, "destroyed": 22524, "lept": 9366, "dbm": 23116, "bab": 8833, "215": 16329, "data": 453, "mand": 6850, "mere": 9681, "asian": 10091, "needles": 25210, "instructors": 28760, "credible": 28177, "beings": 21982, "\u00f0x": 26697, "allo": 15031, "judgment": 13480, "ion": 3274, "ling": 21468, "capacitance": 11940, "cogn": 2926, "postural": 22635, "madrid": 23216, "##arrows": 29801, "[unused22]": 23, "prices": 6759, "intramuscular": 23937, "scans": 10143, "nin": 12640, "##0,000": 11049, "intrav": 15673, "[31]": 16111, "##olecular": 11795, "##systems": 23894, "##ptions": 3856, "tan": 6405, "2006,": 8350, "vox": 10780, "discretization": 17726, "quotient": 16961, "##alle": 2463, "deriving": 18550, "substituted": 15256, "wurden": 11883, "axial": 9566, "##xl": 12321, "##94.": 28543, "##forming": 12014, "0.44": 22888, "mismatch": 12732, "shaping": 17489, "##ap": 230, "##3.": 1210, "4.0": 10131, "mothers": 8659, "##uki": 13164, "##2.7": 17524, "##12).": 27468, "##amic": 6649, "##1.8": 16664, "bony": 24419, "tant": 29946, "wurde": 9803, "ether": 11251, "##ception": 4934, "multi": 869, "##igm": 25333, "deficiency": 7411, "##afts": 9012, "##ocaine": 23509, "##channels": 27038, "disaggreg": 29522, "##ali": 13536, "silent": 19353, "advantage": 3944, "alcohol": 4617, "probed": 19494, "##ysiology": 10437, "##tured": 25530, "schemas": 26111, "stretched": 26946, "outl": 8734, "realize": 11877, "titer": 21630, "laparoscopic": 13130, "##isive": 25479, "speckle": 29466, "##tition": 6211, "##chin": 23913, "7.6": 20176, "cutaneous": 14476, "sometimes": 6142, "weigh": 16732, "scn": 24956, "##tipation": 28739, "candid": 3629, "license": 6748, "cohort": 5055, "##-231": 28953, "stakeholders": 12620, "##23.": 21254, "##\u23a2\u23a2": 28990, "economical": 24107, "conditional": 7071, "fidelity": 17873, "daw": 18580, "authentication": 10922, "##event": 20339, "rectangles": 27438, "fallen": 25811, "##2%": 17463, "##\u0433\u043e": 25373, "pkc": 14209, "tum": 1413, "response": 1278, "fading": 12854, "##pul": 15668, "##otyped": 19475, "illnesses": 21136, "##the": 1065, "pressures": 10670, "##arcoma": 16789, "##positions": 23791, "illumination": 11566, "##party": 20329, "##ativec": 13587, "##\u30ed": 30762, "immun": 1317, "[27],": 24891, "agro": 22362, "##\u00e7\u00e3o": 6450, "1982": 25093, "aeg": 28270, "tour": 10983, "##\u306e": 30317, "##ressively": 13551, "##ub": 284, "##dep": 5079, "fl": 1227, "##0.3": 11915, "facs": 20927, "teles": 17834, "##\u4e0e": 30698, "bund": 7341, "##\u00d6\u00d6": 22950, "dsrna": 29520, "fragile": 25193, "presently": 18289, "madison": 21811, "breed": 19314, "##ubert": 26027, "qe": 28492, "(12).": 18162, "##hsp": 26663, "##helin": 25919, "0.": 333, "tension": 8552, "tool": 3130, "thermodynamics": 27320, "hs": 5388, "prenatal": 15402, "load": 2055, "[unused52]": 53, "margin": 7744, "pherom": 19170, "infra": 24399, "identif": 927, "io": 4478, "impedance": 8630, "fes": 18093, "secrete": 26217, "##cel": 11601, "##8\u2013": 7298, "ferritin": 23652, "appointment": 26279, "##aclitaxel": 18801, "constitutive": 14713, "(16)": 9185, "kor": 13568, "##young": 26248, "##recip": 9620, "##...........": 18222, "##nodes": 27528, "inferring": 30045, "surrounding": 7160, "finds": 11822, "gure": 24629, "##rences": 10422, "##,0": 18415, "strength": 3432, "ner": 21605, "##peti": 23686, "##\ub4e4": 31014, "##lact": 15438, "endometri": 20240, "aval": 27858, "##amb": 6750, "##sen": 3720, "bist": 26494, "bins": 16835, "[unused90]": 91, "##)]": 4963, "trained": 7222, "115": 12645, "derivative": 7192, "##andom": 1473, "##erents": 28176, "combinatorial": 14317, "\u00e9t\u00e9": 22401, "##osin": 6719, "1984,": 25119, "##\u00e4tz": 26576, "mammals": 12412, "##.4": 987, "],": 15498, "carboxy": 29774, "##ever": 673, "trig": 4072, "(1),": 10695, "##llen": 21504, "##atase": 9460, "mitig": 9343, "##inities": 22066, "grass": 10102, "hat": 6500, "##ecom": 25212, "##+2": 10187, "##quin": 14313, "equiv": 15414, "##ary": 363, "##ario": 10362, "##\u2019),": 28630, "##alia": 6533, "cog": 22873, "revealing": 16449, "##stage": 7743, "##ontally": 23489, "enforcement": 15845, "##-28": 16118, "inelastic": 29225, "satur": 9448, "buses": 24734, "searches": 13067, "electropor": 26578, "##nitine": 29725, "irrigation": 15055, "interim": 27660, "bigger": 14964, "altitude": 15518, "##lj": 17972, "##ocompos": 20524, "pull": 11173, "borrowing": 29081, "discre": 3271, "##re": 109, "dimensions": 4795, "sier": 30018, "editorial": 15679, "##ford": 4572, "##scores": 28191, "vitre": 24797, "multiscale": 28081, "subpop": 15635, "landmark": 13069, "lyon": 28080, "dropout": 28133, "##nap": 28333, "9.5": 17725, "##fn": 12587, "literal": 24580, "##eut": 16702, "dial": 15760, "\u221e,": 19036, "adjacent": 5750, "##oprecip": 11497, "##rap": 22165, "mus": 1768, "combin": 24710, "dcm": 22379, "nq": 25880, "immediate": 6959, "##aks": 24309, "pten": 19803, "##\u0177": 30404, "undo": 20087, "leave": 9689, "##inson": 9917, "spirit": 12724, "basic": 2886, "##\u062c": 30537, "firm": 5205, "crohn": 23182, "ross": 13657, "cytokines": 7197, "[2],": 11439, "kinases": 12172, "concomitant": 11122, "##grams": 15012, "176": 20191, "##mixed": 25249, "##)|2": 23747, "prioriti": 15622, "bi": 596, "redes": 24061, "##)))": 17561, "##problems": 25315, "ophthalmic": 29264, "##138": 23112, "##icients": 3922, "##uria": 11029, "##tol": 19614, "neuropsych": 12414, "invertebrates": 26857, "intram": 12446, "pdf": 11815, "##vian": 11081, "/2": 13818, "##itoneally": 29879, "epitopes": 18532, "##lon": 22438, "stric": 24963, "##ocytes": 3021, "##die": 17256, "landmarks": 19054, "microphone": 25773, "##-1)": 8807, "##regulates": 28077, "\u00e2": 12584, "remove": 6597, "##153": 28272, "pep": 11249, "able": 2357, "tot": 9708, "alcohols": 26521, "della": 29630, "recommends": 25862, "latent": 9657, "replacing": 11238, "casp": 20835, "multiplicative": 19994, "\u0393": 4214, "1;": 6563, "41,": 17348, "like": 1967, "perturbation": 10007, "specim": 4672, "##tx": 17302, "pathologies": 22123, "imprin": 22288, "24%": 25143, "approximated": 12098, "##sis": 4554, "[19],": 18347, "biomarkers": 10234, "delivers": 24733, "wil": 5604, "##tere": 14890, "alter": 4222, "##am": 189, "##ometh": 11593, "legal": 6978, "grassland": 28059, "corruption": 21152, "gentle": 24181, "boys": 12625, "##spring": 9175, "insoluble": 22106, "##jr": 25492, "##zeich": 22406, "pyrolysis": 29864, "reperfusion": 16230, "protr": 16830, "##iza": 18125, "subst": 2657, "##chap": 23482, "deep": 4631, "events": 2473, "jx": 22804, "methyl": 6090, "throw": 20805, "shu": 27746, "blue": 5175, "##worm": 18360, "geometric": 7372, "##butyl": 20583, "##sie": 14216, "##(12)": 25071, "##\u80fd": 30612, "peace": 20244, "##bk": 18046, "(24": 15072, "sow": 10865, "bipartite": 21802, "oscillating": 27137, "##itch": 11467, "england": 10960, "##\u0089": 30838, "##ious": 3456, "dihydro": 26860, "fewer": 7060, "hx": 23762, "polypeptide": 18479, "templates": 13812, "(-": 12676, "##blocking": 27808, "pathologic": 16753, "##acies": 14069, "ksnnen": 29958, "levin": 27996, "##vall": 27046, "curing": 27613, "dust": 10301, "vesic": 7854, "acup": 21258, "clinicians": 10838, "##you": 27925, "{{": 19134, "rash": 22679, "\u2015": 23190, "undergo": 7883, "ultrastructural": 27740, "alle": 3566, "##time": 2006, "sending": 12909, "objectives": 6454, "bootstr": 12923, "##wes": 10236, "leader": 12542, "##\u8003": 30855, "abbott": 29681, "therapies": 8876, "dimin": 8282, "##velocity": 28758, "told": 16364, "##\u00e9es": 13731, "##mir": 11429, "doxorubicin": 19391, "##cantly": 25140, "soft": 1720, "##4),": 4783, "bottlen": 14749, "bootstrap": 15578, "##ncbi": 24048, "##ined": 652, "amongst": 13373, "important": 1060, "##resis": 16519, "##sir": 21017, "dtt": 21817, "\u22124": 21889, "[8,": 12776, "cnrs": 29357, "scler": 9518, "##tin": 9356, "###": 30204, "##nh": 8924, "5\u2032-": 16918, "(1995).": 17787, "oft": 20471, "##dawley": 29852, "soon": 9538, "##linic": 27119, "symmetric": 6433, "arbeit": 19312, "falls": 10490, "enters": 16097, "pest": 19038, "graduates": 25234, "ciprofloxacin": 28139, "##mented": 18122, "##enos": 29899, "fgf": 13736, "dipl": 19106, "ob": 348, "mitosis": 21694, "\u00c7": 23300, "magnets": 27974, "undergraduate": 17862, "walker": 16544, "niv": 27697, "obtaining": 8628, "##obacteria": 13603, "feeding": 6983, "cyan": 12432, "##7%": 6074, "##ecting": 6289, "##tru": 24083, "##98-01": 28463, "##uous": 5335, "##izers": 13717, "rst": 8342, "weapons": 29897, "##.25": 11325, "##olar": 3085, "##,\u2019\u2019": 15948, "substances": 10076, "wounds": 18926, "##17": 1807, "transf": 4145, "##refer": 20550, "(21)": 11382, "visualizing": 29691, "xv": 25568, "hp": 5786, "princip": 3251, "##ulf": 2925, "stimuli": 5295, "##.01": 9296, "##keley": 16893, "##ativecommons": 14128, "0.24": 15555, "beijing": 13227, "##empor": 8606, "column": 3724, "photo": 8830, "##oce": 23502, "powerful": 7669, "dispersive": 27507, "##\u63a5": 31051, "cigarettes": 23197, "crist": 28222, "fisheries": 19126, "stockholm": 24349, "##body": 7645, "##ief": 7975, "equity": 12696, "kcal": 15400, "##ohl": 12817, "disadvantages": 15556, "1996),": 21006, "##ets": 1244, "homogeneity": 16818, "##tuple": 29481, "(12)": 7474, "evap": 13732, "metallic": 13867, "detectable": 9292, "ignore": 16931, "##arter": 20703, "ee": 7098, "incorporation": 10265, "guy": 26338, "tss": 25618, "says": 12413, "stanford": 16473, "3'": 26899, "flip": 16067, "##\u3044": 30430, "austr": 5262, "comfortable": 21483, "##arded": 10935, "analyse": 12323, "asa": 21146, "decoding": 11055, "##000": 1551, "(1": 402, "pole": 11989, "31%": 29464, "225": 16056, "stimulate": 11469, "closed": 4358, "[19].": 10798, "unambiguously": 28030, "##lobulin": 29393, "viz": 22523, "asymmetrical": 28875, "xr": 17106, "taip": 26634, "code": 2737, "1(": 7216, "liberal": 16470, "hydroxyl": 14998, "[42]": 24034, "gum": 21562, "##weise": 16363, "underwent": 6574, "rij": 24202, "posit": 18636, "##iazol": 25874, "##\u21e5": 30886, "taiwan": 11338, "E": 29532, "berkeley": 18782, "nanow": 16365, "fov": 29255, "patterns": 2465, "une": 8165, "graphical": 11123, "##plicity": 7379, "##with": 3683, "\u0109": 20067, "##\u0259": 30890, "##rem": 3389, "compatible": 9285, "##uit": 2200, "comments": 7509, "##\u20138": 10609, "mosquito": 14873, "116": 14442, "fond": 29125, "[[": 18703, "oxygenation": 23633, "##percent": 26223, "##stro": 16306, "seeds": 9182, "##essel": 15882, "vowel": 19989, "##\u65ad": 31040, "##ular": 458, "##ardo": 18763, "buffered": 18052, "2018;": 25962, "58": 4878, "repeti": 11533, "##bio": 12586, "##hang": 30067, "media": 3871, "lid": 12512, "yao": 23355, "adenocarcin": 12549, "schr": 16545, "scoring": 10805, "2010),": 17081, "collabor": 4308, "secretion": 6562, "##olved": 3958, "absolute": 5327, "rom": 7506, "tyr": 16234, "##8.8": 20545, "lex": 8059, "hsv": 17005, "extrem": 4847, "right": 2083, "##tem": 6684, "braun": 23628, "##rag": 24675, "digitized": 26716, "##\u00e4ch": 26849, "ker": 7099, "1983,": 26476, "thomas": 9815, "neutrino": 18258, "reflection": 8519, "science": 2068, "blank": 13658, "##omavirus": 26937, "pmma": 28879, "different": 643, "immunoreactive": 27489, "diluted": 9219, "suicide": 13461, "##.]": 24278, "presence": 1735, "15": 884, "personal": 4026, "travelling": 29364, "nu": 11097, "had": 883, "##7.9": 24398, "##ji": 5818, "##obs": 9246, "##1],": 7420, "##hydr": 8207, "\u06cc": 29000, "sickness": 26553, "(250": 28655, "cent": 1312, "surface": 1437, "(12": 9628, "##bow": 12171, "faulty": 19741, "colomb": 23714, "cass": 12930, "transcripts": 9011, "follows": 1851, "##characterized": 24104, "##error": 18059, "angina": 21689, "vitamins": 25269, "##\u751f": 30597, "moss": 21074, "##\u23af": 30726, "##amid": 22755, "star": 2276, "##gs": 3940, "##3);": 20422, "neonates": 18717, "undetectable": 22390, "eisen": 23455, "clostridium": 28350, "##ords": 1675, "##41598-01": 29396, "everywhere": 21264, "96%": 28718, "risks": 6733, "temper": 1399, "##expensive": 20733, "##lib": 21930, "mission": 10155, "##adder": 7494, "holding": 11803, "resection": 8229, "##agawa": 24415, "27%": 25979, "contex": 8270, "##:16": 19049, "catechol": 18852, "zno": 16499, "##pla": 20106, "##lege": 29523, "lam": 5572, "##familiar": 24244, "gilbert": 25988, "2004).": 6434, "dp": 6769, "##baseline": 27420, "maxwell": 21542, "sensed": 24289, "##working": 28024, "greece": 19737, "##city": 29659, "intense": 11066, "##oni": 9276, "sagittal": 19026, "misleading": 23399, "respectively": 1222, "articulation": 27019, "##univers": 17842, "lyn": 16017, "##tac": 29036, "codons": 24312, "##inine": 11198, "##sit": 18430, "480": 20853, "edition": 12154, "distributed": 2798, "adapt": 4152, "princeton": 22302, "atf": 27347, "upregulation": 13819, "##\u4e0d": 30679, "0.05;": 22990, "##uff": 4479, "disreg": 25085, "yas": 25563, "html": 19912, "percept": 10229, "##grav": 20379, "radiographs": 19176, "una": 10313, "(2.5)": 26451, "uch": 28289, "alkyl": 17030, "arti": 5425, "cure": 14582, "##induc": 14800, "jon": 17825, "yu": 7964, "reserved": 5201, "presumed": 18515, "##ahi": 28452, "xf": 27662, "##halten": 15346, "coated": 11938, "##<0.01": 15287, "gases": 15317, "branches": 9653, "##\u03b3": 30193, "joints": 12503, "thereafter": 13314, "##tious": 7106, "gui": 22067, "shear": 7904, "##whe": 16692, "asymmet": 6004, "##ess": 250, "unsatisf": 22626, "\u03b5": 3424, "permutation": 12883, "##rologic": 25339, "untreated": 9245, "##pyr": 11024, "ris": 1096, "described": 1356, "eps": 12842, "air": 2385, "stimul": 2820, "luminosity": 16852, "adhe": 4098, "progress": 5180, "relapse": 12269, "icu": 14151, "##ukin": 11864, "narrowing": 23991, "tak": 1386, "##alsh": 24076, "applications": 2040, "##iffiff": 5697, "qualitative": 6526, "shi": 15374, "homologue": 28563, "k\u00e4": 29483, "glucocorticoid": 21949, "spider": 29667, "guid": 3128, "##neigh": 20065, "they": 698, "({": 25842, "##zel": 10591, "channels": 3994, "alph": 12598, "leukocyte": 16483, "retraction": 28021, "distingu": 4394, "meaning": 4419, "pmol": 19906, "##agnetic": 2807, "leaf": 5513, "##pole": 25341, "12:": 15417, "##\uc0ac": 30654, "blo": 11269, "wagner": 20382, "4).": 5595, "virt": 3549, "peterson": 23546, "##osyl": 15149, "superimposed": 20872, "##stream": 4318, "epigene": 12939, "##ographical": 9089, "ist": 4191, "dwar": 19569, "activators": 28723, "##shel": 29401, "uniformly": 8504, "ersche": 24599, "##vari": 3175, "algebras": 15559, "unprecedented": 26796, "tj": 10605, "##aped": 8950, "effic": 21124, "drif": 27258, "##\u0394": 30250, "##entia": 9870, "(34": 23240, "##relative": 21219, "distinctly": 26256, "veget": 5973, "##D": 30496, "minim": 2162, "2008)": 14109, "##ensee": 29220, "degenerate": 18358, "evolution": 2696, "\u2265": 2345, "gor": 21104, "colonic": 17682, "##eta": 7972, "arrangement": 11265, "3].": 24826, "##thick": 17617, "##yer": 6883, "shapes": 9891, "##medical": 21283, "blinded": 18795, "hut": 25849, "lifest": 12360, "accred": 23748, "##icians": 8371, "##supplemental": 19801, "[18].": 10382, "accum": 3465, "##66": 3977, "displays": 9158, "analyze": 5230, "##\u23ac": 30728, "##.5.": 18339, "ts": 3450, "##tigkeit": 29267, "##oteric": 30057, "resembles": 19067, "surve": 2412, "##oken": 16400, "modifies": 26245, "##opsis": 8972, "##luor": 13339, "nut": 3292, "##structured": 12889, "connective": 18141, "##series": 18557, "nanocompos": 21572, "##\u21d1": 30609, "hus": 12847, "##ograp": 17425, "mmse": 23041, "6.1": 11219, "mori": 24283, "manages": 26885, "ecl": 14735, "issued": 15922, "artifacts": 11376, "##lor": 2483, "##both": 12560, "##intu": 28996, "interview": 4489, "49": 5069, "##ticing": 21245, "anesthesi": 21521, "timed": 18134, "##gaard": 21502, "##fig": 710, "infeasible": 25906, "subcutaneously": 27319, "##95": 2855, "chris": 29937, "##otides": 9604, "159": 18522, "him": 6888, "ensem": 22619, "solvers": 23812, "##arab": 27741, "disjoint": 13127, "##23].": 27877, "##\u1e21": 30528, "##stable": 8227, "centre": 5444, "herb": 10703, "##ensin": 11912, "##asen": 23538, "operate": 8915, "kod": 24103, "1950": 19343, "urea": 13382, "imports": 25930, "registration": 9433, "asympt": 5506, "wenn": 13898, "tag": 5374, "##aska": 17513, "pose": 10693, "idi": 13224, "##wei": 25918, "##fos": 20646, "pluripot": 21105, "63,": 25112, "academ": 8558, "conn": 1641, "normal": 1346, "professors": 29997, "##bly": 3269, "occupational": 11069, "lox": 28658, "##agtt": 29891, "##idos": 25788, "suppose": 4939, "20:": 22334, "##ilient": 27327, "degrad": 3820, "##dition": 516, "##,\"": 7810, "pronounced": 9904, "<0.00": 14414, "ue": 10682, "mog": 25593, "##coming": 11929, "##\u00e0": 30262, "##roz": 27570, "redi": 26318, "evid": 9187, "(3-": 28131, "detail": 1843, "103": 10664, "##tiss": 20124, "##inally": 28583, "parental": 9122, "trab": 14281, "anisotropic": 16841, "propositions": 17277, "boston": 12264, "##atc": 17543, "##irt": 22921, "##olip": 8015, "verifying": 22581, "##ourt": 29638, "##barr": 29871, "adult": 3873, "##tii": 20743, "microbiota": 17697, "bpm": 24910, "##wallis": 25150, "cytok": 4719, "tear": 22942, "utilized": 6744, "andre": 13619, "##\u6210": 30622, "##{": 30175, "atrophy": 14093, "##ocarcin": 10897, "secure": 8446, "konn": 16370, "##cine": 13040, "manufacturers": 15843, "##arct": 16699, "reactors": 26608, "xh": 28566, "##ornas": 24449, "=(": 29085, "##\u2217": 30184, "refin": 28546, "depicts": 14356, "1989).": 15528, "##born": 10325, "through": 833, "##uthor": 13255, "ascending": 17639, "forsch": 21773, "##@@@@": 8117, "extensions": 11087, "norm": 1075, "bestimm": 24210, "##metry": 29868, "knows": 16711, "adopted": 6018, "##so": 418, "##have": 19831, "##\u00b11": 25592, "##learning": 12348, "vehicle": 4818, "##-50": 17289, "subscript": 25820, "maximal": 5686, "##supporting": 28733, "##inducible": 23844, "substance": 8851, "nick": 13683, "slide": 15885, "##cers": 18897, "cortic": 9480, "##query": 21466, "##arged": 10319, "hydrol": 25383, ")2": 12174, "2013)": 18151, "ipa": 27452, "surrog": 14323, "niger": 13599, "capable": 5917, "##structures": 20778, "##ammonium": 28618, "trich": 12489, "confirm": 4485, "##beta": 12186, "##dp": 5673, "entrepreneurial": 29696, "nose": 18745, "tehran": 26473, "virtually": 12650, "blunt": 25096, "influenza": 9684, "interferon": 14467, "##igned": 20442, "##select": 18736, "edema": 12987, "##nedy": 21713, "virulence": 13701, "ecosystem": 11549, "physiologic": 19940, "##5,": 1099, "##\u2194": 30481, "##enol": 22139, "4": 286, "homogeneous": 7483, "kh": 9457, "ergebnisse": 22282, "##ceptible": 27423, "),": 4354, "##\u2203": 30359, "smoothing": 13583, "python": 25311, "##7,": 1238, "thom": 14077, "##\u043d\u0430": 18131, "pen": 3305, "##vector": 11331, "##buffered": 18327, "labeling": 8644, "privile": 18175, "interconnect": 22974, "##soon": 27484, "##arean": 19256, "wick": 29978, "controvers": 21670, "mtt": 17858, "sulfur": 14159, "completes": 17968, "21-": 28438, "mad": 7992, "redundant": 12338, "##lab": 4253, "lod": 17625, "##3\u2013": 3478, "ordinary": 10758, "##ocus": 29250, "##utter": 13073, "antiserum": 23864, "##\u30d1": 31052, "##63.": 28699, "5:": 9196, "barri": 4867, "nition": 14670, "##ectors": 3422, "##usive": 6199, "neglect": 17814, "vander": 28020, "mev": 14141, "omp": 26228, "intra": 4743, "##used": 4883, "bour": 21312, "impairs": 25692, "foi": 22480, "poisoning": 22819, "screening": 4422, "##\u90e8": 30687, "epitope": 16915, "##\u0131\u015f": 24314, "sparsity": 21123, "uncertainty": 4952, "##nm": 4683, "##atia": 20501, "##-95": 25354, "coc": 7864, "appeared": 5844, "improve": 1658, "chir": 12940, "##N": 30397, "##icient": 1350, "neglecting": 29116, "sequential": 7251, "##38,": 22285, "children": 1808, "definition": 2248, "stops": 18416, "filtered": 8991, "conduc": 1810, "gesund": 27410, "testes": 23871, "##aze": 28075, "##dss": 29259, "tof": 24959, "woman": 10221, "recalled": 27703, "##bottom": 16299, "meetings": 15127, "privacy": 8208, "(6).": 15370, "vehic": 3620, "algebraic": 10251, "wochen": 29713, "territory": 18783, "reusable": 29028, "##bers": 1674, "]": 1901, "##pas": 17268, "cor": 470, "pyram": 12983, "condensed": 21625, "##0.5": 8495, "##ained": 1348, "images": 2117, "compe": 15891, "mechanically": 21577, "transm": 13875, "proposals": 15643, "market": 2753, "deliver": 3392, "informative": 14180, "semiconduc": 21993, "intercourse": 29361, "##eten": 15842, "##\u5f71": 30878, "hand": 1500, "##ulary": 13774, "doubling": 20534, "\u2219": 29733, "explained": 4458, "charg": 5237, "##anova": 15554, "credit": 8388, "accomplish": 16229, "affirm": 25814, "pneumonia": 9520, "##index": 10866, "##60": 1933, "nav": 5989, "durch": 6267, "335": 23087, "acous": 6949, "268": 28462, "hawaii": 27474, "poc": 28458, "(27": 21558, "##uu": 24858, "6,": 4107, "replica": 23408, "methylene": 25507, "95": 5508, "charges": 11235, "behaviours": 13765, "logn": 20745, "justif": 13338, "maxillary": 20330, "autonomic": 16035, "surrounded": 17771, "##analy": 12047, "##ille": 6341, "(15": 10397, "##mingham": 26044, "races": 28468, "##xed": 25231, "##apore": 14793, "bidirectional": 19209, "##join": 20675, "meoh": 24295, "country": 5192, "finitely": 19686, "pci": 17133, "herpes": 17689, "8:": 11312, "##afil": 18664, "coul": 15158, "earliest": 15935, "biomark": 7568, "arb": 18214, "cts": 21303, "scintillation": 27380, "archive": 19364, "ngf": 23988, "##kow": 25389, "\u221a": 3809, "smoking": 6025, "##.58": 22312, "apis": 26769, "##\uc758": 30471, "##pressure": 18660, "brachy": 27479, "mucosal": 12673, "minute": 11163, "##\uc131": 30651, "collagen": 6898, "cylindrical": 15461, "##apse": 6273, "##\u20321": 23983, "nab": 23451, "proliferative": 16461, "##pret": 19932, "##.[": 6790, "##as": 142, "##(6)": 11852, "##ofib": 16240, "##labor": 22446, "##trad": 25591, "heterodimer": 30054, "exud": 24208, "##ophen": 14648, "enlarg": 17396, "__": 19393, "##\u4ef6": 30974, "erythrocyte": 21460, "eo": 16374, "morphine": 16589, "ll": 5078, "wholes": 26626, "linux": 17655, "travers": 21757, "[unused99]": 100, "prim": 1136, "##la": 3054, "ga": 3692, "linked": 5094, "##aming": 23263, "lands": 24662, "stacking": 21050, "difficulty": 6987, "beet": 18080, "gram": 8431, "(46)": 25475, "lav": 15409, "ophthalmology": 22498, "complexities": 23377, "judgement": 26030, "##atectomy": 27595, "bulk": 6831, "troub": 22341, "practices": 5423, "bold": 13242, "##\u0163": 30955, "ij": 5915, "ubiquitous": 14988, "boron": 24970, "##ador": 17544, "stefan": 24895, "3.": 1378, "20)": 25613, "acth": 24914, "electro": 2164, ".6": 7959, "withdrawn": 24142, "read": 1757, "##14]": 25622, "alc": 27436, "mom": 3695, "dma": 29211, "inflammation": 5259, "shifts": 8402, "##offs": 12629, "imprec": 22639, "fog": 22044, "##>": 30174, "resuscitation": 20194, "twe": 15737, "0.5.": 27381, "microglia": 17329, "doublet": 29414, "dulbecco": 26610, "##vol": 5111, "kb": 7923, "sep": 9892, "appliances": 26133, "triangulation": 21775, "unf": 11490, "piece": 11871, "millions": 20193, "exploitation": 17487, "suggestions": 11832, "##glu": 22242, "detects": 17750, "spac": 15820, "anticancer": 16640, "##-3,": 14892, "colleag": 7691, "pelvic": 13707, "[\u2212": 19709, "[5],": 11841, "cig": 11828, "bark": 16141, "quantization": 13840, "optimal": 2409, "graft": 8936, "ipv": 20192, "##many": 23174, "repetitive": 14687, "appeal": 21118, "##gray": 27251, "lub": 16542, "##/10.1021/": 21506, "##chester": 24396, "versions": 8609, "##att": 4576, "omit": 18338, "gained": 10845, "##ons": 646, "##cognitive": 20698, "chapter": 5121, "##reme": 6682, "remission": 13595, "##plasia": 11587, "telec": 12295, "##ccg": 25590, "##u": 30120, "##1-3": 24892, "atypical": 14615, "ic": 1981, "##ordan": 16053, "[32]": 16579, "##wend": 12826, "##are": 524, "retain": 11598, "indisp": 23083, "##ous": 324, "5),": 17375, "45.": 16143, "12)": 20929, "teeth": 11318, "##ises": 3476, "\u03bb": 1946, "##10),": 29721, "elliptical": 24806, "[unused19]": 20, "lda": 20854, "polymorphism": 9818, "optical": 3451, "genetically": 13086, "peric": 14039, "##130": 14958, "##enhanced": 15931, "omn": 21655, "feel": 7286, "mj": 8749, "10,": 4691, "crystals": 10020, "##vable": 10495, "##parameter": 15308, "##26].": 29319, "##\u25b3": 30557, "removal": 5217, "dy": 6546, "directions": 6330, "promising": 6704, "##\u0424": 31041, "cases": 1299, "utiliz": 24624, "##ago": 7155, "##ingen": 14076, "##july": 29518, "grafting": 19497, "sei": 21399, "efficacious": 25863, "entangle": 22706, "clearly": 3279, "modifying": 14548, "drinking": 10233, "fellowship": 14804, "##ionine": 16274, "\u222b": 3122, "gradient": 4751, "perv": 17767, "n\u00e3o": 21335, "26%": 26467, "##\\": 30223, "robots": 10222, "bald": 23462, "[20],": 18857, "##uximab": 19696, "0.12": 10743, "##\u2032-": 10590, "helsinki": 17881, "##ayer": 5099, "infrared": 10684, "##holders": 10019, "besond": 16090, "1998.": 11447, "##lymph": 20262, "(15),": 26995, "waveguides": 27099, "phospholipid": 21798, "##.201": 5342, "##28,": 18987, "metabolite": 13681, "lange": 20919, "##ley": 3162, "briefly": 6669, "-3": 13441, "declaration": 15516, "##\u00f8": 30338, "##,": 30127, "267": 27125, "capsule": 15235, "tet": 7660, "focusing": 8808, "##ibi": 29646, "sustain": 4590, "einz": 29719, "resonator": 19839, "##\u03ad": 31031, "##ographics": 16302, "##iesen": 20074, "argon": 19827, "tongue": 17589, "ast": 3792, "foss": 12226, "6.8": 19593, "customized": 22359, "catalogue": 28251, "fern": 14450, "##oscope": 19547, "##nik": 12912, "attraction": 18158, "9.8": 29193, "##under": 11153, "ret": 1318, "(2007),": 26230, "favour": 12206, ".....": 19957, "produces": 6707, "(30).": 27207, "##context": 25971, "##urium": 22794, "rises": 19086, "synergistic": 14530, "affairs": 16758, "inductively": 28394, "insec": 23488, "##wie": 20939, "##avail": 9253, "##usually": 21991, "breeding": 10156, "39.": 14105, "tanzania": 27281, "damp": 10606, "use": 626, "##se": 246, "##inistic": 22925, "inducible": 18768, "exploits": 20599, "##-46": 25882, "gy": 8170, "pwm": 21555, "(25": 11959, "calif": 6280, "hydroph": 7257, "perfusion": 10045, "##hoc": 14893, "194": 11209, "pharmac": 4005, "##%).": 5279, "flor": 11702, "huge": 11812, "1987;": 15047, "placebo": 6680, "jedoch": 20313, "1999.": 11202, "lost": 6677, "ending": 16929, "##icle": 18621, "epidid": 29209, "sinus": 8121, "generalization": 10286, "##correct": 29269, "##dist": 11859, "(18": 12664, "solutions": 2727, "##ommod": 9591, "##olester": 5485, "extrapol": 12801, "subjected": 7178, "grate": 10134, "was": 241, "augmentation": 18205, "##entials": 21009, "diminished": 12949, "##ecraft": 22798, "##lected": 26101, "furnace": 27434, "##\uc99d": 30949, "resource": 3955, "##ast": 464, "caudal": 19423, "thickening": 22290, "misses": 25937, "secretory": 17152, "g\u00f6": 18867, "##oris": 28355, "##ran": 11031, "abuse": 8470, "##apr": 27167, "reactor": 13393, "mai": 25967, "ting": 27079, "##alyzed": 16723, "##olone": 19177, "##1+": 10913, "clearance": 9746, "##timore": 20637, "cash": 13405, "intracellular": 5609, "##\u3068": 30399, "from": 263, "viv": 3388, "solvable": 28823, "##struc": 963, "inhibit": 2911, "export": 11484, "##modal": 24575, "cardiovascular": 5283, "elbow": 19213, "distortions": 19338, "patch": 7940, "##iko": 19668, "spectro": 21500, "##weisen": 24614, "apl": 24701, "cui": 25049, "amplitudes": 11109, "idios": 26690, "apps": 21945, "craw": 17305, "cbs": 24904, "pea": 25038, "simil": 10280, "##\u0101": 30373, "alterations": 7755, "consulting": 22220, "endocr": 8536, "(5.1": 18789, "s\u00e9": 20086, "jumps": 21967, "renormalization": 28283, "##\u5206": 30513, "ability": 2495, "ferro": 22168, "ontology": 8127, "##cd": 2447, "rub": 8084, "##4.7": 13917, "64,": 22484, "jacobian": 22105, "ordering": 9341, "06": 12340, "ubiquitination": 25369, "syndrome": 4225, "oocytes": 13892, "mens": 24841, "ellipso": 22214, "(1)": 2226, "dunn": 29070, "##scan": 17073, "affordable": 26435, "fic": 16231, "monocytogenes": 26998, "##midt": 13579, "pharmacological": 10559, "##aria": 5553, "reaches": 9613, "##enic": 12585, "telescope": 22531, "##enh": 8169, "##otropin": 25654, "##sagepub": 19970, "##mhz": 17021, "workforce": 21897, "ase": 19807, "##othorax": 27948, "methodological": 12500, "sepsis": 12267, "##37,": 24780, "notable": 13622, "##routing": 25606, "##amersham": 26622, "##visible": 29877, ".2": 6324, "(2000).": 14192, "nct": 26456, "affili": 11892, "(2,": 12085, "motivated": 10744, "##ys": 356, "oa": 6024, "##ticle": 26645, "paralle": 2860, "horn": 13835, "##233": 28991, "reperto": 20298, "cmc": 26161, "disjunc": 29032, "##isons": 5308, "burn": 10851, "##26.": 14943, "##adium": 18150, "mch": 27834, "2009).": 6411, "205": 19252, "##195": 23207, "10.5": 23245, "##monitoring": 27170, "bernstein": 28973, "program": 1618, "280": 14714, "##abc": 19880, "##tgf": 28620, "playing": 13330, "(44": 24827, "##december": 28886, "##kins": 5880, "compartments": 15260, "##materials": 25108, "consumed": 10440, "##ile": 612, "##ethe": 18357, "mono": 12020, "psori": 19451, "2016;": 11581, "verifies": 28306, "##8),": 6243, "hydroxide": 22607, "ya": 18051, "assurance": 17777, "ys": 13431, "nk": 7119, "mitchell": 20566, "\u223c=": 15962, "haplotypes": 17746, "vol": 805, "monomial": 26075, "(18),": 29716, "##chrom": 17340, "##\u226b": 30569, "reverse": 5239, "klinik": 22520, "wifi": 28735, "##\u00e3": 30242, "##fh": 18686, "##urable": 8620, "##8.6": 20198, "fossa": 29626, "##inent": 16020, "nonuniform": 27805, "schiz": 8024, "##echo": 27997, "gateway": 17905, "avian": 18702, "adenomas": 25357, "##r": 30114, "aure": 11108, "cloud": 4744, "steril": 16987, "portug": 14895, "vial": 23929, "##42,": 25417, "cryopres": 25972, "ltr": 28708, "approaching": 18649, "dissimilarity": 26180, "2015;": 9316, "anomalous": 16540, "100,": 10724, "synthesis": 3235, "appreciated": 22342, "##lox": 11797, "delay": 2839, "##wd": 22072, "##bic": 26181, "radiotherapy": 11168, "episodes": 10761, "corollary": 8266, "facilitating": 15092, "breastfeeding": 19225, "##aes": 28598, "participant": 6602, "chip": 7364, "testic": 18935, "bij": 25052, "##\u53ca": 30801, "dislocation": 19601, "inset": 17901, "scored": 11836, "explor": 12735, "seiner": 25645, "##ods": 9497, "arid": 29111, "clearing": 24328, "##tha": 29191, "##quot": 28811, "##close": 16178, "capillary": 11044, "##+=": 22715, "##ens": 499, "pcl": 24769, "##)),": 9097, "standards": 5103, "originating": 15660, "##\u00d4": 30366, "##fields": 28180, "microstructure": 19712, "bind": 5198, "##hole": 15270, "subsequently": 5224, "##br": 682, "plat": 3943, "seedling": 23557, "planner": 21751, "##gol": 28755, "##\u2293": 30854, "(25)": 13129, "matern": 25609, "fibrobl": 7902, "##ochem": 2777, "##2-2": 29528, "biot": 5600, "americans": 15585, "rrna": 12880, "##ethanol": 18237, "##sah": 22534, "##144": 23335, "ads": 5395, "##kon": 15856, "apo": 20497, "traits": 7378, "drop": 4975, "discussions": 8020, "trading": 13028, "penalty": 12623, "compres": 26619, "##akers": 8928, "moth": 29909, "ju": 5964, "entropy": 7477, "##injection": 20002, "##fer": 815, "##odynamic": 7733, "vitro": 3335, "nich": 15919, "##ivered": 8092, "inoculation": 15269, "inclusion": 5117, "analgesia": 19539, "hemip": 29853, "##viruses": 26700, "##alen": 25381, "[0": 22943, "spatial": 2829, "validated": 7905, "##iers": 8642, "biometric": 17514, "##esp": 24180, "##io": 1450, "4.1": 4560, "antimicrobial": 9201, "qol": 15971, "##fox": 24687, "short": 2001, "longer": 3490, "##isser": 23338, "permit": 9362, "##graph": 5341, "questioned": 23071, "spare": 29794, "700": 12778, "default": 8728, "oxides": 20464, "suspicious": 24481, "threefold": 28965, "##,.": 18813, "virology": 26490, "##uning": 13337, "analyzes": 21127, "1997,": 12112, "1%": 6800, "gdp": 12811, "decisive": 29293, "##porters": 11993, "marsh": 14969, "##300": 9939, "nanor": 23032, "##\u2032": 30168, "##enedi": 28107, "##acetyl": 13187, "anode": 20252, "neurological": 9048, "##tives": 5377, "reads": 9640, "##ishing": 8663, "##velength": 4982, "##alg": 19711, "planar": 10011, "##ichi": 13133, "##nai": 26465, "##ecks": 29765, "hyperplane": 26462, "tom": 5653, "2.6": 10856, "weig": 15540, "turning": 14101, "##xxx": 19450, "##geries": 23114, "twin": 15111, "##bot": 19652, "euro": 16281, "##opsy": 7001, "##versely": 6642, "##(|": 15767, "observational": 11220, "##\u5ea6": 30572, "nim": 24852, "##\ub8cc": 31023, "pathogens": 9756, "committe": 5481, "vent": 12328, "cab": 10993, "##tige": 18089, "fy": 18938, "hemisp": 10748, "capacitive": 25454, "##mapk": 28407, "personality": 9402, "nash": 14214, "which": 334, "rectif": 18288, "osmotic": 18746, "doppler": 11375, "##\u00fe": 30229, "ging": 16348, "pers": 1257, "consumers": 8348, "jan": 4134, "##versal": 10181, "unexpected": 10749, "equival": 2758, "decide": 10130, "eigenvectors": 19625, "##\u00ee": 30357, "eae": 28258, "interleukin": 12577, "epiderm": 9821, "2009.": 8984, "325": 21090, "degen": 7120, "kda": 9488, "##3.3": 28124, "illuminated": 25438, "zd": 25174, "##measured": 17652, "barrett": 24571, "argue": 8667, "##09": 8586, "##gene": 8643, "file": 4433, "##num": 9650, "metastasis": 8364, "degrees": 5634, "intelligent": 9829, "##health": 10729, "##total": 12438, "aversion": 22201, "##iou": 24270, "##distribution": 27088, "cannot": 2546, "bere": 11872, "pril": 23238, "##apor": 8336, "##\uc694": 30945, "lymphomas": 24676, "cbr": 27266, "##vention": 2401, "bars": 8343, "braz": 7258, "##form": 321, "hippocampus": 10958, "backgrounds": 17698, "##holding": 28696, "dros": 10283, "##source": 12761, "##tic": 204, "downregulation": 16518, "##164": 26979, "occas": 8194, "contamination": 10070, "pro": 178, "cham": 5872, "environmental": 3079, "[48]": 29619, "mts": 20270, "##zf": 28072, "spind": 13778, "reflect": 4693, "adopt": 9265, "fe": 588, "bell": 11048, "##\u80de": 30769, "##vir": 12559, "##osexual": 21332, "##commer": 21077, "##ophthal": 27510, "pyl": 12621, "##olk": 25170, "##</": 17803, "energ": 25075, "vision": 6021, "##\u03be": 30225, "##\u524d": 30798, "head": 2795, "ip": 3329, "naive": 13687, "##,\u2019": 27988, "##itosan": 17029, "tumorigen": 16752, "mandible": 26510, "inconsistencies": 25087, "##foc": 16962, "##arch": 1392, "##solving": 26980, "2004.": 9321, "nomenclature": 21169, "##ografts": 20598, "##responsive": 15073, "french": 10282, "swe": 9306, "siam": 23947, "electr": 1387, "elucid": 8888, "lsd": 28790, "virgin": 14589, "##othor": 20738, "availability": 5232, "curr": 14993, "##shock": 26676, "##\u673a": 31076, "##zi": 5889, "##-05": 19657, "\u00eatre": 27657, "colours": 27777, "began": 9332, "pollutants": 17951, "loadings": 22219, "##osc": 26624, "volt": 2593, "terminology": 14571, "maximizes": 20020, "radion": 28448, "##205": 22685, "##exual": 28751, "thompson": 15596, "##abil": 1831, "graz": 14706, "fundamental": 4900, "5.3.": 27788, "##plas": 3062, "standard": 1235, "monomers": 18734, "pod": 10919, "(55": 27194, "polyst": 27287, "\u03b1": 1474, "prescriptions": 24051, "mri": 6410, "##haft": 28420, "for": 168, "##\u2327": 30954, "updating": 13199, "lasers": 17216, "cre": 1443, "nozz": 24589, "mutually": 14853, "##***": 23552, "downloaded": 7448, "##oci": 618, "##adesh": 18883, "##::": 10086, "convexity": 26837, "##phy": 13399, "##printed": 21940, "endocard": 22002, "transl": 3801, "##arum": 14540, "llo": 21822, "veloc": 3127, "transmembrane": 13906, "stoichi": 19319, "bilaterally": 28850, "##aryl": 23776, "electricity": 11384, "##mil": 16704, "##1;": 2292, "iner": 11603, "2017,": 13654, "##dal": 23955, "forces": 5862, "goldberg": 27754, "&&": 29919, "receives": 10255, "research": 849, "##s": 30113, "biv": 17452, "supr": 20022, "gtp": 14026, "biosystems": 15582, "##ggt": 20760, "##rough": 779, "wilcoxon": 20409, "truck": 29600, "\u0398": 9854, "euc": 27894, "amel": 15159, "crani": 19394, "rescal": 27175, "framework": 2641, "rms": 10588, "##kim": 19485, "##\u015f": 30316, "defects": 6292, "##\u2294": 30670, "##oqu": 19458, "enterpr": 7844, "##achi": 16846, "eliminated": 10776, "willingness": 17177, "fram": 2133, "peut": 28734, "noc": 11515, "improper": 26367, "circumstances": 9728, "developmental": 6391, "##go": 2366, "2016,": 12575, "##experimental": 26434, "sta": 15934, "0.37": 18960, "##\u03b2": 30180, "##ema": 6235, "paradig": 7073, "heterogeneity": 7169, "spi": 14621, "kap": 15965, "##44": 3875, "ulcers": 20648, "antiplatelet": 28807, "##uly": 4296, "##before": 23981, "asynchronous": 14504, "cyclin": 13383, "quarterly": 18849, "twelve": 14880, "besch": 15761, ".": 205, "labels": 8855, "##druck": 29554, "flu": 1441, "monoclonal": 9743, "corrobor": 16525, "marker": 5522, "##\u030c": 30522, "inertial": 19615, "coulomb": 20253, "##aptic": 5741, "##(5)": 11333, "assignment": 7265, "deflection": 21432, "euth": 22232, "epidemi": 6105, "(24).": 23432, "mer": 5127, "wors": 13711, "enth": 21145, "broker": 25620, "71.": 27523, "##erge": 8245, "\u00c5": 8301, "##9%)": 12268, "fun": 11035, "analyses": 2519, "##onom": 7168, "##mel": 12952, "##average": 14374, "thy": 17461, "stall": 25782, "besteht": 27586, "resorption": 20068, "pleural": 18760, "unity": 13244, "##genommen": 28290, "##acian": 20415, "##ited": 926, "backbone": 13758, "inlet": 18067, "2014),": 22902, "hemispheres": 29692, "##idung": 28517, "horizontally": 24414, "1999": 9135, "##ocard": 4273, "maps": 5086, "realism": 29663, "untersuchung": 25951, "inoculum": 23964, "hourly": 23403, "immunode": 15613, "inactivation": 11207, "compromise": 14382, "charts": 18609, "agitation": 25572, "atg": 17547, "mate": 18332, "lenti": 18809, "##osum": 19404, "mi": 4323, "21:": 23978, "routinely": 13423, "meet": 4014, "preparations": 11461, "##ategor": 3029, "##\uad6c": 30649, "ming": 26904, "##iceptive": 23920, "volati": 8413, "curve": 3498, "formula": 4535, "richard": 11958, "filled": 9489, "anisotropy": 15234, "\u221e\u2211": 15786, "##nex": 25498, "##own": 1513, "dnmt": 27276, "##\u2018": 30177, "##\u0155": 30882, "communication": 2498, "coversl": 26080, "1987).": 17629, "##60.": 20302, "##mn": 8280, "maximize": 9889, "solution": 1368, "treating": 9384, "paths": 5938, "anaph": 25786, "classifiers": 12400, "##2)(": 23918, "fiber": 4694, "etc": 3921, "ruled": 19303, "editing": 13422, "(48": 27168, "traject": 5113, "additive": 9288, "telomere": 20618, "##\u0444": 30550, "attributed": 6220, "##(11)": 24240, "quiet": 23731, "##......": 16407, "##bene": 16980, "retailers": 28501, "successfully": 5429, "##fri": 15903, "##toler": 17296, "entered": 11405, "translocation": 11658, "17)": 28861, "idiosyncratic": 29966, "##theore": 13435, "infinite": 7933, "##flu": 7088, "outstanding": 19192, "##plement": 1091, "(2014)": 12553, "inventory": 10465, "##vey": 16787, "##onch": 7682, "solved": 7240, "adip": 6379, "counts": 7274, "##perme": 27747, "##\u010c": 30865, "experimental": 1798, "nanowires": 23446, "##wald": 19871, "atm": 4922, "psf": 27485, "425": 26491, "##culture": 16094, "plank": 29525, "0.01": 3170, "embryonic": 9855, "##anov": 26900, "texas": 11679, ".01": 15575, "chitosan": 18012, "vn": 12437, "\u00bb": 13434, "minor": 5118, "happ": 5375, "##ze": 1948, "languages": 6554, "differentiable": 21963, "[42].": 22455, "##\u2019\u2019,": 25612, "2008),": 16267, "##imming": 14827, "durability": 28839, "0.01,": 18348, "gesam": 28660, "optic": 12746, "12,": 6259, "lasting": 18467, "##vii": 13663, "##ugg": 16308, "extreme": 7424, "pione": 20307, "adams": 19019, "##102": 18259, "synchrony": 27708, "tev": 25583, "##508": 27164, "dem": 857, "counselling": 27650, "mast": 12277, "##2}": 20923, "oliveira": 28571, "puzzle": 26253, "conformations": 19357, "minimize": 6600, "##urations": 7442, "##jm": 17416, "##agc": 17478, "exchanged": 19472, "gaining": 19647, "anthropometric": 24485, "##circuit": 22860, "animal": 3561, "regimes": 13440, "tud": 26736, "##\u2318": 31054, "##\u0142": 30386, "tann": 23242, "excit": 8255, "##obility": 27332, "subtraction": 17555, "oz": 10816, "sip": 18533, "77.": 29755, "handoff": 29989, "activates": 13500, "10(": 24708, "nor": 2247, "(1991).": 22605, "##ischer": 11183, "expert": 7248, "trains": 22471, "(+": 14554, "dissoci": 8747, "##compared": 28185, "scene": 8544, "dilemma": 23066, "translated": 11742, "seeking": 11997, "textual": 17785, "stoff": 28982, "##133": 18959, "##amp": 1977, "qp": 20436, "27,": 10948, "multiplier": 17491, "##respectively": 22843, "##20.": 16734, "2012": 4950, "##omatic": 5256, "socket": 29682, "inv": 593, "photos": 9354, "1994": 13239, "rectangular": 13565, "##rein": 18742, "stressors": 20537, "advertisements": 28841, "##\u0432\u0430": 23018, "##e": 30107, "consor": 15263, "enferm": 26013, "intravascular": 27116, "##omb": 3501, "jacob": 13079, "efficiently": 7132, "anticoagul": 19822, "##uating": 23687, "[unused16]": 17, "##opropyl": 19687, "##fin": 10914, "##ick": 1273, "stored": 4700,
[...]
